#version: 0.2
i n
Ġ a
Ġ t
r e
o n
t i
h e
e n
Ġ o
e r
Ġ s
Ġ c
a l
e d
Ġt he
Ġ p
Ġ in
Ġo f
Ġa n
a t
Ġ w
e s
o r
r o
a n
ti on
i s
i t
Ġ m
Ġan d
Ġ d
a s
i c
Ġ f
Ġ b
a r
en t
in g
Ġ re
l e
a tion
Ġ e
v e
Ġt o
e c
o m
u l
Ġ (
u s
l y
a c
o s
Ġ h
o l
Ġ n
e t
i d
u r
Ġt h
Ġ T
it h
Ġ l
i m
Ġw ith
e re
e l
t er
a ti
u n
Ġ g
t r
i g
c e
Ġf or
Ġp ro
Ġc on
o t
i l
re s
u c
i f
r a
Ġw as
at ed
u t
u m
ĠT he
Ġ v
o d
Ġs t
o p
o c
o w
ti c
Ġa s
t s
Ġw ere
a m
it y
Ġ is
Ġe x
ent s
Ġ 1
Ġ A
at e
e m
s i
o g
Ġ on
Ġ C
Ġre s
Ġ I
d i
Ġc om
Ġa c
a g
i r
y s
a b
Ġb e
ro m
Ġb y
el l
ic al
Ġth at
Ġ r
u p
in e
v er
an t
p h
q u
t h
m ent
Ġa l
as e
Ġp ati
u re
Ġ P
Ġc h
f f
Ġ S
t ed
s e
a in
Ġd e
Ġ 2
Ġo r
ti ve
u d
he r
Ġcom p
Ġd is
i b
Ġ im
es s
Ġpati ents
a d
p ec
Ġa t
p l
t e
d uc
Ġ us
Ġin c
Ġf rom
un d
p er
Ġ M
Ġp er
Ġa re
i z
Ġa d
Ġ H
Ġc ell
u b
ig n
re d
ation s
if ic
ve l
ig h
r an
u g
i al
a y
Ġ he
Ġs e
or m
o us
si on
Ġn e
Ġ en
Ġw h
o re
i p
Ġ le
ff ec
p or
ti v
en ce
) .
s t
i on
Ġs h
t or
c h
Ġ D
es t
ĠI n
ar y
ul ar
t ro
er s
g e
i a
le c
Ġas s
Ġg ro
Ġd i
Ġ 3
Ġp re
ol og
re at
0 0
Ġ B
) ,
re as
if f
Ġ N
ati ve
re n
Ġs ign
Ġ E
Ġin f
Ġ 0
i v
Ġ F
y l
Ġc l
y p
ere n
Ġd iff
i es
Ġa p
Ġm et
Ġg en
an d
Ġ R
Ġst ud
Ġe ffec
Ġb et
Ġth is
a p
p res
e ar
Ġ W
an c
os t
is t
an ce
Ġn ot
Ġstud y
Ġc o
Ġp res
tion s
en ti
p ro
os e
Ġp h
Ġe v
Ġh a
Ġp l
Ġw e
Ġin ter
w e
Ġt ran
ic h
t her
Ġo b
Ġs ur
Ġsign ific
Ġp ar
Ġgro up
e p
Ġre c
Ġs ub
id e
on s
Ġa b
Ġdiff eren
on g
Ġ O
Ġcell s
d ing
f ter
Ġan al
Ġd et
Ġsignific ant
Ġ k
on e
ag e
v i
l ow
Ġ L
Ġm e
Ġ 4
m in
Ġres ul
v ed
al ly
Ġm od
we en
un c
Ġtran s
Ġs tr
Ġ 5
ab le
Ġ G
Ġac tiv
as t
i ti
Ġbet ween
at h
y n
Ġt reat
Ġs pec
al l
al u
Ġ it
Ġre g
ra p
Ġha ve
en d
ar i
ys t
Ġwh ich
Ġsh ow
o und
oc i
Ġ y
te in
en c
Ġth an
Ġc or
o x
Ġa fter
ĠT h
Ġm ic
ti m
Ġin v
por t
Ġre l
he n
Ġin t
Ġcon s
Ġs c
f orm
Ġin d
igh t
Ġc ar
at es
ec h
t al
ot h
duc ed
r i
Ġc a
ent r
Ġtreat ment
y m
Ġ =
o ur
Ġle vel
Ġan ti
Ġf ac
os is
ro s
or y
a k
il l
en s
p on
t ain
Ġa r
il ity
ul ation
tro l
w o
c l
ec tion
o od
Ġ un
Ġh igh
reas ed
ur ing
l u
Ġ und
ce p
ac t
om e
as s
re e
y t
as es
Ġ 6
Ġa g
m un
Ġpro tein
u di
Ġbe en
vel op
Ġthe se
N A
at er
ac h
an g
Ġus ing
Ġ ro
Ġh as
Ġp o
Ġdis e
Ġb ut
Ġc an
pres sion
h ib
Ġp os
Ġund er
ug h
u al
Ġa m
i ed
u e
Ġn o
ys is
at ing
Ġb l
o b
Ġass oci
Ġh y
Ġl ow
Ġresul ts
ac ter
m s
Ġmet h
ag n
Ġcon trol
unc tion
e w
Ġst udi
a red
p le
yst em
Ġde velop
in ical
o ut
s o
Ġd ec
T he
Ġ qu
g en
u res
d er
or s
he m
olog ical
Ġm on
ĠW e
Ġb i
Ġm ay
ati c
p os
Ġm ed
Ġh ad
Ġt wo
v en
iz ed
Ġal l
Ġthe ir
og en
t ing
Ġp r
ĠTh is
Ġs er
s er
Ġus ed
t en
Ġcon c
am in
Ġs ystem
Ġd uring
c ess
Ġv ari
Ġc ol
Ġal so
Ġf ol
ul d
Ġ ra
Ġd es
Ġfac tor
Ġs p
Ġs up
Ġt im
c r
Ġb oth
at a
Ġm ore
Ġt r
Ġm an
Ġme as
iz ation
pec tive
Ġcl inical
i um
Ġo ut
ul t
Ġpres ent
og ra
Ġdise ase
d e
v id
j ec
re l
Ġ 9
Ġactiv ity
il d
Ġ 7
Ġy ear
Ġs yn
al th
hib it
Ġinc l
Ġm o
Ġmeth od
Ġ U
Ġs ug
Ġanal ysis
i tion
in ding
m on
Ġb as
uc t
Ġs am
Ġn on
Ġsignificant ly
Ġus e
t in
an s
Ġfol low
Ġac c
Ġs uc
Ġdet er
it e
ic i
Ġo ther
e ver
ac e
Ġsug g
o id
ac tion
Ġf unction
Ġmod el
a ys
is k
Ġs im
ar d
Ġinc reased
n e
Ġlevel s
rap y
Ġ id
Ġincl ud
k e
Ġcomp le
Ġev alu
Ġen d
Ġob ser
ti g
di tion
Ġres pon
b le
Ġe m
Ġassoci ated
Ġf ound
Ġh um
Ġper form
yp e
t om
duc tion
u tion
Ġ 8
Ġ1 0
Ġcomp ared
Ġd ata
Ġg l
Ġeffec ts
i le
Ġeffec t
enti f
re c
a il
anc er
Ġr at
Ġex pression
at ory
m ents
Ġo ver
ter n
on d
Ġgen e
ogra ph
in al
ere d
ly m
m a
al s
r ic
Ġdifferen t
Ġfor m
Ġh ig
Ġl i
Ġconc entr
Ġex per
Ġp ot
Ġt um
er y
enc y
Ġhe alth
Ġtim e
Ġim mun
Ġshow ed
an ts
Ġch ar
re ase
si ve
r on
es tig
Ġit s
Ġind ic
0 1
Ġac id
Ġo c
Ġdi agn
Ġr isk
Ġstudi es
orm al
Ġw he
Ġmeas ure
om a
Ġ V
Ġo p
p ar
Ġd em
Ġyear s
Ġinv estig
Ġd r
Ġon e
tic al
us ion
Ġap pro
he d
ab ility
l ic
em b
ons tr
Ġid entif
ut e
c op
Ġpro g
Ġc ancer
Ġp ath
Ġass ess
olog y
is s
iti es
er g
Ġin s
ow ever
Ġmic ro
op h
c es
n i
Ġhum an
/ -
ur ren
he s
l es
is m
d ro
Ġcon tr
Ġin tr
Ġre m
Ġ up
id ence
at ure
' s
Ġint o
enti al
Ġwh o
Ġin hibit
% )
ra in
Ġa ge
cep tor
al e
Ġ +
Ġc ases
i ve
c in
Ġsur g
ech an
Ġhig her
or k
Ġs ec
Ġchar acter
Ġw ell
Ġe lec
ar g
b in
ĠThe se
p it
um b
Ġde f
pl ic
Ġm ost
u ro
ti l
Ġm a
or d
o v
pective ly
Ġm in
vi ew
em ent
Ġch ild
Ġobser ved
Ġp red
ĠA l
Ġpar tic
s ed
Ġgroup s
Ġr ate
Ġim pro
Ġpati ent
ti t
i x
Ġm ul
ur al
Ġbl ood
ar k
Ġon ly
an ge
Ġ <
Ġp ost
us e
e x
Ġne w
tain ed
n al
Ġ es
Ġstr uct
Ġm or
Ġm echan
Ġoc c
os ph
ir st
a v
un g
Ġs m
end ent
m ed
h y
Ġch ang
re ated
l ed
Ġv alu
Ġgen er
o k
r y
Ġt iss
Ġl oc
an e
Ġ1 9
Ġo x
Ġt ech
Ġth ree
Ġre ceptor
et h
Ġim port
Ġ K
uc le
en si
as c
Ġdem onstr
ac k
i od
Ġgro w
f er
or t
Ġthe re
ro ugh
p a
s y
Ġrespon se
Ġc al
Ġw hen
Ġt est
Ġpro cess
f ul
ion s
Ġres pectively
Ġf irst
ol d
om en
Ġe ff
Ġsuc h
ot he
tic s
Ġdr ug
er ative
ul ated
i tive
ar ly
in es
ent al
Ġdevelop ment
Ġth ose
tiv ity
f ore
Ġex amin
Ġfactor s
res s
Ġthe rapy
n ow
Ġ1 2
Ġ+ /-
Ġs ol
Ġdis c
o res
Ġca re
Ġsugg est
ec ted
ation al
ur ther
Ġro le
Ġhy per
o ugh
en e
Ġn umb
re qu
Ġinc rease
x im
Ġp a
f t
is e
Ġdeter min
Ġchang es
Ġc yt
Ġinv ol
Ġre por
Ġcon f
o uld
ym p
Ġto tal
Ġcor rel
1 0
ra m
th s
Ġm us
iv ed
Ġn ormal
z ed
Ġmo lec
Ġpr im
od y
ĠH owever
Ġperform ed
Ġra di
ep endent
Ġh yp
g an
i e
Ġp op
ph a
am m
Ġ [
Ġl ong
Ġth rough
Ġpl as
v al
Ġre view
Ġspec ific
e k
cr ib
it s
Ġchild ren
Ġf e
as ed
Ġa ut
qu e
Ġin j
Ġpred ic
iz e
h a
Ġad dition
urren t
Ġco uld
Ġsub jec
l as
I I
a re
Ġexper im
qu i
Ġm y
Ġlow er
ar t
Ġex tr
il ar
asc ular
ent ly
Ġgrow th
Ġmul ti
is tr
Ġper iod
Ġf ib
Ġpot ential
z ym
Ġm g
Ġanti b
Ġg ra
Ġout c
ar di
Ġl ess
Ġc r
Ġv it
Ġnumb er
u es
Ġf requ
Ġm ain
ograph y
iv al
ymp tom
oc k
Ġcon t
Ġam ong
Ġtum or
Ġcar di
si ble
Ġm emb
Ġs tim
Ġimport ant
ĠThe re
i an
at al
ol ic
ag es
Ġf inding
ti es
ven tion
Ġf lu
o ver
om es
Ġrat s
Ġcomple x
c le
Ġc ase
Ġmon ths
Ġw omen
Ġcom bin
Ġwith in
op erative
Ġwith out
i or
Ġap p
ar ge
Ġde g
Ġ j
i el
al ity
Ġm ut
os pit
Ġc hem
Ġcal c
it er
Ġse lec
Ġme an
Ġt ype
Ġne uro
I n
oc yt
Ġd id
Ġtech ni
i ly
in d
] .
Ġd ays
Ġp at
Ġd o
in s
0 5
es ted
n ess
l i
pl ant
Ġhe m
er v
Ġe p
Ġin di
vi ous
Ġv ir
Ġse qu
Ġar ter
t y
am et
Ġdes crib
c ed
Ġsur f
lym ph
ĠD NA
Ġsim ilar
Ġocc ur
ak e
Ġa ffec
ain s
ing le
Ġre ve
er c
pl es
ĠI t
Ġd el
Ġc ap
Ġm al
am ine
Ġtiss ue
e tic
iel d
b r
Ġk now
Ġcons id
Ġex pos
ic e
Ġw ork
Ġe ach
5 0
an n
iti s
in t
c o
Ġrepor ted
Ġl im
Ġg reat
ac y
if ied
in duced
Ġis ol
hes is
ical ly
rec t
j or
Ġpro t
Ġre f
Ġde p
% ,
Ġc y
Ġne ed
ro p
Ġinclud ing
Ġmet ab
om et
Ġca us
ha vi
is h
Ġsur v
Ġph osph
h ip
ti s
et y
Ġhy dro
Ġre qui
Ġres p
Ġinf lu
Ġ J
ati s
Ġob tained
Ġt reated
Ġs ome
Ġbas ed
Ġre le
Ġf r
it ed
Ġpres ence
ĠS t
Ġcom mon
Ġdiagn osis
Ġs ymptom
Ġt er
o tic
Ġcomp ar
1 2
Ġ lymph
Ġs o
) -
Ġt em
Ġo ur
re g
Ġma jor
Ġsurg ery
en g
Ġs ingle
Ġwe ek
Ġ2 0
vid ual
am ic
Ġn ucle
Ġreve al
Ġfinding s
Ġv ol
Ġmic e
ĠA n
Ġpos itive
Ġanal y
Ġidentif ied
ir on
arg et
Ġ2 00
Ġconcentr ation
ic ation
Ġinc reas
Ġ -
Ġdifferen ces
Ġb ec
Ġm ark
Ġen zym
c on
Ġab s
Ġs ensi
G F
Ġpro vid
Ġv is
ane ous
Ġsyn t
Ġconcentr ations
Ġsec ond
Ġstudi ed
Ġe l
it es
ospit al
Ġl ip
R NA
tr ib
Ġse ver
di tions
Ġpo ly
Ġsm all
is ms
Ġser um
Ġc ult
Ġbe havi
a f
ul in
Ġre duced
er ation
Ġor gan
Ġad min
Ġpres s
Ġdec reased
ag ing
v es
Ġwh ile
c ent
k in
o f
ar m
sy ch
Ġmeasure d
ate ly
Ġprim ary
Ġd ose
Ġre ce
Ġe arly
ron ic
Ġcon ditions
Ġpro m
ros s
cr ip
Ġrel ated
on al
ep ti
Ġsh ould
Ġd ue
Ġf em
it her
Ġb rain
Ġt ra
Ġdiagn os
Ġ1 5
Ġindi vidual
Ġin iti
Ġr ati
in k
th ough
tr ic
Ġcl ass
oc h
Ġli ver
Ġplas ma
ac tions
Ġpop ulation
Ġl arge
rom e
Ġmemb ran
v ing
he l
Ġo l
ve re
l amm
Ġper s
ve ment
Ġab out
s tr
is hed
ĠC h
Ġspec ies
ate g
Ġeffec tive
Ġpat tern
Ġm at
Ġpre vious
Ġev idence
res sion
o un
ec t
Ġsubjec ts
Ġprotein s
u ce
Ġinvestig ated
Ġre port
Ġac ute
Ġex pl
C T
Ġl es
Ġfollow ing
an ti
Ġinf ection
Ġt arget
es ts
Â ±
ic k
is sion
Ġdevelop ed
Ġpro ced
Ġd er
i ver
Ġa v
ear ch
Ġen h
Ġa im
Ġ "
yp es
Ġpro per
Ġsam ples
Ġpro l
en ing
Ġin duced
om y
Ġe le
med i
Ġb one
b ased
ens ity
if e
C R
Ġle ad
ations hip
a x
s ing
Ġ3 0
Ġim p
ly c
Ġsurf ace
Ġb inding
g ative
Ġcharacter is
Ġinf orm
Ġsurv ival
Ġ ul
Ġcomp lic
Ġph ys
Ġreveal ed
Ġg as
Ġdemonstr ated
ver se
ĠC D
Ġthe y
C A
Ġhe p
Ġpress ure
Ġch rom
ad e
Ġvalu es
a use
Ġch ronic
anc ed
ol es
Ġag ain
Ġdifferen ti
ific ation
Ġpro v
m ine
Ġevalu ated
e u
Ġn ec
p tion
Ġan im
Ġp ain
Ġv s
Ġinj ur
Ġf our
Ġ1 4
Ġpr ac
Ġelec tro
Ġc urrent
Ġp ul
Ġ1 1
Ġp ur
Ġpo lym
Ġstruct ure
ro ph
ter m
os s
Ġst and
at or
M P
00 1
Ġdetermin ed
Ġpro duc
ag ement
Ġvit ro
Ġ est
Ġpro f
Ġad v
p e
Ġrel ationship
ocyt es
Ġp e
eth yl
S A
Ġf am
Ġf l
Ġcar cin
Ġexamin ed
Ġsyn d
Ġ2 4
ater al
tor y
es is
ĠT o
Ġco un
m e
Ġappro ach
Ġloc al
Ġ ur
Ġr ates
Ġinclud ed
Ġdeter mine
Ġap plic
Ġst ress
Ġan g
ros cop
Ġbe fore
Ġres ist
se qu
Ġex t
Ġp hen
ic ity
Ġw ater
el f
Ġdisc us
Ġf ail
o le
Ġl ab
ial s
yn amic
Ġmolec ular
Ġbet a
oc y
on ic
Ġm ater
Ġagain st
ĠA s
and om
Ġmethod s
Ġf urther
Ġo per
( -
Ġdi ab
enc es
Ġc le
Ġpar amet
Ġreg ion
Ġne ur
ell ular
Ġres earch
Ġgen es
Ġe qu
Ġe ither
ol ar
Ġal pha
Ġ1 3
Ġv al
om ic
Ġfunction al
ici ent
Ġthe rap
Ġsam e
pres sed
v ent
olog ic
Ġrel ative
Ġn an
Ġs us
Ġl ine
Ġo s
rel ated
tain ing
Ġdes ign
i at
Ġb ody
Ġ1 8
1 1
Ġes tim
Ġactiv ation
ĠC I
Ġsymptom s
P A
op ath
ul ts
Ġex c
ut ed
Ġpath w
othe rapy
om p
Ġintr a
Ġ Î
is ts
ab l
tom y
Ġpro duction
ul ations
Ġgreat er
Ġdis trib
Ġrati o
Ġform ation
v iron
Ġf low
w ent
Ġs u
Ġqu ality
ul es
oc hem
n ing
Ġs et
Ġwe ight
Ġ1 6
y ear
Ġp sych
Ġgl uc
ar c
Ġr andom
a z
Ġinform ation
y r
Ġh ist
Ġvari ous
Ġshow n
at us
ur ation
Ġm m
Ġproper ties
s pec
Ġmus cle
Ġh ospital
Ġdet ected
Ġph ase
Ġexper i
Ġc ir
Ġsynd rome
Ġr ange
Ġelec tr
Ġm ass
Ġwhe ther
ĠI I
l or
tal ity
hy dro
d ependent
Ġcomp ound
istr ation
Ġexpos ure
Ġweek s
em ia
en sion
Ġpos sible
Ġd ys
a e
t o
ud e
Ġcontr ib
Ġdifferen ce
Ġl ung
Ġpro b
tic ally
Ġsign al
Ġman agement
Ġpartic ip
is ion
I V
or ph
ac tive
Ġw ill
Ġl ife
Ġ u
Ġmembran e
Ġmetab ol
Ġl oss
o ly
Ġb acter
Ġvir us
Ġre duction
Ġprov ide
ograph ic
Ġ9 5
ici ency
k g
Ġc at
Ġan y
tro s
l ine
Ġhe art
Ġse vere
ĠO ur
Ġ ve
Ġh is
Ġch ange
Ġto x
Ġcar b
Ġwhe reas
Ġcon cl
ons es
in c
g l
Ġrec om
im in
Ġ2 01
ro up
at in
Ġd om
Ġmulti ple
Ġdi rect
Ġre d
Ġsever al
Ġinvol ved
Ġmor tality
Ġ5 0
Ġanal ys
Ġcon duc
is on
Ġsup port
Ġsurg ical
ĠI L
Ġre pres
Ġre nal
id es
Ġs ize
1 3
Ġtechni que
Ġinf lamm
Ġno vel
Ġ X
st and
Ġmed ical
entr ic
1 9
Ġconf ir
C s
Ġcontrol s
at ures
Ġ Â±
Ġcomp on
Ġne gative
Ġg u
ĠAl l
oc ardi
l ing
Ġre action
Ġresp onses
T o
in f
y si
Ġ1 00
Ġpar t
2 0
1 5
g n
Ġres id
Ġcult ure
or ding
Ġm uc
u tr
Ġtem per
Ġassess ed
erg y
Ġen viron
Ġstr ong
hib ition
Ġcy cl
Ġim aging
od ies
Ġdi et
Ġse x
Ġapp ear
m it
T P
iv en
Ġox id
ol ution
iv ing
Ġparamet ers
Ġ ed
Ġgener al
Ġperform ance
anc es
iv o
Ġmechan isms
Ġdet ection
pa ir
Ġde ath
Ġd ay
Ġsuc cess
1 4
Ġcon tin
w ard
Ġpro ble
Ġknow n
ro w
Ġav ail
Ġstr ateg
od e
Ġsc re
anc y
Ġac tive
ent er
Ġac h
Ġisol ated
M S
Ġmechan ism
is ed
Ġm agn
reas t
cep t
ĠF urther
ain ed
Ġinjur y
Ġcol lec
Ġanaly zed
Ġevalu ate
Ġ Q
Ġpresent ed
Ġph ot
a di
tr ans
eu tic
Ġm en
Ġvol um
Ġare a
2 5
in ed
g r
Ġstand ard
Ġdec rease
ter s
Ġv ivo
Ġvalu e
Ġs al
A P
as is
Ġles ions
Ġpartic ular
Ġest abl
Ġcharacteris tics
mon ary
Ġ z
1 8
Ġenzym e
ver age
Ġach ie
9 5
d es
ĠA m
Ġc ere
ter ior
Ġcontr ast
op las
Ġoutc omes
Ġcom mun
Ġv er
Ġoutc ome
Ġpre gn
Ġli ke
o ve
O R
end ed
le t
Ġ .
Ġ2 5
Ġp epti
Ġbehavi or
ul f
ogen esis
g ra
li ke
Ġassoci ation
p ose
Ġv i
c hem
u le
Ġresist ance
d s
Ġmodel s
entr al
ĠR es
l er
Ġle ft
crip tion
Ġmor ph
C C
Ġf ield
Ġm it
Ġman y
s is
Ġ1 7
ĠR e
y gen
Ġst atis
Ġcir c
Ġcomple te
Ġincreas ing
Ġal low
or b
Ġv ery
us t
ple ment
Ġb reast
Ġ rap
it ation
Ġresul t
Ġpre val
Ġpro st
Ġevalu ation
es tion
Ġsystem s
it al
ĠF or
spec ific
op t
Ġor der
ĠO n
ot her
Ġadmin istration
m ic
op ro
og n
ĠC a
Ġinc idence
Ġs elf
Ġad j
Ġp ub
Ġidentif y
et a
Ġindic ate
n ormal
y ro
Ġd os
Ġdise ases
ĠA t
Ġfollow ed
Ġfrequ ency
Ġass ay
o ad
Ġf oc
u k
ed ing
Ġconsid ered
pos ed
u ally
Ġin hibition
ati ents
res pon
t ure
Ġf at
Ġcomplic ations
Ġ x
Ġhealth y
Ġst atus
Ġenviron ment
Ġs af
ul l
ab ly
Ġdescrib ed
our s
Ġcons ist
Ġcomp os
1 6
ous e
Ġul tr
ogen ic
et es
Ġexperim ental
it u
ic acy
ĠE x
Ġem b
oc ial
Ġm ale
ene f
A D
Ġcorrel ation
b ility
Ġbe ing
Ġhe l
Ġbec ause
Ġextr ac
Ġcardi ac
or ing
Ġcaus ed
or der
Ġf il
Ġt e
Ġinflu ence
Ġsup er
ĠC on
Ġtum ors
Ġm RNA
v ic
ti ce
Ġs ite
Ġreg ul
ĠA d
Ġbl ock
Ġv ia
qu es
plant ation
T h
ub le
ar b
te gr
Ġst ate
Ġh owever
Ġanim als
R I
Ġt ested
re es
Ġh om
Ġdistrib ution
and s
en z
Ġsensi tivity
Ġop tim
Ġper cent
Ġcarcin oma
am p
Ġacc ur
n er
or ption
m al
Ġa min
Ġrece ived
% ),
ĠP ro
Ġt ub
te x
Ġs kin
o y
W e
Ġimpro ve
el s
A S
Ġdis t
Ġ >
ot ox
Ġex hibit
Ġmet ast
Ġrele ase
Ġm ac
Ġdrug s
Ġprol if
ĠA c
Ġf ree
Ġrap id
Ġat t
eren ce
ĠA fter
Ġinvestig ate
Ġunder stand
Ġph arm
Ġhigh ly
ib le
Ġk in
Ġb enef
m ission
Ġind ependent
ver s
Ġimpro ved
Ġstim ul
C D
Ġrequi red
c ence
on es
Ġarter y
. ,
Ġind ex
yl ation
eng th
Ġtherap eutic
an tit
ab il
Ġn it
Ġins ulin
00 0
Ġassess ment
Ġsynt hesis
Ġgluc ose
on ary
l ast
Ġat ten
Ġgene tic
ra g
ĠN o
Ġcombin ation
Ġfail ure
ial ly
Ġe pit
le x
Ġrec ord
Ġavail able
Ġbet ter
pl ied
iat ric
Ġ ir
Ġfam ily
s es
er ic
Ġt ypes
tor s
Ġsec re
Ġmon it
% ).
1 7
ord ers
Ġar tic
Ġma xim
oun t
Ġprevious ly
Ġv ac
Ġv ers
ĠC l
Ġs ites
Ġl iter
Ġc ross
ro und
ot ype
Ġcont ent
om as
Ġinf ec
Ġcol l
ro gen
Ġuse ful
% .
Ġpro duced
g o
Ġvolum e
a i
Ġ if
P S
Ġtemper ature
- -
o ung
ten sion
i ent
ro b
Ġos te
Ġimp act
uc tion
Ġsh ort
s c
in ary
he si
ro l
Ġcompound s
rom b
ĠAl though
Ġsam ple
Ġfe atures
el ine
D S
Ġpre c
Ġproced ure
Ġab normal
Ġor al
Ġl ig
Ġen ergy
Ġ er
he tic
Ġreceptor s
ow n
Ġh orm
Ġl ight
Ġcar ri
ren t
Ġad ult
ochem ical
entric ular
ol s
Ġv ascular
Ġtran si
ti al
Ġrepres ent
Ġindic ated
Ġca use
Ġf ive
r ation
Ġad d
Ġeff icacy
Ġre duc
Ġ4 0
Ġst age
Ġdiab etes
v ant
Ġpreval ence
o red
Ġactiv ities
Ġmed i
er ve
urren ce
Ġsub st
Ġd am
ur n
ocy te
Ġsequ ence
c t
ĠU n
ain ing
ox id
id ity
in ce
om al
Ġunder went
Ġdeg rees
Ġ19 9
Ġab ility
C I
Ġad en
Ġdis orders
Ġpost operative
Ġ unc
Ġwhe re
Ġpa per
Ġt rain
Ġcontin u
Ġthe n
ĠC T
Ġliter ature
Ġang i
Ġconduc ted
Ġb el
reat ment
S T
Ġse par
al pha
br al
Ġap opt
s et
Ġthe m
Ġp H
Ġc ur
Ġover all
he st
Ġcorrel ated
othe l
3 0
Ġap plied
iz ing
is ing
Ġvis ual
Ġinter action
Ġele v
Ġn ur
Ġpul monary
Ġcor onary
Ġphys ical
is tic
ra y
Ġtechni ques
Ġor ig
Ġg ood
Ġ Z
Ġiniti al
Ġe th
os cop
Ġstim ulation
r h
b eta
N F
Ġintr ac
Ġ ill
Ġlip id
al es
Ġs l
C l
Ġy oung
Ġex pressed
Ġspec tr
Ġhe ter
Ġsur ve
Ġs ch
d om
O S
Ġm ix
Ġvers us
Ġm ade
Ġprog ram
Ġle ast
us tr
im ension
Ġoccur red
Ġin tegr
Ġindividual s
Ġfoc us
Ġa verage
em ic
Ġs our
f usion
Ġprog n
Ġmic roscop
Ġof ten
Ġtiss ues
over y
Ġox ygen
a ve
t le
Ġdiscus sed
ip her
ĠH e
Ġg iven
ov ascular
ĠP atients
Ġm ight
m ore
Ġ6 0
Ġcombin ed
et al
C S
Ġob jec
Ġrec ogn
enc ed
Ġtim es
Ġ ion
t ype
Ġamin o
Ġtrans fer
ab les
t reated
Ġep id
Ġd a
Ġc ent
Ġs ix
c ell
Ġcon dition
Ġfem ale
Ġpl ay
Ġlike ly
Ġh ow
yro id
Ġdiagnos tic
Ġappro xim
Ġcompar ison
+ )
ut ure
A T
Ġsuccess ful
Ġcharacter ized
led ge
Ġbi ological
Ġpre vent
ros is
r ing
Ġantib odies
Ġdis s
ĠH IV
A B
Ġimmun e
Ġmin im
Ġmal ign
Ġt ests
Ġc entral
d ay
Ġof f
M I
Ġobser v
Ġd ynamic
ot or
Ġare as
Ġle uk
Ġe y
ĠC om
Ġpathw ay
ĠI m
Ġu til
Ġmeasure ments
o int
ĠC O
Ġev ents
Ġa ir
Ġinter vention
ir atory
i o
ag on
ac tiv
4 0
id ne
Ġqu antit
Ġch all
oc c
Ġprac tice
ĠI g
Ġd ensity
Ġcell ular
as k
ĠH ere
Ġaffec ted
ogen e
Ġr ight
Ġapplic ation
Ġsc ore
Ġn at
Ġcon taining
or tic
co h
Ġpo or
Ġpattern s
Ġcr iter
er ing
Ġse en
Ġth romb
at ors
Ġantib ody
ti f
Ġdel iver
Ġpharm ac
ri or
Ġmod er
u tions
ĠM ore
d r
Ġpl ate
Ġf ood
e y
Ġpl ace
Ġanalys es
ut es
est inal
Ġc ri
til l
Ġag ents
Ġev en
Ġw ould
Ġresul ted
m an
f unction
Ġen c
um in
Ġultr as
ak en
erg ic
Ġinhibit or
Ġprocess es
Ġcollec ted
Ġepit hel
Ġo v
ist ered
Ġqu estion
Ġdemonstr ate
ec tomy
Ġflu ores
Ġper ipher
Ġend othel
Ġneur ons
ly ing
es sion
Ġanti gen
Ġem erg
M A
ar tic
Ġac tion
L A
Ġw ide
Ġex erc
Ġsugg ested
Ġpl ac
ak ing
Ġpot enti
N P
Ġtr ials
ten sive
ĠR NA
Ġre pe
Ġexperim ents
Ġn erve
Ġra re
ut aneous
t a
Ġconfir med
ter ol
Ġ Y
Ġrec ent
ĠFurther more
pl ac
Ġg lyc
D L
Ġpro posed
Ġl ength
Ġinter actions
Ġm id
Ġd uration
pec ted
ati tis
unc tions
i ous
Ġph ysi
w ork
Ġstruct ures
Ġincreas es
Ġflu id
2 3
Ġco ur
Ġk idne
Ġknow ledge
Ġtrans cription
2 4
Ġal ter
Ġstr ains
r ial
Ġkin ase
am ma
Ġs ocial
Ġ her
Ġad ults
ĠE n
Ġex p
Ġreg ression
ĠS c
E T
ra d
ag en
Ġrecom m
Ġ i
Ġinhibit ed
Ġm ouse
Ġscre ening
r al
A n
Ġed uc
p re
E R
Ġmy ocardi
C h
Ġn et
Ġaut h
Ġhis tory
o ti
r in
Ġan t
ur g
Ġp anc
Ġtech n
Ġacc ording
Ġexamin ation
Ġenh anced
Ġ ess
g et
Ġsub str
Ġhe ad
Ġl ink
ar ch
et ry
Ġpro s
Ġsol ution
Ġchem ical
Ġprolif eration
Ġinj ection
Ġdam age
pl oy
och ond
C P
p ri
6 0
il ic
ĠM ed
i red
Ġ '
Ġs ens
Ġa ff
R A
Ġp rior
pec t
Ġcalc ium
Ġlab or
Ġbas is
Ġreg ions
Ġsub sequ
vic es
is ted
Ġcap ac
L C
Ġsugg ests
Ġf ew
o lec
Ġad he
D A
Ġcons tr
Th is
Ġsc ores
Ġmeas ures
Ġapopt osis
f ac
s p
Ġ2 1
Ġc atal
f old
h ort
p ut
Ġbas eline
br id
os ter
Ġbi om
Ġelectr on
Ġtrain ing
Ġa x
Ġperipher al
Ġhel p
B P
2 2
t ake
Ġim plic
Ġis chem
Ġphosph or
Ġser ies
l ation
Ġb ir
Ġal tern
Ġto ward
Ġb il
Ġm el
Ġdis order
Ġexperi ence
Ġmed ic
in ic
Ġacid s
Ġselec ted
c y
u ter
Ġpregn ancy
Ġp or
Ġhyp ot
Ġsecond ary
Ġreg ulation
Ġdo es
pec ially
Ġestabl ished
ff icient
z e
oid s
er al
Ġcol on
s tit
Ġfr act
Ġp ow
r ine
v ice
Ġcor respon
8 0
Ġs itu
od es
Ġac et
m at
Ġag g
ac tivity
Ġs ide
Ġh and
Ġcriter ia
M R
res h
Ġlim ited
og ni
er tain
Ġunderstand ing
Ġapproxim ately
Ġre tin
Ġl ack
Ġ2 2
l ob
Ġy ield
Ġimpro vement
Ġmetabol ism
Ġtr ial
Ġl ay
Ġinflamm atory
Ġs till
em i
ĠTh us
Ġexerc ise
Ġsuggest ing
pres s
Ġm ar
Ġbi op
en se
Ġse g
Ġh al
Ġh ours
Ġv entricular
od ium
ĠW ith
Ġnec ess
ok ine
or n
ĠS e
Ġprovid es
ogni tive
R P
Ġemb ry
Ġcompon ents
tion al
Ġproced ures
a ff
Ġmolec ules
Ġal one
ec tive
Ġes pecially
E S
e f
form ation
Ġd on
um ent
ul ating
m l
Ġf er
Ġre tros
2 1
Ġcons um
om er
Ġpolym er
Ġparticip ants
n ai
Ġacc um
vention al
Ġunder go
Ġal coh
id ine
u tive
5 3
Ġdifferenti ation
ph al
ag ed
qu id
ĠR ec
Ġp ig
Ġl at
ĠP h
Ġdiff ic
Ġthe r
pro duc
a w
medi ated
Ġinv as
ĠO ne
Ġstr ain
Ġdep end
Ġpe ak
Ġh ip
an ol
Ġdos es
Ġaddition al
Ġs w
Ġr ang
Ġpepti de
Ġartic le
Ġachie ved
p ite
Ġinhibit ors
t ered
Ġaffec t
op le
b o
Ġconsid er
+ /-
Ġpos ition
Ġpro por
Ġcontrol led
Ġ2 3
ĠT wo
ĠW hen
Ġal though
Ġm es
in ant
o h
en ess
Ġtest ing
1 00
Ġl ines
ap p
Ġ2 8
Ġch ain
Ġmetab olic
res sive
hydro x
Ġinfec tions
Ġda ily
Ġgu id
Ġth us
Ġdescrib e
ere st
es e
Ġst ep
Ġprovid ed
par t
Ġf rag
Ġdeliver y
Ġsim ple
Ġcle ar
Ġproduc ts
ir us
Ġchrom at
Ġinter val
) ;
Ġmed ium
Ġmed ian
D NA
Ġfr action
os a
p t
Ġf unctions
P D
ĠO f
Ġred uce
ĠA D
Ġstruct ural
Ġmark ed
Ġchrom os
2 7
S D
Ġref lec
Ġch ann
Ġselec tive
S H
Ġconc er
Ġproble ms
Ġk ey
Ġcri tical
ic ial
Ġc op
ul ate
Ġkidne y
im ens
Ġstrateg ies
Ġc ost
ph osph
Ġb ack
Ġant agon
istr y
Ġpa ren
ap s
in ts
Ġrel i
pl as
Ġdiagnos ed
Ġmit ochond
if y
g roup
Ġam pl
Ġhyper tension
Ġess ential
Ġ â
Ġad verse
Ġsignal ing
Ġcapac ity
Ġpolym orph
Ġchem otherapy
R T
Ġse em
Ġcour se
Ġdis tin
ogen ous
m ia
Ġpur pose
ay ed
Ġresul ting
Ġrec overy
Ġup take
ar ding
Ġex ist
Ġabs ence
Ġl oad
ati ves
Ġop en
tro ph
ox y
Ġtrans port
Ġpre par
Ġmut ations
Ġem ploy
Ġquantit ative
Ġcalc ulated
Ġval id
oles terol
Ġf uture
tim e
Ġl as
Ġdeg ree
in ity
ĠM e
Ġac ross
Ġimport ance
ĠP A
ill ary
Ġre al
Ġdef ined
ren g
Ġprom ot
7 0
ann ing
Ġrequi re
Ġhorm one
Ġcarb on
Ġin duction
pri ate
Ġc m
Ġrandom ized
Ġd oc
ĠB oth
or al
Ġm ig
Ġto ler
Ġol der
Ġd ig
Ġmagn etic
le ep
Ġin tro
Ġde pression
ici ans
Ġmyocardi al
Ġlim it
ra di
Ġl arg
Ġelev ated
Ġresp iratory
Ġpos si
Ġd own
Ġsaf ety
Ġch lor
Ġfac il
Ġnet work
omet ric
f ree
t ation
opro tein
Ġnat ural
l og
Ġco up
Ġpop ulations
Ġmark ers
ri x
Ġcardi ovascular
ti d
o z
Ġvari ables
Ġin duc
g es
ac hes
Ġprog ression
Ġstatis tically
ov al
Ġg ran
Ġto p
Ġpro te
Ġcere bral
Ġcarri ed
oc al
ĠU sing
Ġst em
E ffec
Ġtrans plantation
Ġcon ventional
Ġorig in
Ġenh ance
oc occ
Ġradi ation
Ġs ulf
Ġhep at
Ġv en
Ġgl ut
Ġsm ok
Ġpl ant
am e
Ġadmin istered
Ġhig hest
3 4
c hed
C O
Ġcommun ity
Ġrem ains
Ġn utr
Ġsensi tive
Ġst able
Ġ2 6
Ġder ived
Ġad ap
Ġn m
min al
Ġdet ect
Ġqu anti
Ġcy cle
3 5
2 6
2 8
Ġrecord ed
Ġar th
ol l
Ġl it
am ide
ĠMore over
Ġres on
Ġst reng
S P
Ġcr yst
ro ke
Ġw or
Ġt ask
oci ated
Ġinter nal
Ġs um
Ġcl ose
Ġc ognitive
p ir
Ġe ar
Ġdi rec
os tic
ne um
Ġnucle ar
Ġli quid
Ġmonit oring
el ing
medi ate
Ġpathw ays
Ġag ed
Ġsurve y
Ġsystem ic
Ġgas tric
3 8
Ġauth ors
Ġbi o
Ġan terior
ir d
r itis
ven ous
Ġarter ial
ud ed
og lob
ur b
Ġm amm
Ġpo int
Ġle ar
omet ry
Ġp ed
o ol
Ġendothel ial
) )
Ġmeasure ment
Ġ9 0
Ġpe ople
C L
Ġsecre tion
ure d
Ġparticular ly
Ġre pair
imension al
Ġder iv
Ġ3 5
Ġtox icity
re ad
7 5
il s
pos ition
Ġdys function
9 0
Ġtra um
tros cop
A L
Ġco hort
Ġcon st
Ġhy brid
Ġdo uble
enc ies
Ġprot oc
N S
A s
Ġon set
Ġinf ants
Ġexpos ed
in a
E D
Ġpub lic
c ine
ox ide
Ġset ting
Ġsever ity
Ġline ar
tr uct
Ġex amine
ĠI II
Ġinclud e
Ġmaxim um
opath y
Ġs pon
Ġn or
Ġter ms
cep ti
t rom
Ġg o
Ġneed ed
ĠN a
Ġthere fore
Ġpow er
Ġ4 8
Ġconsist ent
M D
c al
Ġwho le
Ġestim ated
tiv eness
Ġspecific ity
Ġw all
' -
Ġst roke
Ġt yp
Ġam ount
e lec
u ff
2 9
Ġin jec
Ġl ate
r ac
Ġup on
Ġbacter ial
Ġdom ain
u it
ec utive
ĠP re
Ġcon ver
Ġvari ation
Ġcompon ent
Ġalcoh ol
e qu
Î ²
m od
Ġreg arding
ĠHe alth
ĠThere fore
yn t
Ġme ans
Ġb est
Ġst ability
Ġidentif ication
Ġis s
b l
d uce
Ġproble m
por ted
Ġtem por
Ġad oles
Ġspec ial
ĠP D
Ġcaus es
Ġmuc h
Ġtreat ments
H R
Ġquestion nai
Ġs leep
Ġreview ed
Ġs he
C V
a ph
enc ing
Ġf ix
Ġpanc re
ib r
E M
en ding
ĠRes ults
Ġmicroscop y
Ġpre p
Ġim pair
ol ip
im mun
Ġrelative ly
Ġmater ial
3 6
h ood
l d
Ġaltern ative
k now
Ġb ro
Ġcontinu ous
Ġexhibit ed
C H
Ġs odium
Ġhep atic
Ġm otor
Ġs ter
Ġint ake
Ġprom o
Ġsequ ences
Ġal le
Ġsp inal
Ġmut ation
Ġra d
Ġlabor atory
Ġd og
pa rent
Ġeff iciency
Ġmod ified
Ġrec onstr
Ġnecess ary
tern al
r up
Ġlas er
erv ical
Ġdis pl
Ġto m
Ġfrequ ently
Ġmat rix
Ġobjec tive
Ġh ome
Ġth ick
l and
Ġinflamm ation
Ġcomp are
pos itive
Ġha ving
Ġcomplex es
Ġmain ly
it ude
Ġb r
Ġb re
Ġanim al
w ay
Ġfor ms
Ġmy el
Ġspec troscop
ar ing
al ing
Ġ2 7
Ġinvol vement
C G
m ethyl
Ġ8 0
igh ts
ĠW h
C E
mit ted
vers ity
m et
Ġpros pective
Ġre actions
- (
Ġur inary
ĠA p
Ġpre vention
ult aneous
cl usion
ati ent
A l
Ġconcl usion
Ġfam il
Ġsubsequ ent
L I
Ġappro priate
4 5
Ġindic ating
Ġmal es
or por
ob acter
Ġcoun tr
Ġm em
C M
Ġanal og
Ġim ages
Ġim plement
en sive
od ing
Ġm il
ec ts
Ġrespon d
Ġplace bo
O H
Ġappear s
b e
Ġmoder ate
Ġab le
or rh
Ġdeg rad
ari ate
im er
Ġdistin ct
Ġfem ales
Ġenvironment al
Ġch olesterol
Ġaccur acy
Ġadv anced
ot rop
i ety
R S
Ġdiffic ult
Ġal ong
Ġext ent
Ġn erv
Ġl ater
Ġexperim ent
t aneous
Ġrecom bin
Ġcorrespon ding
Ġstrateg y
Ġepithel ial
Ġinf arc
Ġles ion
Ġreson ance
am b
Ġmalign ant
Ġcompos ition
ra z
Ġgl ob
b b
Ġphysi ological
d en
Ġsour ce
Ġshow s
Ġs per
ĠI V
dom inal
Ġchromat ography
Ġstud ents
Ġintrac ellular
y g
in ally
ass ociated
Ġsus cepti
th al
Ġappro aches
Ġquanti f
Ġcol i
d imensional
Ġcon sequ
Ġdevelop ing
out h
Ġ ly
Ġdesign ed
ĠN e
Ġcon tain
s tim
Ġal g
Ġmet al
Ġ4 5
f lu
Ġins tr
ac et
it ary
Ġeduc ation
Ġrec ently
Ġinvestig ation
Ġrem oval
Ġl og
Ġbir th
ĠG roup
Ġreg ard
ac ch
Ġn g
ar ri
Ġim m
9 9
E G
ot ypes
Ġres ection
Ġmus t
Ġtr ig
Ġint erest
Ġ7 0
Ġev olution
get her
Ġto gether
Ġint ensity
Ġl ast
Ġgas tro
Ġs low
ĠP T
Ġinter f
Ġbacter ia
ĠS T
Ġvi ew
ir al
et er
Ġp neum
Ġd at
Ġpro p
Ġconf idence
Ġdep endent
plac ement
M T
Ġal k
know n
Ġre t
in ation
Ġth yroid
Ġenzym es
P V
Ġs atis
Ġrec urrence
ary n
ul a
Ġcl us
Ġc os
Ġro ot
ĠS p
ap a
Ġto ol
Ġ3 6
ĠAm ong
Ġk ine
i i
Ġdirect ly
3 3
it one
Ġhypot hesis
0 4
Ġsc ale
Ġrem ained
Ġrele vant
ron ch
ĠÎ ¼
i er
ic s
Ġlit tle
Ġl ateral
ven tions
Ġapplic ations
Ġcontrib ute
Ġab ove
Ġsol id
ell a
Ġs ince
um p
Ġsum m
Ġunder lying
Ġm ental
Ġdetermin ation
n s
Ġinf usion
Ġsp ati
Ġf etal
Ġsubst anti
en ic
Ġsh if
Ġfluores cence
Ġdiab etic
as on
l ess
Ġhal f
r it
Â °
ing s
Ġres tric
Ġfat ty
s ess
Ġinhibit ory
Ġprep ared
ad der
Ġne on
Ġdec reas
ĠC omp
Ġa tr
ch ing
ot yp
Ġsystem atic
ran ge
Ġer r
Ġprost ate
ĠA T
Ġag ent
an al
Ġpar tial
Ġmac roph
ĠA r
ĠD uring
Ġac t
Ġlarg er
I L
t reatment
Ġactiv ated
Ġ ure
i otic
and id
Ġ19 8
Ġv ess
P C
Ġtrans l
Ġlead ing
Ġcon n
Ġ2 9
Ġa ortic
Ġrepor ts
on ucle
ari an
Ġaccum ulation
Ġpercent age
Ġmor b
c om
Ġt et
Ġb le
Ġmem ory
Ġh ost
Ġcat he
Ġdi amet
Ġinc orpor
ĠM S
c yt
Ġoper ation
oh ist
Ġt end
ib ility
um er
Ġmel an
r im
on ia
ĠC A
dition al
j ection
Ġsubstr ate
Ġha em
Ġrel ation
k ing
Ġg el
Ġprof ile
me an
der ly
se ud
Ġnan op
m ost
Ġundergo ing
e ti
if est
Ġe ver
Ġdet ail
Ġan tic
Ġoxid ative
Ġmater ials
Ġra bb
Ġol d
went y
is c
ĠN O
N T
hen yl
Ġpredic ted
Ġc ervical
Ġan est
Ġs k
iz es
Ġclinical ly
Ġcor tex
hy th
i que
Ġc ys
3 7
s h
Ġspon taneous
ar r
ap e
Ġm ild
pa ired
Ġfacil it
Ġre produc
Ġw ild
er m
Ġ3 7
Ġchall eng
Ġcons ecutive
ĠB y
Ġso ft
con trol
as al
Ġspec imens
F N
til ity
II I
Ġbiop sy
ac ts
ol ine
3 2
Ġstreng th
Ġt w
Ġselec tion
Ġim plant
Ġcoll agen
iff eren
Ġprof il
Ġf ull
) (
Ġap parent
Ġf ram
ob ic
Ġstrong ly
ĠO ver
oc l
Ġsp e
Ġref erence
Ġac cess
Ġsim ultaneous
Ġvari ety
Ġtom ography
Ġst ages
Ġth ird
Ġext re
Ġhem at
Ġisol ates
P T
S S
oti de
ti le
Ġas th
Ġf ast
Ġ iron
Ġmechan ical
ell ing
Ġg e
Ġrad ical
Ġpropor tion
Ġlong er
Ġvac cin
Ġth ough
Ġdef in
ur s
Ġcon j
Ġprocess ing
P I
Ġcult ures
H T
Ġcyt otox
c utaneous
id ent
Ġinter ventions
Ġind uce
cep tion
es tern
Ġup per
Ġtr act
ĠC o
pec ts
ery th
vid ed
Ġe ight
olec ular
oph il
Ġcons tit
Ġretros pective
Ġe t
tr ation
Ġrece iving
Ġt aken
ren al
Ġv as
Ġdynamic s
Î ±
Ġgra ft
Ġrespon sible
Ġox ide
Ġd op
Ġun ique
Ġaim ed
os in
on in
Ġmicro b
Ġpre f
ra w
l ished
f or
Ġun it
ul atory
Ġatten tion
Ġc ateg
Ġvit amin
4 4
Ġse ven
Ġsaf e
us ed
ĠThe y
Ġ3 2
Ġorgan ic
Ġsignific ance
Ġmic ros
re am
Ġconsum ption
Ġel derly
Ġk g
0 2
Ġan at
Ġd il
ment al
Ġprof ession
Ġf av
roscop ic
Ġre ver
t he
Ġrat her
H D
ke le
Ġl act
ari ly
Ġsc i
Ġprogn osis
ĠD i
Ġpos terior
Ġsup plement
Ġmitochond rial
Ġcon tex
ub ation
Ġim age
il i
ĠAm eric
resh old
uc h
Ġhe re
y c
Ġcl os
kele tal
or ac
ĠP CR
Ġsynt hesi
Ġintra venous
Ġch o
Ġmedi ated
Ġpers ist
Ġt ren
Ġlear ning
Ġir radi
l ink
Ġco e
Ġcl inic
Ġproduc t
6 5
Ġinf ected
es ity
Ġdegrad ation
Ġre ad
Ġl o
Ġabnormal ities
Ġl ed
Ġpl ants
Ġ3 1
Ġint estinal
Ġadv ant
Ġpre operative
Ġpro duce
Ġsu ff
Ġgener ated
ment ation
hydrox y
Ġen g
Ġform ed
Ġestabl ish
P E
Ġeff icient
Ġcont act
ac hed
tr a
Ġpred om
Ġex cl
Ġm ob
Ġmajor ity
in ated
Ġabs orption
A A
ĠE R
Ġprol ong
Ġfrequ ent
Ġaut o
el ed
c are
Ġgener ation
or gan
lamm atory
Ġoptim al
Ġmorb idity
Ġcan n
Ġculture d
Ġeffec tiveness
Ġtransi tion
3 1
Ġâ ī
Ġv es
Ġagg reg
Ġelectro ph
Ġnanop artic
Ġvir al
Ġb ound
Ġneuro log
Ġc ertain
Ġob str
ĠD ata
Ġmark er
Ġser vices
Ġas pects
in ine
x iety
Ġtrans mission
Ġconst ant
pres sive
P CR
v ity
Ġbas al
Ġsub stit
o ot
Ġpredic t
b y
Ġol ig
Ġan a
y tic
g ed
Ġsub un
las ts
00 01
Ġcor d
s ensi
ac he
I R
Ġcommon ly
E x
ĠS er
Ġst aining
Ġis o
ĠM RI
Ġass ays
6 7
op e
Ġn ature
Ġw ound
oscop ic
Ġe as
Ġsuccessful ly
ĠL e
Ġsmok ing
Ġsex ual
in us
ĠTh ree
Ġpancre atic
Ġmater nal
Ġag on
Ġro ut
xim al
Ġj oint
P s
Ġmut ant
b inding
Ġ eryth
der ived
Ġpub lished
Ġlay er
ĠF e
Ġpr inc
yl ated
Ġag re
iver s
Ġspectroscop y
g ens
Ġinvol ving
Ġdis ch
Ġun known
Ġst e
Ġr h
Ġex am
Ġultras ound
i ents
ran s
Ġdi vided
Ġoccur s
os ine
Ġhep atitis
Ġprogn ostic
Ġplate let
Ġn ow
Ġaff inity
G E
Ġextrac ellular
Ġneuro p
op er
Ġtox ic
ud y
Ġex ternal
Ġn orm
el ines
Ġatten u
% ;
ĠS ub
Ġm i
Ġst ar
( +)
Ġcharacter ization
Ġspec trom
ĠM R
Ġthe ory
Ġb ond
Ġimplic ations
Ġphosphor ylation
Ġne ural
Ġdef iciency
H A
acch ar
C F
Ġcom m
Ġdog s
Ġev ent
Ġman ner
ĠD es
om at
hesi a
Ġsl ight
Ġab dominal
Ġwe ak
od ynamic
h al
ĠD e
Ġconfir m
A c
Ġav oid
at s
Ġpartic les
Ġat trib
Ġ enter
Ġresid ues
Ġe c
Ġpredic tive
id s
Ġpar as
g al
P R
Ġquestionnai re
le ar
Ġa er
Ġad s
m L
ĠA TP
Ġcomple ted
Ġrecomm end
Ġal b
Ġdiamet er
Ġg amma
ĠF our
Ġbec ome
Ġmar row
fer red
Ġb ronch
4 8
Ġtrans plant
Ġdat ab
Ġse p
Ġloc ated
Ġur ine
ar s
v alu
Ġrout ine
Ġcountr ies
Ġdiet ary
ol ved
g u
it ing
us c
Ġpar al
5 7
Ġex tensive
ĠP C
Ġsuper ior
ile p
er ved
Ġinter pre
Ġmicro g
Ġmembran es
Ġmix ed
ar cin
Ġop tical
Ġmicro M
b s
Ġso il
Ġpo ints
ore c
Ġdifferenti al
ĠT NF
u ary
Ġpepti des
Ġapp e
3 9
Ġrec ip
em a
Ġex pected
Ġpa ir
en ed
Ġb ur
ter ing
ological ly
Ġrelationship s
Ġcere b
v is
Ġgen der
Ġ %
os p
al ian
Ġde vice
ac es
Ġsm o
inf lammatory
Ġth reshold
oly tic
ĠC S
Ġfor ce
I P
if ically
Ġnur sing
Ġg ly
Ġpath ogenesis
Ġey e
Ġped iatric
d le
Â ·
Ġanti oxid
Ġne ph
Ġspati al
Ġconcl ude
ĠE uro
Ġcontex t
I C
e ffec
Ġa di
ok ines
or i
Ġpotenti ally
Ġe ch
epti de
an k
Ġg est
Ġcor rec
or ith
Ġbenef it
Ġtraum a
Ġatt em
Ġb en
Ġcompar able
Ġres pect
Ġhum ans
Ġin ser
oster one
oph age
Ġs qu
Ġt ri
Ġs ed
le ts
Ġ3 8
Ġm other
us ted
P ro
Ġf lex
Ġmedic ine
ap an
Ġhyp ox
Ġlymph ocytes
Ġalter ations
Ġ7 5
N O
Ġrec urrent
is ation
ĠC R
Ġtempor al
Ġne ar
Ġischem ia
reg ulated
2 00
Ġm l
Ġhydro x
cr imin
Ġor th
Ġgra de
Ġnucle us
Ġbehavi our
Ġ3 3
ur ys
ial ysis
Ġdoc ument
Ġ3 4
ĠA nal
Ġrecombin ant
p oc
it able
Ġprotoc ol
A R
Ġst ates
ĠCl inical
Ġasth ma
de f
itone al
Ġun its
ĠA g
Ġmolec ule
it ud
Ġadhe sion
Ġem ission
Ġb arri
Ġimpair ment
Ġinfarc tion
Ġpot ent
Ġhigh l
Ġgener ally
es ter
Ġ vel
trans fer
ch ange
Ġl apa
ant h
ti ally
Ġextr action
Ġmeth yl
Ġnutr ition
Ġan e
Ġsign s
Ġalg orith
r ich
Ġneur onal
ak es
t on
Ġy et
Ġlead s
Ġa round
Ġever y
Ġinjur ies
en ge
ar ies
Ġf ul
Ġwide ly
Ġey es
Ġwh ite
Ġc ore
Ġw ay
Ġstatis tical
ran ial
ach ing
oun ts
ĠS im
Ġmemb ers
C om
Ġinf er
Ġven ous
Ġreduc ing
Ġappe ared
Ġprog ressive
te en
Ġs oci
Ġb o
Ġpl us
lyc er
z ing
Ġfe ed
it r
Ġbro ad
c ents
Ġpromo ter
Ġp ast
ogen etic
Ġov arian
Ġclass ification
Ġf ar
Ġob esity
in ter
w ater
ra ms
Ġpoly p
Ġmin utes
ĠP er
Ġacc ount
Ġre plic
Ġextr act
Ġthick ness
poc amp
os omal
Ġcont amin
Ġinvas ive
Ġne utr
Ġvari able
Ġnec k
tiv es
Ġdiff er
Ġsam pl
S C
Ġocc urrence
cl er
Ġus ually
Ġlig and
f l
Ġinter view
Ġpers on
or ies
Ġk ne
Ġsp ace
oph ag
Ġtum our
b al
op ic
Ġpur ified
Ġf ung
Ġregul atory
erv ation
Ġble eding
Ġal tered
Ġul c
Ġnot ed
Ġmig ration
Ġm M
Ġd ental
t ase
anc ies
Ġchromos ome
P P
Ġhydro gen
0 3
O D
ynt hesis
Ġn umer
C a
Ġfib rob
Ġem ph
Ġvel oc
Ġep is
Ġad equ
ĠEuro pe
olog ies
Ġrec r
ĠS ur
E C
av es
Ġres olution
p atient
ĠJ apan
Ġimmun ohist
l ab
Ġtrans form
Ġneed s
tiv ariate
Ġc anc
Ġbi ochemical
4 2
reg ulation
Ġbl adder
Ġcon cept
Ġrecogn ition
erc ul
Ġ ent
oci ation
Ġprepar ation
hy dr
Ġallow s
Ġel imin
Ġthrough out
Ġv ary
Ġl iving
T A
c arb
res ist
Ġw ave
ĠF rom
Ġb ase
Ġflu or
Ġne oplas
Ġheter ogene
Ġan xiety
Ġve c
pres sing
Ġb al
Ġrati os
Ġele ments
Ġprofil es
v ascular
4 9
ĠM ost
Ġne ut
F A
Ġphen omen
Ġguid elines
ok ed
Ġf ore
Ġcharacteris tic
ophage al
im ent
Ġo d
Ġnec rosis
us ive
Ġvac cine
Ġdef ects
Ġt y
Ġsynthesi zed
Ġprom ising
Ġgra f
Ġin st
Ġdis tal
olog ous
B S
Ġmorph ology
Ġwor ld
Ġill ness
Ġal most
Ġvari ability
ro tid
ol in
Ġsh or
E GF
ĠIn c
ĠIg G
Ġim paired
Ġchall enge
Ġrem ain
B V
n it
Ġcomplete ly
Ġass ign
Ġmil k
s ection
I m
ia z
if orm
Ġbas ic
Ġreconstr uction
Ġdis crimin
D M
Ġs il
Ġrepe ated
ĠF inally
Ġaccur ate
Ġf ed
Ġan other
Ġv enti
Ġoxid ation
Ġdon or
Ġc andid
S t
Ġnanopartic les
Ġprob ably
Ġcos ts
oscop y
Ġstim ulated
Ġp olar
Ġrequi res
um an
re hen
Ġrecomm ended
ove red
ĠÎ ²
Ġse arch
Ġmed ia
d ose
Ġres our
Ġro les
Ġmon th
Ġcor tical
Ġfract ure
Ġmetast asis
ĠM ul
Ġcomp uted
gl uc
Ġs pl
a us
Ġexperi enced
ot al
] ,
M C
Ġ6 5
s in
Ġspectr um
ococc us
4 7
p o
Ġanalys ed
ter minal
Ġrapid ly
Ġbi os
Ġf inal
ici an
d ed
im en
Ġvol un
ap se
Ġu ter
ĠRe g
Ġsour ces
Ġcurrent ly
orec tal
ĠR A
Ġad mission
Ġt urn
6 6
Ġf usion
an y
Ġchann el
ĠC H
ti tion
emb er
on omic
Ġexc ell
ox yl
ur ine
Ġde le
Ġf it
ĠN ew
9 8
Ġhe at
ion e
Ġins tit
Ġglob al
Ġseem s
uc id
Ġdec ision
Ġagre ement
oc ation
Ġhip pocamp
Ġfract ures
ines e
Ġpl ays
ĠT wenty
Ġcathe ter
ĠS ix
Ġpredom inant
oly sis
Ġc all
Ġcomple ment
Ġfe as
Ġprog rams
Ġnumb ers
Ġadd ress
Ġbel ie
Ġnerv ous
Ġun til
Ġcon gen
Ġphen otype
Ġmo tion
Ġas c
Ġemploy ed
B C
Ġindic ates
Ġo il
Ġderiv atives
Ġtrans crip
Ġman ifest
4 3
Ġleuk emia
Ġqu al
il ateral
Ġtoler ance
Ġsatis f
Ġem o
cl es
Ġadoles cents
Ġobserv ations
ot omy
Ġc enter
ign ific
d yl
P h
Ġischem ic
Ġmod e
ren ce
i tions
ĠMe an
6 8
oglob in
Y P
Ġgen ome
Ġtoward s
ocl onal
Ġbl ot
Ġen rol
int estinal
ĠB ec
5 5
Ġst abil
7 8
ĠWh ile
Ġr ib
ran e
i re
Ġexcell ent
D a
ochem istry
plas ia
Ġm ake
op last
P O
Ġiss ues
ĠB i
Ġacc omp
Ġsch ool
Ġloc ation
Ġhem orrh
Ġsuscepti bility
Ġre placement
Ġsch iz
y le
Ġprolong ed
om atic
Ġane urys
Ġat he
on tin
ic rob
B D
L D
vere x
ĠB ased
Ġve in
am ent
ov ine
Ġk er
Ġconstr uc
mon th
a ine
Ġrandom ly
Ġ4 2
und red
tr ac
Ġst en
et ric
ĠN or
Ġcomplic ation
ar v
ĠCh inese
H C
Ġimmun os
ĠU V
Ġp en
Ġse iz
Ġocc up
Ġan tim
Ġatr ial
g amma
le u
Ġf und
Ġsc ler
Ġam b
ĠP R
Ġpresent ation
Ġfamil ies
Ġp olic
Ġexpl ore
oc rine
oph ren
Ġend ogenous
g round
Ġpro jec
. )
Ġsign als
Ġan n
Ġmacroph ages
Ġb ind
ĠT R
Ġnur ses
Ġen ti
Ġep ilep
Ġp el
Ġmid dle
im e
m ol
Ġphys icians
urg ical
Ġcomp uter
Ġcon tained
Ġs ilic
Ġeth anol
o ff
Ġmin or
Ġ ions
ĠR T
az ole
ol i
v as
ab or
Ġcomp r
ic le
ell ar
Ġtechn ology
Ġspectrom etry
Ġdes pite
ang i
5 6
ol low
Ġc reat
Ġcanc ers
ĠA f
ac tic
g g
D R
Ġc as
Ġv ag
leu kin
it ative
he re
id ed
um or
M E
Ġp al
Ġbil ateral
Ġtra ditional
Ġepid emi
et s
Ġmo vement
las tic
oc arcin
ĠT reatment
Ġbel ow
Ġinter mediate
ew ork
Ġb ran
Ġs inus
Ġrang ed
Ġint act
Ġdef ic
L P
ap tic
Ġa w
Ġin n
p ass
Ġresist ant
ten tion
Ġcor tic
Ġexc re
Ġo w
Ġemerg ency
Ġf ish
Ġcyt oplas
Ġn od
app ing
Ġb enz
Ġkne e
Ġn ode
ath y
Ġmetast atic
Ġdel ayed
Ġter m
Ġradi o
ĠH ospital
ro us
ospit als
Ġend omet
ur y
que ous
7 7
resist ant
as ter
Ġb and
Ġs em
ignific ant
ĠB l
Ġmicro gra
al k
om an
Ġthe ore
activ ated
Ġfib rosis
4 6
ĠSt udy
Ġsu itable
Ġben ign
Ġcl on
U S
cyt es
Ġcur ve
Ġgl and
w ide
ne gative
z ation
Ġpro ximal
Ġprot ection
Ġconcl uded
am s
Ġobserv ation
Ġc he
Ġestim ate
Ġantagon ist
Ġbenef its
Ġsper m
activ ation
Ġful ly
ĠS D
ĠM T
Ġdiscus s
Ġ3 9
b ack
os ide
Ġst re
Ġear li
Ġval ve
I T
Ġprot ective
le l
Ġprac tic
ed s
r isk
ten ance
Ġbehavior al
E A
Ġmet a
Ġsol utions
or ts
ros ine
Ġpolymer ase
Ġper i
Ġcomp rehen
Ġwh ose
Ġt it
gen ic
Ġpath ological
io tics
an ine
8 5
Ġrel ax
Ġh undred
- ,
Ġpossi bility
g ans
ph ase
Ġ7 2
Ġspectr a
L T
Ġ5 5
ĠD ec
Ġth orac
Ġsmall er
gen eration
Ġreli able
Ġser ious
Ġlink ed
Ġtarget s
Ġmus c
Ġdom ains
Ġf ind
ir ty
Ġsynt hetic
Ġpossi b
Ġirradi ation
Ġspec ifically
er ated
Ġinter v
Ġshow ing
ens in
ĠC u
Ġab und
it us
ĠOver all
Ġch ick
or age
Ġmetabol ites
Ġde ep
ac r
ce ived
Ġmed ication
qui red
Ġadd ed
Ġmetast ases
section al
ill s
ĠI s
Ġreg en
Ġel ucid
B A
R e
el i
Ġschiz ophren
ec ting
Ġprec urs
Ġstimul i
ap pa
ri um
Ġmon oclonal
Ġneon atal
re en
n atal
s ub
ir ing
ercul osis
Ġter min
res sed
Ġcr uc
h ing
Ġfol lic
F T
id al
res t
h abil
a emia
ĠI FN
Ġtyp ical
Ġvari ed
Ġtransi ent
ax is
Ġtrans f
Ġper fusion
ĠJ an
E n
Ġor ient
Ġbiom ark
Ġcho ice
Ġp ut
Ġgra di
Ġres t
os al
at ase
Ġcor rect
Ġlocal ization
op o
7 9
p ed
Ġlymph oma
os omes
ĠIn ter
ich ia
Ġfe eding
ec ond
Ġdi ed
7 3
ch lor
ĠIn di
Ġplas m
Ġn ine
A MP
Ġmarked ly
b ular
pl ants
y cin
I s
Ġfail ed
Ġcyt okines
Ġacc el
Ġsh ock
Ġclass ified
ĠAf ric
6 4
Ġsepar ation
is p
b ut
Ġre n
Ġint ensive
ĠS pec
b orn
Ġre active
Ġfram ework
Ġb ovine
ĠUn ited
ĠBec ause
Ġanti gens
Ġinter fer
Ġneutr al
Ġdist urb
Ġcol um
Ġperiod s
Ġhyp oth
Ġro b
Ġassoci ations
Ġsmo oth
av age
ĠS ince
ĠU ni
Ġtherap ies
ĠT r
ĠI C
Ġdist ance
I N
Ġveloc ity
Ġh ospitals
Ġdevelopment al
Ġsus p
Ġde vices
Ġchann els
a u
Ġantioxid ant
Ġcomm erc
Ġprovid ing
c hes
Ġfib er
Ġac cept
I D
Ġam ounts
Ġco ord
g in
Ġretin al
Ġachie ve
Ġwh at
ot s
Ġle g
Ġther mal
ch ym
Ġe ti
Ġg ain
Ġper me
Ġarter ies
Ġfib ers
Ġn ons
ĠÎ ±
ĠOn ly
L R
is es
Effec t
Ġth ym
we ek
iv es
Ġminim al
ĠAmeric an
Ġpre m
Ġm arg
Ġc is
8 8
Ġcontr ac
ĠN F
Ġlat ter
Ġinterv als
Ġmain tenance
Ġphosph ate
Ġver te
Ġs keletal
o ic
Ġg on
ĠW estern
ĠAc c
Ġhydro ph
Ġregion al
Ġmain tained
Ġalk al
w ays
E P
ce phal
Ġgastro intestinal
z ard
ov irus
Ġex change
s te
Ġsurf aces
yp t
vas ive
ĠC ol
Ġg r
l ip
oz yg
Ġsur ge
Ġother s
Ġa queous
Ġwork ing
de hy
4 1
Ġhydro ly
Ġpneum onia
at ur
Ġ ide
ic in
6 3
fac tory
Ġf ron
Ġind ustr
p oint
Ġex cept
Ġr he
p r
Ġmus cles
6 9
ac in
Ġeryth ro
Ġvess els
I S
Ġnit rogen
Ġgran ul
Ġextre me
Ġneut roph
gra de
b er
es tic
Ġd y
Ġchild hood
Ġpolymorph ism
en es
uc tive
ay er
ĠH R
Ġhist ological
transfer ase
dition ally
Ġlip oprotein
her s
Ġprob e
Ġcol orectal
Ġinf il
ĠB e
Ġdecreas es
habil itation
Ġgen otype
en tical
Ġpath ology
Ġt en
por ts
Ġvari ations
G A
Ġpsych ological
ros cler
Ġmaxim al
ĠDes pite
link ed
oid al
es tions
ever al
Ġinflu enced
Ġas pir
Ġantib iotic
Ġc ut
as sive
Ġf all
Ġdisch arge
M e
yst olic
7 2
Ġinduc es
ill us
Ġmat ter
Ġpers ons
ang u
ow s
ti ous
Ġelectr onic
Ġw a
Ġmicrogra ms
Ġpar tially
Ġb ul
Ġp seud
Ġd ors
Ġar ch
a ren
Ġdiff usion
Ġenhance ment
i k
ĠU S
Ġrem aining
Ġcongen ital
Ġprim arily
Ġsc anning
ĠH g
Ġinjec ted
u vant
lec tive
ĠJan uary
Ġover l
Ġcompar ing
itud inal
c k
we ight
Ġar tif
) /
Ġradi otherapy
Ġl ob
Ġe con
gl ut
oph osph
sc her
ph yl
Ġcap s
Ġp ap
Ġob tain
Ġrecogn ized
Ġconj ug
Ġsh ape
Ġext ended
ting u
Effec ts
Ġair way
Ġd one
O C
Ġoccur ring
Ġslight ly
Ġkine tics
Ġst orage
scher ichia
Ġequ al
am ate
ink ing
Ġc yst
Ġdescrib es
con taining
Ġhe aling
igh ted
Ġd imension
Ġshif t
hydro gen
Ġdis rup
V A
ill ed
Ġsub group
Ġr ise
ob last
Ġc er
ĠE D
Ġlim b
Ġarth ritis
st ream
ar ia
Ġinvas ion
ĠI GF
Ġg ang
7 6
Ġenrol led
Ġwh om
I F
Ġpl an
o in
Ġre verse
ĠN ational
ec tin
ow el
Ġpsych iatric
Ġcommun ication
Ġre qu
c or
olog ists
) ]
y cl
Ġcor ne
Ġcle arly
Ġâī ¥
Ġpresent ing
L S
Ġdef ect
Ġparal lel
ut ing
Ġout put
g i
Ġparen ts
Ġsten osis
Ġcontrib ution
H S
Ġlocal ized
ĠSc ale
Ġearli er
icrob ial
Ġcons isted
Ġre ason
Ġdis tingu
Ġ4 3
Ġcyt os
im ethyl
Ġwork ers
ĠP l
Ġon c
ro g
m g
Ġpredic tion
L E
Ġmeas uring
Ġanaly ze
ĠA F
ĠO R
ival ent
og ens
v ision
Ġmorph ological
Ġsup pression
ma x
Ġen s
ud es
Ġindependent ly
Ã Ĺ
ym met
Ġrecord s
Ġbre ak
Ġrisk s
Ġfib r
Ġca rotid
p ing
ocy tic
Ġc DNA
Ġret urn
Ġclose ly
st ate
Ġ( -
Ġo verex
Ġne u
Ġ4 4
Ġoc clusion
Ġmic rom
port un
ĠL V
ĠSt ates
Ġenti re
och rome
ĠH LA
Ġpredic tors
anal ysis
otrop ic
ĠEx per
Ġresid ual
B L
Ġ4 6
Ġe gg
Ġim plantation
Ġsubjec t
Ġinter leukin
inf ected
Ġgrow ing
arc oma
ul um
9 6
ĠT rans
O P
Ġ4 1
ĠZ n
Ġorgan ization
Ġreg ular
Ġextrac ts
Ġre tro
t ox
Ġextrac ted
C o
ĠP M
ĠE scherichia
Ġaccomp an
P re
Ġde vi
Ġdop amine
ic t
ĠAnal ysis
Ġmul tivariate
Ġcirc um
p ly
amin o
Ġf in
Ġy e
Ġid entical
Ġser vice
Ġappear ance
Ġsal ine
ill in
H P
Ġalgorith m
Ġp le
Ġfrag ment
Ġsp in
Ġalb umin
ge al
ĠComp ared
Ġtrig g
Ġrepres ents
Ġallow ed
i pl
A C
ro tein
Ġseg ment
Ġneurolog ical
Ġsu fficient
Ġprinc ip
phosph ate
ĠC r
Ġhe ight
LI SA
Ġcomprehen sive
a ir
Ġby pass
Ġbal ance
Ġly s
Ġconver sion
Ġth i
ĠIm mun
immun e
Ġn asal
Ġang le
7 4
imin ary
ad es
ch ang
Ġpro pose
hyth m
Ġmod ification
ri ef
Ġadequ ate
Ġvolun te
Ġadj ust
lu x
Ġgen omic
F S
Ġgra d
Ġcomp eti
o tr
Ġdepend ence
Ġacet yl
oplast y
per fusion
Ġp y
ific ations
ores is
Ġro t
Ġe lic
ul monary
Ġsampl ing
Ġqual itative
Ġsens ory
Ġn ative
Ġpregn ant
Ġmagn itude
Ġmin eral
Ġde part
o e
Ġbenef icial
Ġdis per
r ia
8 6
Ġex er
Ġvari ants
Ġst ent
Ġcoup led
ĠUni versity
Ġassign ed
Ġcann ot
av y
Ġop portun
Ġaffec ting
oph ysi
Ġper oxid
U N
crib ed
Ġass emb
Ġass um
Ġdom inant
Ġor gans
l s
Ġincl usion
aryn geal
Ġpositive ly
Ġc re
Ġplac ed
en al
Ġnew ly
zym e
Ġads orption
en op
en ia
Ġeffective ly
Ġmelan oma
Ġpractic es
Ġathe roscler
7 1
cy cl
g ue
Ġest rogen
Ġsubun it
ĠA b
ac er
Ġm aking
Ġill ustr
it ant
ĠH P
Ġsubstanti al
er mal
Ġbehavi ors
Ġprog ress
Ġphosph olip
Ġaccompan ied
ĠC ell
Ġtub erculosis
Ġb u
O L
o ved
Ġm L
B I
Ġmi R
st age
cop rotein
Ġcyt okine
Ġcoun ter
D P
ĠA R
medi ately
Ġback ground
o on
Ġerr or
Ġexam ple
si a
Ġclear ance
Ġcorrel ations
Ġrabb it
Ġsol uble
Ġsubstr ates
g ing
Ġcoe fficient
ot ensin
Ġto ols
ĠC ons
ĠA ustr
6 2
Ġdatab ase
ĠAs s
Ġsus tained
ud it
le vel
ip s
Ġunc lear
ocarcin oma
Ġpres ents
8 9
aph yl
Ġtheore tical
Ġpharmac okine
Ġpos sess
Ġexpl ain
Ġpl a
ĠC d
Ġconsequ ences
Ġre habilitation
Ġdi versity
Ġp yr
Ġimpro ving
ĠO r
al c
Ġcompar ative
Ġech ocardi
H g
enti a
valu ation
Ġpromot e
Ġr un
pl er
ĠC YP
s ide
Ġt un
as h
Ġindi rect
ic les
Ġ5 2
p yr
Ġiniti ation
Ġantib iotics
Ġn ational
Ġm ell
co un
Ġd en
si es
Ġele ment
ĠN MR
Ġop i
ob il
Ġintro duced
ĠH igh
U C
Ġpersist ent
Ġwas te
Ġ2 50
ur ia
Ġm urine
act ing
Ġnucle otide
od on
Ġfem oral
Ġv ul
Ġimplement ation
Ġp an
Ġcoun t
Ġper ceived
Ġcon form
ĠC or
Ġc hest
Ġval idity
Ġrem oved
B M
Ġh ab
dehy de
Ġfix ation
Ġtrans formation
Ġcol or
Ġre tention
Ġfav or
Ġsatisf action
Ġanal ges
Ġreproduc tive
sensi tive
Ġstand ardi
Ġyoung er
Ġty rosine
Ġpul se
Ġcoup ling
ep t
ĠP K
Ġchalleng es
Ġanest hesia
Ġampl itude
r action
Ġmod ulation
Ġreg ulated
5 8
Ġhyp othe
Ġfr actions
C on
ag ulation
ĠS ome
9 7
ĠG en
b enz
Ġre ached
Ġreli ability
Ġdr y
and ed
ĠS ch
Ġgl omer
Ġenc oding
Ġn ic
as si
M G
r s
ath ione
Ġimmun ore
Ġsumm ar
b an
Ġth in
Ġpro phyl
Ġhealth care
Ġexcre tion
Ġp ac
Ġelectr ical
i as
ĠT GF
Ġinvestig ations
m m
agn etic
Ġac quired
Ġl ens
Ġdec line
Ġfrequ encies
lu e
Ġtarget ed
Ġ uro
Ġschizophren ia
Ġst ay
Ġstimul us
Ġcryst all
acchar ide
Ġdispl ayed
Ġtarget ing
ĠF ollow
Ġsequ encing
Ġmo ve
otyp ic
ach ment
Ġcruc ial
Ġf resh
as ons
Ġr ing
ul us
Ġd ual
Ġestim ates
Ġagon ist
ĠG H
M L
Ġaffec ts
f low
Ġgo al
C N
ymptom atic
Ġad renal
ĠCh ina
te ine
Ġrecommend ations
Ġm ill
qu it
Ġhe aring
Ġm is
Ġcatal ytic
qu in
ur ally
Ġmat ched
Ġam yl
Ġcomp et
Ġinc ubation
ant um
ĠS ystem
Ġnit ric
Ġfix ed
Ġqu estions
Ġinter n
on tal
Ġdetermin ing
Ġrang ing
troph y
Ġ4 7
Ġsup pressed
Ġst aff
w h
2 01
d ers
Ġlarge ly
omy cin
par ison
Ġsec tions
in vasive
9 4
Ġmell itus
Ġtren d
Ġlapa roscopic
ĠB P
d is
ĠP I
5 4
r il
5 2
Ġfocus ed
9 2
Ġde hydrogen
+ )-
Ġdel ay
am ous
ĠA I
9 3
Ġsp read
ĠC P
Ġbi le
Ġat om
Ġ5 6
Ġmamm alian
Ġat tit
Ġepithel ium
pro tein
R ec
S M
ad a
Ġchar ge
Ġpartic le
Ġembry os
Ġexist ing
Ġcl ar
Ġcryst al
Ġmix ture
ple te
Ġhypox ia
Ġob ese
Ġb owel
ĠEurope an
Ġgro und
Ġcl in
Ġs ession
lu ores
ar th
Ġvec tor
Ġlog istic
ogra m
Ġalle le
Ġye ast
Ġpro ved
Ġsyn th
Ġch ol
Ġad mitted
Ġrhe um
Ġmul tic
Ġp ass
acet yl
il ib
Ġsymptom atic
adi ol
Ġcolum n
Ġpossib ly
Ġs ystolic
Ġfibrob lasts
Ġend oscopic
Ġcontain s
Ġim mediately
ĠH y
Ġmother s
Ġit em
Ġlong itudinal
Ġunder st
ĠP artic
Ġfib rin
udi es
Ġpre l
et us
Ġpers onal
iz ations
Ġac tin
Ġdocument ed
Ġattem p
Ġsubjec ted
Ġg ir
he x
Ġsup ported
Ġdetail ed
Ġz inc
ol ute
Ġthough t
Ġfac t
ĠCh ild
w ise
Ġhybrid ization
Ġpig s
Ġha ir
Ġreflec t
ĠM od
Ġhist opath
Ġcycl es
si zed
Ġster oid
Ġoper ative
8 7
Ġdeath s
Ġsal t
Ġlow est
Ġgradi ent
Ġrec ording
opath ic
Ġsimultaneous ly
ro se
Ġpl anning
A TP
Ġmet all
Ġp oll
Ġcar til
art ment
chem ical
b or
ĠE S
om ers
umb ar
Ġchang ed
Ġdem ographic
Ġg old
Ġw id
Ġconsider able
Ġlig ands
ĠS S
itu itary
Ġin put
Ġl um
8 2
Ġmut ants
Ġhe avy
Ġexpl ored
ad ren
Ġrecip ients
Ġconcer ning
ver sion
Ġag ing
as tic
Ġin g
os por
8 3
ill ing
Ġther m
Ġvalid ated
Ġclus ter
Ġnew born
ĠB MI
t est
Ġtub e
Ġsus pected
Ġexpl ained
Ġ8 5
Ġs ection
Ġretros pectively
Ġm ature
Ġsim ulation
Ġorig inal
Ġinhibit s
Ġangi ography
Ġcap able
anc ing
Ġfluores cent
g ent
Ġow n
8 4
Ġrece ive
o hydr
Ġcytotox ic
Ġd ate
ĠTh irty
ill ance
Ġfunction ing
Ġdemonstr ates
Ġsc at
angu age
ins ic
) :
Ġde x
Ġsepar ate
Ġobstr uction
Ġnit r
il ities
Ġst ere
u ous
ces sive
Ġsub set
ven ess
form s
Ġconcer n
Ġinflu enz
unction al
Ġn odes
Ġpolymorph isms
ac ent
on ate
Ġmed ial
ic ular
Ġfrag ments
CA T
Ġph ases
Ġp il
Ġ5 4
Ġsu ic
Ġ5 1
Ġw oman
5 1
B s
ĠUn der
ĠMed ical
Ġmuc osa
6 1
Ġhe par
Ġvolunte ers
Ġpotenti als
Ġsubst ance
ĠAd ditionally
ĠH S
ast olic
Ġfe ature
ĠE m
ĠC F
E F
ran g
Ġtreat ing
ĠS everal
ĠS h
Ġa udit
act in
Ġ200 0
Ġeng ine
Ġtemper atures
Ġ6 4
ch oline
Ġfield s
Ġisol ation
Ġcompos ite
t age
Ġpoor ly
ad en
p id
Ġar m
at ch
Ġro om
Ġinstr ument
sc ale
Ġmonit ored
Ġreduc es
oc aine
9 1
Ġdi verse
Ġphenomen on
cl inical
ve olar
Ġaggreg ation
ĠMed ic
Ġof fer
Ġcirc ulating
AB A
ost asis
Ġcycl ic
A F
ĠL PS
yl ate
om on
om ical
Ġb uff
Ġassess ing
ph rine
ol ism
A G
Ġsynth ase
Ġan omal
Ġtum ours
ab ric
Ġsur round
ici ently
at he
Ġunderst ood
Ġun ivers
Ġdem entia
Ġhemorrh age
Ġa ug
et r
Ġexperi ences
Ġminim um
Ġdors al
Ġfacilit ate
ĠD ifferen
Ġd end
Ġseg ments
ĠP las
m eth
Ġf oot
Ġventi lation
ĠS al
an sion
Ġpath ophysi
Ġintegr ated
Ġelectroph oresis
Ġph yl
Ġcontrol ling
Ġbarri er
stim ulated
Ġadvant ages
Ġsk ills
u od
is ions
Ġt ail
Ġdirec tion
ion ic
Ġvari ant
Ġreplic ation
abil ities
Ġhypoth al
ac c
Ġim plants
ĠP S
Ġepilep sy
ar acter
Ġcharacter ize
Ġdon ors
requ ency
t ub
Ġresour ces
Ġvis c
ins on
NP s
ĠC V
Ġun treated
Ġprob ability
ast om
Ġcarcin omas
Ġon ce
il arly
os yl
ĠS P
Ġglut athione
Ġd rain
Ġgl i
Ġsulf ate
Ġnucle i
assi um
Ġphys ician
ch ron
Ġa ort
D e
Ġha zard
Ġp ure
ilib rium
ĠM on
ĠG er
L V
Ġvary ing
Ġno ise
5 9
A b
Ġex tension
Ġdehydrogen ase
Ġ5 3
el ta
ing ly
Ġprac tical
op or
Ġod ds
Ġcyt ochrome
Ġmain tain
ti zed
ĠD is
Ġfac ial
ur ance
Ġepis odes
Ġass ist
Ġca vity
Ġre activity
Ġcent ers
urg ery
ĠM MP
Ġsubsequ ently
Ġn one
Ġemo tional
Ġim mediate
ox ygen
Ġshor ter
Ġ9 9
Ġdep ending
Ġconc om
Ġdispl ay
Ġax is
Ġvi ability
Ġantim icrobial
Ġprevent ed
A d
Ġ5 8
Ġde position
Ġprec ise
Ġp ituitary
Ġsup press
Ġsal iv
ing er
Ġz one
O X
S e
m ark
Ġcytotox icity
Ġinvol ves
Ġac tions
Ġequ ivalent
d own
ĠE GF
t wo
he imer
Ġthromb osis
Ġar r
Ġlim its
ocyt osis
Ġfac e
Ġbec ame
Ġreg imen
Ġnetwork s
p ine
Ġb reat
ec al
tr adiol
Ġin oc
Ġorgan isms
ĠS w
Ġinterf ace
tr action
Ġ4 9
Ġplas tic
4 50
Ġpo ol
tr on
Ġsim ulations
Ġdis ability
Ġcop per
Ġcur ves
b ody
Ġan th
ĠIn t
Ġp ack
Ġrabb its
Ġmicrob ial
ens us
Ġiniti ally
old s
Ġcompos ed
ĠE T
Ġg ive
d raw
Ġk n
Ġrespon si
Ġpref eren
Ġsetting s
D i
Ġconcom itant
8 1
Ġinclud es
di al
s m
ill ation
Ġvaccin ation
N K
flu or
Ġde ple
Ġur ban
Ġgang l
Ġprepar ations
Ġrelax ation
Ġcalc ulations
un t
Ġpre treatment
Ġse ed
Ġ9 6
em ents
Ġinfec tious
Ġd ri
Ġutil ization
Ġrepe at
em por
ens is
Ġd ialysis
Ġextr a
Ġm ening
m atic
Ġrele ased
Ġdec l
Ġmodel ing
Ġbel ong
Ġmm ol
l im
b re
le y
ĠA P
Ġt aking
os es
Ġg er
Ġparamet er
Ġs ple
Ġb rief
Ġnumer ous
Ġrem ission
z heimer
Ġconsist ing
ec tions
Ġload ing
ĠC B
rom atic
a vi
it ol
Ġcartil age
Ġsqu amous
Ġsub t
op pler
Ġinf ant
Ġevalu ating
og lyc
Ġconstruc ted
Ġattrib uted
n ic
0 6
Ġsc an
lym er
ĠM E
Ġser ve
Ġstep s
Ġbur den
â Ģ
ĠR h
Ġper ception
Ġtr ip
Ġte eth
ĠP E
Ġadvant age
Ġter minal
Ġspectr al
ify ing
Ġlimit ations
ass ay
eter min
entif ic
Ġinstit ution
Ġbe gin
Ġv entric
ĠS A
ĠS ignificant
Ġpharmac ological
l o
Ġsens or
Ġsurv iv
rom bin
ĠP ost
os ity
Ġ5 7
Ġab use
Ġd ip
Ġd ent
Ġspe ed
Ġdisc re
Ġres tor
Ġtw ice
Ġsub cutaneous
Ġc ul
Ġdepend s
Ġd imin
hen e
Ġj u
Ġacc oun
Ġad op
ad y
M B
Ġexp ansion
Ġr ural
Ġf ever
Ġvari ance
Ġser ot
Ġcorrec tion
ut h
ĠO ut
pl ate
if er
Ġal ways
line ar
ene tic
Ġdep th
truct ural
M V
Ġelev ation
ros pective
id ase
Ġsw it
I A
i O
Ġcommerc ial
Ġchlor ide
Ġre tic
Ġp ump
ur on
ĠF ive
ol um
Ġpair s
w are
Ġc utaneous
Ġauto immune
Ġpredic tor
Ġg reen
Ġcons erved
p ase
ĠM ic
Ġk Da
is ter
Ġd raw
Ġinjec tions
Ġrob ust
Ġqu antum
de x
Ġ6 2
ĠE ach
ren e
ĠAcc ording
Ġblock ed
Ġac qu
Ġr up
Ġes ter
b i
Ġabs olute
he res
c ome
Ġk ind
p s
Ġtrans fusion
l ife
ar in
Ġtranscription al
Ġt ex
Ġdel ta
Ġcar ry
ine a
Ġuter ine
R s
Ġun us
id in
di bular
chym al
Ġavail ability
H O
ĠP ET
ĠI f
Ġsp ine
ĠB r
ĠL DL
Ġ12 0
at uration
Ġadj usted
Ġle af
Ġdistrib uted
ĠJapan ese
ĠS uch
Ġembry onic
ĠIn f
Ġadj acent
Ġhyper tensive
Ġhem odynamic
Ġplac ement
ĠIn tern
Ġsupplement ation
ĠP ar
Ġre ferred
Ġecon omic
Ġman ip
Ġin verse
Ġprot on
on o
Ġn ame
Ġindic es
Ġun s
ri tic
Ġtrans por
Ġbi as
Ġcoun ts
Ġimmunos up
ĠDec ember
Ġf ist
Ġunder t
Ġex cess
Ġerr ors
Ġinser tion
ar ic
Ġoper ating
Ġprofession al
ac ted
Ġattenu ated
ace u
Ġcir rh
Ġrec overed
Ġd uct
Ġfl av
Ġthorac ic
Ġfil m
bl ind
Ġadv ances
Ġ Â
Ġpolic y
pro t
Ġpel vic
Ġs ymp
p y
aus al
Ġ6 3
si an
Ġenzym atic
p henyl
Ġexamin ations
Ġpredominant ly
Ġsepar ated
ĠM D
o ul
Ġfil ms
N e
Ġas ymptomatic
N D
ĠC ancer
ti tis
Ġprel iminary
Ġm im
ir c
Ġ6 7
t umor
A g
Ġf etus
tiv ation
Ġcom orb
ĠF if
Ġkine tic
' ,
usc ular
RNA s
ati gue
oc ular
n ers
ĠV EGF
Ġcont ents
Ġa z
ĠD ep
Ġeas ily
n ia
Ġt ake
Ġp all
Ġtask s
Ġde pressive
yp ical
gra d
N H
Ġsubst ances
ĠM g
ĠE LISA
ĠEn d
M RI
c m
Ġp yl
Ġpot assium
Ġen coun
ati f
Ġvirus es
rim ary
ĠAl zheimer
ĠH CV
Ġnegative ly
Ġextreme ly
Ġ6 6
Ġresid ents
Ġfl ap
Ġana est
Ġsple en
Ġfoc al
ĠA S
Ġrecr u
ure us
Ġgon ad
u f
ed ic
Ġre fer
Ġimm obil
ĠN K
Ġser a
ĠN AD
Ġrequire ments
Ġdetect able
Ġsol vent
truct ure
Ġintr am
Ġlay ers
Ġiss ue
Ġstandardi zed
ar row
ĠAn ti
ec tor
G T
Ġper cutaneous
Ġes ophageal
Ġmanifest ations
of il
Ġst rom
f our
ĠC an
Ġar g
Ġidentify ing
R R
Ġdi ver
Ġmitochond ria
Ġscler osis
ub ated
Ġin hal
oph ilic
F e
ĠM et
ig ible
ĠM AP
Ġimplic ated
Ġcorne al
Ġaden ocarcinoma
ie tic
Ġthere by
Ġtr ache
um ents
Ġphosph atase
Ġl umbar
er ate
oc omp
ac co
Ġm ol
Ġphot o
Ġgraf ts
os ome
Ġme et
Ġma x
Ġdecreas ing
et her
Ġex pect
ul sion
Ġanaly tical
n el
Ġcap illary
E V
Ġpar ad
Ġt ib
Ġcontinu ed
Ġadj uvant
ĠD oppler
v ents
ram atic
ra b
Ġlo op
P H
Ġput ative
ul ative
Ġeff orts
Ġinfluenz a
Ġdef ine
Ġmat uration
oc ys
oc ortic
CS F
Ġve h
Ġbiomark ers
ly ce
Ġmethod ology
o yl
ĠSer um
ĠÎ¼ g
Ġ6 8
ĠS outh
Ġrequ iring
Ġus ers
Ġaim s
ĠS m
ud ing
Ġp ol
Ġprecurs or
Ġcardi omy
ĠThe ir
Ġab lation
Ġnutrition al
v ance
Ġsuper f
Ġcollec tion
Ġas tro
Ġseiz ures
ĠH A
in ess
Ġinflu ences
Ġunc ertain
ĠE ight
Ġvalu able
Ġ5 9
oc on
ĠRec ent
t ures
ĠM I
d ep
row th
t hel
Ġinfer ior
Ġantagon ists
Ġa ureus
Ġintro duction
Ġhepar in
Ġdr inking
on ography
Ġd rop
Ġinterfer on
Ġf abric
Ġhe x
Ġcaus ing
Ġimmun ity
Ġper f
am eth
Ġk et
Ġm s
Ġ ÃĹ
Ġemph as
um ab
Ġclus ters
ĠD M
et in
tr al
Ġ6 1
ac tor
Ġ iod
Ġagg ressive
Ġne arly
ac illus
Ġrel apse
Ġrestric tion
Ġdefic its
at hetic
ĠH ist
oc ellular
ag land
Ġre asons
Ġh ard
tis ol
onucle ar
Ġd ramatic
ot roph
Ġpredic ting
Ġcol d
Ġcomp ression
form ance
ph y
Ġmove ments
ĠO ther
00 2
Ġl anguage
Ġmuc osal
l oad
Ġc ry
Ġregen eration
tro ver
ox in
ig en
Ġimprove ments
Ġlipid s
is ons
Ġdist ress
m etry
ĠD ise
Ġincorpor ation
Ġb ip
T R
read y
A r
H F
Ġcomp li
ort y
Ġsurve illance
o or
Ġ( >
Ġver sion
Ġadhe rence
Ġvess el
Ġper itoneal
Ġex ce
Ġdiff use
ĠP V
Ġ5 00
oglob ulin
an a
Ġestim ation
Ġundert aken
Ġbiop sies
Ġgest ation
Ġtox in
Ġincreasing ly
Ġcomp ens
Ġpro gen
Ġregul ate
otox in
k appa
Ġcateg ories
Ġaden osine
f e
Ġmost ly
Ġartic les
atur ated
Ġexc it
Ġwith draw
ĠP G
pl atin
adi an
ra red
Ġperme ability
ĠPartic ip
ment ed
ĠI R
Ġlymph ocyte
Ġop tions
Ġadap tation
Ġro d
Ġangi otensin
Ġc ation
Ġbe am
od ed
Ġg ave
Ġmm Hg
ĠG l
p i
chang ed
Ġelectro de
Ġdifferenti ated
Ġconf ig
f ort
ati dyl
re le
Ġcle avage
Ġtest osterone
Ġar rest
Ġglut amate
Ġrup ture
dr ug
pec ific
ad j
y zed
ĠH F
Ġor b
Ġch ains
ĠQ u
Ġan astom
Ġj ud
Ġexist ence
Ġinter s
ĠAl so
omon as
i asis
Ġl amin
x t
Ġex pressing
Ġhighl ight
Ġrem ark
Ġn M
Ġcorrel ate
Ġb urn
a ro
Ġin ner
0 7
Ġcirc ulation
Ġ201 0
Ġrheum at
Ġheterogene ity
Ġintra operative
Ġrestric ted
u ity
ĠCon trol
Ġos c
cep tions
Ġcontr action
Ġgl ass
ĠO b
ast y
oz o
Ġcarb ohydr
t et
opo ietic
Ġm ast
Ġtren ds
Ġreport ing
Ġset s
Ġev oked
Ġpers pective
ap pro
R D
Ġutil ity
Ġrecru ited
ĠL C
ass isted
ear s
Ġg all
0 8
ub i
R es
Ġev ident
o u
Ġli ve
Ġb odies
al ities
er r
Ġgreat ly
Ġdepart ment
Ġorient ation
Ġsci entific
O M
Ġal ready
Ġgener ate
raz il
Ġrever sed
ang es
ĠGer man
Ġcytoplas mic
Ġloc us
Ġall ergic
ĠE lec
ĠM A
Ġcomp ut
i ence
Ġyield ed
sess ment
O N
Ġaudit ory
Ġtra its
Ġag es
un e
ĠH PV
luores cence
ogra ft
Ġm iss
pos ite
hes es
of l
Ġhem oglobin
f ace
Ġre tr
Ġpath ogen
Ġmob ility
Ġch ond
Ġto b
Ġ1 50
al se
Ġaneurys m
Ġno v
Ġfeed back
Ġprotoc ols
ĠN H
on t
s up
Ġeti ology
Ġdiss ection
ain ts
Ġunus ual
ear ing
control led
Ġreview s
Ġe osin
Ġsubjec tive
a uc
Ġst om
h anced
Ġatt ack
Ġgly coprotein
Ġdele tion
p m
rac tory
ap ed
arm ac
cy te
Ġid i
ag ul
Ġlab eled
is ition
ive red
Ġunc om
Ġsc hem
L L
os ed
az ine
Ġnic ot
ĠL H
Ġs emi
Ġves icles
Ġartif icial
Ġoc ular
Ġhorm ones
ia e
Ġt ro
ad ic
Ġbl ack
ell ed
Ġpar ts
ti ple
per s
Ġt el
Ġnan os
Ġmon o
ff ici
Ġmedic ations
ib ration
Ġacet ate
Ġdes crip
Ġ3 00
Ġdiff ered
Ġfew er
Ġdec om
Ġpath ogens
Ġp s
Ġtr ue
Ġw ord
ĠAfric an
Ġh or
Ġle ak
Ġid enti
ati le
def icient
Ġsc aff
O F
Ġutil ized
w ith
as ic
Ġbi ology
Ġun ilateral
Ġsc hed
Ġve get
ot e
Ġs ti
Ġcandid ate
Ġadjust ment
Ġhydroly sis
Ġv ide
u ation
Ġh r
Ġcon trover
aren ess
emb rane
Ġsper mat
P G
Ġsoci o
Ġimpro ves
ther n
p in
Ġre pro
T S
D H
b ound
ĠT B
Ġfeas ibility
Ġcomp l
Ġam mon
Ġprofession als
Ġarth ro
Ġw ar
rap eutic
ffici ents
Ġat roph
ymmet ric
ĠB razil
E s
Ġc AMP
velop ment
Ġcomplic ated
row n
Ġindic ators
Ġdet ecting
v irus
Ġm apping
Ġdistingu ish
it or
am ental
ĠA A
ig m
r as
ĠA MP
N OS
ĠP ark
s accharide
+ ,
Ġb all
00 5
Ġf atigue
t es
Ġrem od
Ġindic ations
Ġform al
Ġitem s
C B
Ġprac tition
Ġvi ol
unc ed
pl asty
Ġint est
Ġ7 1
orb ed
hy per
Ġt ax
Ġrel ie
Ġdi astolic
Ġintr insic
acter ial
ul ties
rec ted
Ġper t
ist ing
Ġattit udes
ĠM a
Ġvag inal
Ġex press
Ġstr i
Ġt ension
Ġb lue
D G
Ġhis tor
Ġparticip ation
Ġdiet s
Ġclos ure
s w
ĠB et
f ive
Ġg over
Ġde generation
CA M
ĠN on
ĠF orty
y ing
Ġre jection
Ġhippocamp us
Ġcys tic
Ġmalign ancy
Ġauth or
Ġrele vance
Ġg ap
Ġclass es
Ġlact ate
Ġvalid ation
Ġne ither
Ġtrans genic
ĠFollow ing
Ġsim ulated
ester one
Ġits elf
Ġeduc ational
ath yroid
Ġmeth ylation
Ġte le
Ġins ights
Ġmon ke
Ġto oth
ĠG ABA
Ġed ema
Ġex ogenous
Ġste ady
Ġsep sis
Ġshe ep
Ġoverex pression
Ġc um
Ġamyl oid
Ġbe y
Ġmicroscop ic
Ġampl ification
d entif
ating s
Ġprog esterone
Ġcoe fficients
Ġbey ond
Ġs ym
U V
E N
Ġ7 8
Ġcompli ance
ĠT A
id ae
Ġdimension s
Ġintegr ation
Ġgen otypes
Ġfron tal
Ġmon ol
Ġinterpre tation
o es
n a
ozyg ous
Ġdel ivered
Ġdiscus sion
ĠC are
Ġgest ational
Ġun changed
Ġcas pase
Ġpos itions
Ġheterogene ous
i ples
Ġimmun o
ul ates
ĠA V
ed iatric
Ġclass ical
A m
Ġpa rent
ur ity
Ġche ck
m ing
Ġexcl uded
Ġins ight
re ported
erv ative
Ġis ot
ic tion
ys ical
in ate
gen erative
od il
Ġcor tisol
Ġsitu ation
Ġ200 9
opro t
elec tric
n at
r ug
Ġoxid ase
e al
Ġprec ip
Ġoccup ational
Ġs ul
act ant
rom es
Ġmy c
0 9
Ġgrow n
Ġdos age
go ing
per itoneal
Ġte am
pos es
w ave
Ġoff ers
Ġtr yp
Ġle aves
M DA
Ġtechn ical
ne a
Ġquantif ication
oti des
ĠM y
Ġcon d
ad emic
am il
ed uc
Ġplasm id
Ġpil ot
ĠParticip ants
ĠCS F
lu tion
Ġpyl ori
Ġsc ales
ensi ties
l if
Ġacqu isition
I g
Ġdig ital
ul ose
Ġsyn aptic
adi ly
Ġch amb
ethyl ene
Ġmorph ine
Ġcreat inine
ode f
Ġextre m
antit ative
Ġde form
Ġst art
Ġ8 6
t ual
Ġt rap
Ġ6 9
entr y
Ġs n
Ġpl at
Ġal ign
Ġprevent ing
Ġli k
ĠM P
Ġ &
Ġplate lets
Ġres ear
Ġpr ono
Ġhy d
ĠP F
ĠS up
RA CT
a ffec
Ġconduc t
ĠC K
Ġserot onin
Ġresid ue
Ġdirec ted
Ġpre term
Ġb on
Ġl ost
Ġbios ynthesis
troph ic
Ġprono unced
asc ul
Ġacc om
Ġexc ision
c ardi
Ġ7 3
Ġ7 6
E L
Ġc e
ĠR et
reg n
Ġdisc ontin
ĠN S
ac ial
he rent
Ġhypothe sized
Ġg erm
ven tive
Ġpla que
Ġsuscepti ble
pro p
Ġgir ls
Ġd up
Ġprote ase
f ish
ĠRes earch
Ġtob acco
g lyc
ĠBl ood
ĠM eth
Ġdevi ation
Ġbegin ning
Ġpros pectively
Ġpost m
Ġcombin ations
Ġapopt otic
Ġper man
Ġmicrob i
ence phal
omet er
ĠC C
ti tial
Ġ( <
Ġmod ifications
Ġsoft ware
Ġen cephal
ph thal
yl ase
Ġinterview s
Ġregul ating
Ġop tion
ĠH b
Ġgu inea
Ġstr atif
Ġproduc ing
i ol
] -
Ġon es
Ġembry o
Ġatheroscler osis
Ġar ray
c ellular
Ġp i
Ġcare ful
Ġph yt
ough t
Ġper for
ad s
Ġaort a
ĠS R
Ġf alse
od s
us h
Ġs izes
lab eled
Ġr ig
Ġphot os
fac tor
Ġemerg ing
Ġsubun its
Ġl ith
Ġtrig lycer
Ġintrac ranial
Ġun iform
Ġsc ar
her n
Ġmo tif
Cl inical
rec tomy
Ġcl ones
am ily
ab s
Ġ7 7
ĠI ts
ĠH ep
mat ched
ĠD R
he a
Ġ8 3
or p
ist ent
Ġun ex
Ġretr ie
Ġvol tage
ion al
as ing
vid ence
Ġyield s
Ġoper ations
ĠL ow
ind ependent
Ġcommun ities
ol ol
A I
g ram
Ġ9 2
Ġab ol
Ġcontamin ation
Ġl and
) ].
Ġ200 5
Ġcons ensus
ra ys
Ġsurround ing
ĠH CC
Ġdisc overy
as one
Ġhippocamp al
Ġfeas ible
Ġcap ture
Ġ7 4
b rain
Ġcons ists
ti ary
os us
Ġhospital ization
Ġselec tivity
Ġne ver
ens or
Ġgu ide
Ġrec tal
ĠSt udies
Ġhom ogene
Ġra ised
Ã ©
ĠM in
G S
Ġbu il
ol id
Ġro tation
Ġpor tion
Ġ200 8
Ġb is
Ġ8 4
d isc
Ġhydroph obic
Ġ8 8
t ent
Ġfavor able
Ġreg imens
Ġclin icians
Ġequ ilibrium
Ġalkal ine
pre ad
th ree
ST RACT
Ġle p
Ġsc ans
Ġdiffic ulties
k le
Ġref lex
Ġre perfusion
Ġstar ting
Ġne xt
el en
Ġsubstanti ally
Ġ4 00
effec tive
Ġpro min
om orph
od ialysis
Ġfund amental
T E
ul i
Ġf ine
Ġon to
Ġp g
min istration
Ġ9 8
Ġsup ports
Ġc reated
Ġ8 2
med ian
an ic
AB STRACT
Ġabs ent
Ġimmunohist ochemical
Ġsurviv ors
i ary
re ceptor
u z
ĠChild ren
enop ausal
Ġmetabol ite
Ġanat omical
Ġex ists
Ġspe ech
Ġantic o
Ġtraum atic
Ġimmun odef
l it
Ġs ought
it ect
Ġc ows
Ġbarri ers
Ġexpl or
Ġcare g
hel l
Ġtyp ically
Ġhome ostasis
Ġglyc os
Ġ ubi
Ġintest ine
ĠE EG
es tive
Ġaut om
Ġm olar
Ġallow ing
h ospital
d a
ucle ar
ĠH T
Ġobstr uctive
Ġidenti ty
Ġintern ational
ĠR adi
ĠM an
Ġcl im
k s
Ġg rap
Ġtr ack
Ġadap tive
Ġb ic
as ure
Ġp ent
Ġcorrel ates
Ġexcl usive
M ed
Ġcall ed
R H
Ġt ach
ĠN P
Ġf a
Ġhist ologic
Ġsimilar ity
Ġdeple tion
ĠM n
Ġde b
am ed
oc t
a por
Ġlab eling
Ġkn ock
Ġreve als
Ġimmunohist ochemistry
T wo
f erence
Ġvolum es
Ġnur se
Ġ200 7
Ġparticip ated
Ġa id
Ġulc er
Ġde pos
Ġechocardi ography
os ocial
l ig
Ġin activation
ardi a
ĠA B
Ġpor tal
Ġv ic
Ġsusp ension
eli hood
Ġex act
M s
Ġrecr uit
x in
ĠS tr
Ġprost agland
epti des
ĠW OR
ti zation
Ġ201 1
D I
Ġsuff ering
Ġrheumat oid
Ġt able
Ġinst ability
Ġcirrh osis
Ġ201 2
ĠG u
Ġconcer ns
enti ally
plas tic
Ġre plac
Ġfollow s
Ġte aching
Ġan emia
ĠS oci
Ġelimin ation
Ġ200 6
ic es
otox icity
it ting
Ġprovid ers
Ġtrans m
Ġn arrow
ĠP os
oph yl
Ġion ic
Ġindic ator
ĠS econd
Ġa ver
Ġepid ermal
Ġc oding
Ġpath ogenic
unc ture
ec onomic
Ġtransl ocation
Ġpro ven
Ġh ouse
Ġqu ad
Ġsyn erg
lu or
CAT ED
Ġinterf erence
Ġder m
ĠEn gl
ĠTR UN
Ġsup ply
ual ity
ĠL i
Ġp ic
Ġatt achment
ĠTRUN CATED
Ġun f
Ġha pl
Ġprem ature
er o
ĠD A
Ġl oci
Ġenviron ments
ĠWOR DS
G l
os an
acy cl
g ia
Ġmet als
Ġcontrib utes
Ġgen us
Ġpre ced
ro tic
Ġequ ation
Ġat tr
ĠO S
Ġop tic
ograph s
adj usted
Ġinfil tration
Ġal veolar
Ġcortic oster
Ġscre ened
Ġo uter
Ġveh icle
Ġmit ral
Ġlack ing
Ġ9 7
Ġrever sible
Ġendomet rial
Ġmonit or
Ġopi oid
he p
Ġmod es
ol one
om otor
Ġflu x
Ġf inger
Ġosc ill
Ġidi opathic
obacter ium
Ġattem pt
Ġact ual
Ġs omat
Ġend ocrine
Ġpreval ent
ĠM any
Ġagon ists
Ġsubt ypes
Ġprob es
stand ing
Ġbl ind
Ġcarri ers
Ġem pir
Ġl ibr
ĠH z
Ġnan oc
Ġcan al
Ġdy e
Ġout patient
Ġgl ands
S O
Ġimplement ed
Ġcarri er
u v
Ġstandard s
op l
Ġaccept able
Ġ9 4
Ġassemb ly
Ġgreat est
op hen
P er
l act
Ġob vious
- [
ĠT ype
Ġe ct
orb ent
im ents
Ġco verage
Ġchang ing
Ġcyt ometry
Ġ Â°
a res
Ġscat tering
Ġro ute
Ġfibr illation
ox ic
Ġp assive
d ensity
Ġdiagnos es
Ġ8 1
a emic
Ġconsist ently
ĠF irst
Ġ9 3
Ġre ach
utr ition
ĠPark inson
out hern
Ġworld wide
Ġs ound
Ġinc ubated
em at
Ġconc urrent
al king
Ġx en
ipl inary
Ġepidemi ological
ĠSur ve
Ġparen tal
f ield
Ġres ting
Ġ8 7
Ġhepat ocytes
ch ain
p inal
D T
Ġcl a
Ġpanc reas
Ġoper ated
am us
Ġpregn ancies
Ġdetermin ants
p hen
ter al
Ġconsequ ence
Ġfl uct
g el
Ġsol ub
Ġiniti ated
Ġaw areness
Ġm akes
Ġref ractory
s s
k ed
Ġfast ing
Ġch or
p sych
Ġquantif ied
Ġus es
ogra ms
um atic
tim es
m ut
Ġregard less
Ġ ile
Ġname ly
in ase
Ġvis its
Ġfung al
ul y
Ġdes cription
Ġprojec t
p atients
Ġsupport ing
Ġdec isions
Ġw ays
Ġclos ed
si x
O T
Ġrare ly
Ġsymp athetic
Ġf atal
Ġadoles cent
Ġderiv ative
ĠN i
P L
a it
Ġcis platin
ĠF A
Ġat ypical
oc in
ĠC urrent
ann ed
Ġdrain age
Ġsed iment
ro c
Ġl arv
Ġann ual
N s
Ġfil tration
Ġd uod
Ġinhibit ing
av ail
Ġinvol ve
v it
ĠP ub
Ġa th
Ġdistrib utions
Ġfor ces
ac tors
Ġr s
Ġobserv ational
ous tic
Ġchalleng ing
arg ed
ĠE ffec
ĠG C
b ra
Ġdeter ior
Ġm ess
Ġeth yl
Ġbil iary
c hers
n o
Ġactiv ator
Ġb rom
ĠDise ase
Ġform ulation
Ġexperiment ally
Ġa romatic
affec ted
Ġqu in
Ġt or
ĠG y
Ġneed le
ĠI tal
Ġsuper oxide
ĠT est
Ġbo ys
ĠHP LC
Ġsubstit ution
Ġinc om
ides pread
Ġpostoperative ly
P F
Ġw et
Ġg al
ech n
Ġprinc iples
Ġover view
Ġdiscrimin ation
at um
Ġneuro de
Ġins uff
Ġadi pose
tim al
Ġf aster
Ġm ach
Ġl ute
T NF
op enia
Ġalle les
Ġ7 9
Ġlik elihood
Ġ201 3
am ycin
Ġtr im
Ġread ing
Ġd uc
Ġdec ades
ric hed
ophil a
ox acin
Ġequ ip
ant ed
Ġse arc
Ġob st
ococc al
Ġ200 4
hy d
ĠP r
Ġes ophag
ĠPlas ma
Ġcolon y
Ġmo tility
Ġnm ol
oul der
M F
Ġabund ant
. (
Ġoptim ized
ĠInt erest
ĠL ong
Ġso le
om eric
echan ical
Ġpor cine
Ġsti ff
en chymal
Ġclon ed
im ental
Ġver tical
Ġ entry
Ġcat tle
ĠV ari
V I
Ġprophyl axis
Ġb ot
Ġmut agen
+ -
organ ic
Ġimplant ed
Ġco ver
er a
op oly
Ġvaccin es
sequ ently
ati ble
ĠSt aphyl
l l
ĠC NS
ĠL T
Ġhepat ocellular
op y
as te
Ġab err
Ġdatab ases
Ġa u
Ġquestionnai res
% -
Ġcomplex ity
op es
p es
ĠO p
Ġperman ent
Ġconstr uct
ri le
Ġwithdraw al
Ġad ren
ĠT en
Ġimmun oglobulin
Ġcum ulative
u ed
Ġh our
Ġconf lic
Ġreduc tase
av ing
ot a
Ġfer til
Ġsuic ide
ĠIn stit
Ġoste opor
Ġbul k
Ġ9 1
H y
Ġcat s
Ġlig ament
ag ic
Ġpost natal
ĠH DL
are t
Ġcon formation
ĠH D
Ġpharm aceu
Ġtim ing
Ġ12 5
Ġexpression s
all ing
ati bility
ĠE C
Ġsmok ers
ĠP seud
Ġexpl an
Ġac cep
ĠT otal
Ġman aged
Ġsequ ential
R F
Al though
G C
Ġem p
Ġabund ance
ok ing
r ig
n is
Ġhyper trophy
Ġa qu
Ġrepresent ed
Ġimmunodef iciency
ĠIn dex
Ġpre ferred
Ġter tiary
Ġcoun s
Ġaccur ately
Ġpath ologic
er obic
ĠC al
all ed
Ġstom ach
thel ess
Ġg ut
Ġre ar
Ġconsid eration
Ġre ag
v a
Ġth al
d ic
Ġloc ations
Ġgeneral ized
mon ella
os ing
otox ic
Ġdiss ociation
Ġselective ly
bre ak
ĠN ot
ĠR el
Ġs ent
n ed
ĠS F
Ġocc as
or adi
B B
pl ace
Ġ8 9
Ġph ag
Ġd im
Ġmemb er
Ġrepresent ative
I t
s il
Ġc am
Ġbi ofil
Ġmacroph age
Ġw idespread
Ġconsider ably
Ġproduc es
i ph
p iratory
ol us
sp ring
Ġelucid ate
Ġelic ited
ar p
12 5
c ious
PA R
Ġtrans duction
Ġcateg or
c omp
ĠNor th
Ġform er
Ġsitu ations
respon se
Ġo ocytes
uf act
Ġen l
im etry
Ġeff ort
duc ing
ĠIntern ational
ĠPre vious
ord ance
Ġmac ro
l tr
Ġnerv es
Ġsynd romes
ĠG ra
Ġtend on
Ġcompar isons
g a
Ġbr id
Ġde v
ur a
Ġenc our
Ġtop ical
Ġpress ures
H z
Ġlob e
ameth asone
Ġvis ible
m es
de press
f il
ff e
In ter
Ġres pective
m osp
Ġvis ion
i tic
Ġtechn ologies
Ġcons ult
Ġp up
o emb
Ġatroph y
estic ular
f ts
Ġre inf
Ġb at
Ġsurge ons
Ġout side
Ġsyn chron
ig aret
Ġneutroph ils
Ġ100 0
Ġre adily
and em
Ġsp i
ĠS I
ynt hetic
Ġprec ision
ĠP b
Ġb ed
Ġcons ervative
Ġintr av
iv ariate
Ġcompeti tive
Ġbuff er
Ġtrans lation
Ġ200 3
Ġinc re
Ġmamm ary
plic ation
Ġacid ic
Ġhab it
Ġperform ing
Ġj ust
oxygen ase
ech ol
Ġret ard
Ġrespond ed
Ġchromos omal
Ġs omatic
ĠIg E
or ld
Ġ201 4
Ġprincip al
ple x
Ġinter act
ar ter
â Ĥ
ĠB D
Ġvul ner
Ġrespond ents
Ġe ating
ĠS E
Ġdem and
re active
az ol
ĠJ une
Ġcoll abor
Ġmain taining
Ġst op
ĠH BV
Ġcontr al
ĠSt re
c tomy
Ġco agulation
of luorescence
op ulmonary
Ġmalign ancies
he rence
D s
Ġlarg est
yn aptic
Ġblock ade
Ġsatis factory
ud den
Ġeff iciently
s ulf
Ġpromin ent
Ġradi ographic
Ġhyper plasia
os itol
ab olic
disc iplinary
plic ations
Ġon going
Ġlung s
Ġs ph
ĠStaphyl ococcus
ol uble
Ġb ands
Ġac ademic
z en
Ġinters titial
ĠInterest ingly
W h
Ġens ure
Ġphen otypes
Ġincorpor ated
yc ardia
Ġcarbohydr ate
Ġgl auc
ĠRec ently
Ġl ist
H igh
d l
Ġubi quit
H e
Ġchromos omes
re m
Ġnon linear
Ġemerg ed
Ġsession s
Ġad di
Ġdemonstr ating
Ġangi ogenesis
ade qu
Ġtoler ated
Ġassess ments
Ġaccoun ted
Ġadd ressed
M O
Î º
om eth
op a
Ġmod ulate
Ġintegr ity
si al
Ġshor ten
l ands
Ġf o
Ġstimul ate
es ium
Ġsp p
ĠQ ues
Ġ201 5
Ġphyl ogenetic
Ġneu rom
Ġreduc tions
ĠP a
ĠG F
Ġle c
Ġmod alities
Ġlarv ae
Ġhist amine
val ence
in in
S er
r ical
ĠC hem
sensi tivity
p oly
Ġseiz ure
t ol
Ġv ascul
ot es
Ġand rogen
Ġadi p
Ġphosph atidyl
N C
i ant
el ve
Ġinduc ing
Ġmoder n
Ġtranscrip ts
Ġdimin ished
e ight
Ġb orn
Ġmed ull
j un
h our
Ġwor se
Ġker atin
Ġ200 2
ep tive
Ġcompr ised
ro x
Ġstudy ing
ĠSub jec
id ium
amin ation
Ġm om
kappa B
Ġt ended
Ġext end
f ib
Ġr hythm
ste p
Ġh ams
Ġventric le
ĠAustr al
Ġquantif y
Ġcontral ateral
Ġdefin ition
Ġexhibit s
Ġf ores
part um
cep ts
ĠI U
Ġendothel ium
Ġeas y
Ġ200 1
Ġs lic
rang ement
i ra
ard s
Ġstrom al
Ġcoord ination
Ġpot ency
Ġred ox
o arth
Ġparas ite
Ġpre natal
ĠBet ween
t hen
her ic
B T
Ġure th
c atal
ĠFif ty
M et
Ġenh ances
Ġac uity
ĠS C
c at
ĠM o
Ġdiff raction
ast atin
S I
ec tom
ap t
Ġradi al
Ġglomer ular
Ġh ors
Ġder mat
ĠSoci ety
z er
Ġgluc ocortic
Ġencoun tered
Ġstar ted
v iral
ĠM ay
Ġremod eling
Ġpathophysi ology
hel ial
Ġse ek
ĠDi agn
er t
Î ³
Ġiso forms
Ġimmunore activity
en ari
Ġc ran
Ġrepresent ing
Ġpref erence
Ġanalog ues
ab etic
Ġpr iv
oplas mic
Ġcomorb id
B i
t em
The re
er ating
n on
(- )
ĠE arly
acer b
Ġelec tric
Ġcy an
Ġdend ritic
ĠP atient
Ġj unction
Ġprogram me
N a
Ġcomplement ary
ke let
Ġperson ality
ĠF T
Ġvir ul
Ġman ufact
par tic
Ġemph asis
Ġsumm ary
Ġde pressed
ff icacy
Ġpres um
yt hem
ĠAI DS
Ġe lastic
Ġpsych osocial
Ġcom b
Ġsecre tory
re x
i ation
Ġengine ering
Ġexc itation
Ġ[ (
u ents
Ġl up
ult ural
Ġaut ologous
Ġscre w
oc or
ling s
Ġvac u
a h
Ġneutroph il
il ization
P K
ic ardi
re f
ent a
ĠNe uro
00 3
ysi ological
tid ine
Ġwa vel
Ġcri tically
l in
Ġconst ants
Ġ201 6
od ds
Ġins ide
ĠU K
Ġr ice
Ġpap ill
Ġper ceptions
Ġstrong er
L DL
Ġresponsi veness
Ġprolif erative
Ġventi l
Ġfr uit
dentif ication
Ġconsid ering
Ġref lux
ult ure
ĠSal monella
ot ub
Ġsuperf icial
Ġchamb er
Ġrh in
Ġpharmacokine tic
Ġdisturb ances
Ġpart ners
k et
Ġoc cl
ed ed
Ġprot ect
ere s
Ġmean ing
ot in
v ari
r ist
Ġb order
Ġperi operative
acchar ides
Ġsubgroup s
Ġcomp rom
tr in
Ġmix tures
ĠH uman
Ġinfil tr
Ġarch itect
Ġth reat
pos ure
p op
E valuation
Ġle uc
Ġul tim
Ġvi able
roscop y
amin es
an tic
Ġmill ion
Ġâī ¤
ĠW he
ĠA u
Ġaccep ted
c entr
Ġcycl o
Ġchem istry
ab led
ĠR OS
ĠSt atis
Ġparticip ate
cl ass
am an
Ġpl ane
Ġregul ates
Ġturn over
Ġpred is
Ġdes tr
Ġfist ula
Ġincom plete
Ġanti depress
Ġs por
U T
Ġbind s
ub icin
Ġcytoplas m
Ġabol ished
ol ate
Â ®
Ġindustr ial
Ġdefic it
ĠP O
Ġdec ade
Ġmal aria
Ġoptim ization
Ġindic ation
Ġhemat opoietic
os en
Ġperoxid ase
Ġw alking
he t
Ġv entral
f rom
Ġpur ification
Ġroot s
ĠP L
Ġsub type
Ġnutr ient
op eration
lyce mia
ĠC ox
k t
y el
ĠP o
Ġup d
Ġconform ational
in yl
st able
of ib
Ġalter ation
Ġphen otypic
Ġap o
Ġbip olar
Ġfil ter
Ġw ind
s k
ĠN T
Ġresour ce
ax el
Ġex cessive
Ġhom ologous
ĠN one
Ġout break
Ġanat omy
Ġpancre atitis
Ġd ark
form ing
acr yl
Ġlep tin
Ġat omic
Ġcan ine
ĠS H
Ġl aw
Ġat mosp
Ġpre ventive
Ġcarb oxyl
Ġtranspor ter
Ġdown stream
o ols
ve red
ĠC E
N R
Ġsecre ted
ĠO ct
Ġblock s
Ġsh am
at ell
ĠIg A
Ġac ts
ran ce
Ġure a
olin ergic
Ġegg s
Ġpower ful
Ġpractition ers
Ġdo ub
Ġin her
Ġneon ates
Ġpromot ing
ĠA rab
Ġse ason
Ġh arv
ines cence
Ġc ement
adren ergic
ir y
ĠC ardi
Ġmyel oid
d imethyl
Ġphen yl
Ġpat ch
Ġh ar
u its
Ġclar ify
Ġex acerb
Ġlink age
Ġcon duction
ĠAs sessment
Ġpropor tional
id i
Ġvit al
iaz ep
Ġcys ts
n ine
Ġmon onuclear
Ġreturn ed
Ġam el
Ġker at
Ġabs cess
Ġoff spring
Ġdisrup tion
olog ist
Ġapparent ly
Ġt ree
at onin
P M
p olar
Ġca ud
ĠQues tion
Ġen able
Ġps ori
istr ib
Ġtrain ed
Ġcontrib uted
Ġc entr
ul s
Ġhead ache
Ġfood s
Ġarter i
g one
Ġdisper sion
Ġindustr y
Ġfamil ial
Ġdig estion
Ġmusc ular
en hanced
T c
Ġcandid ates
Ġs plic
Ġsh oulder
Ġtend ency
omat ous
Ġf if
S E
ĠS V
Ġpromot es
Ġprop ag
Ġh ind
Ġ $
Ġevolution ary
ain t
ĠM al
Ġ199 0
Ġt a
Ġresear chers
Ġst ained
Ġev id
Ġmon ocytes
ifferen ti
Ġun affected
ost atic
Ġdis placement
it in
C r
ep it
Ġhor iz
en tion
Ġwhe at
a fter
Ġuseful ness
Ġl amb
ra ine
Ġap ical
Ġneu ros
an ium
op rop
u fficient
Ġt esticular
Ġdiss em
Ġre tained
ed ded
be ing
Ġmicro c
Ġscre en
Ġam ph
] )
Ġc ocaine
Ġd ich
Ġb ab
Ġab or
ĠC L
s ec
Ġs arc
ĠC ar
v ation
b odies
ist ar
Ġelectro des
Ġbond s
u ate
Ġres olved
Ġes tradiol
ace ae
Ġcat ar
Ġmig r
Ġres in
Ġrecruit ment
ocy an
le ge
tiv iral
Ġpan el
Ġhyp og
Ġsc enari
Ġs udden
Ġsign alling
Ġin adequ
xim ately
i able
oc ated
Ġelectro chemical
di agn
ĠOr gan
Ġunder gone
Ġgrad ually
aryn g
ĠQuestion nai
he tized
Ġstre t
Ġmark et
ĠAss ociation
Ġautom ated
ob lastic
Ġbiom ass
s al
ĠPK C
T rans
e v
Ġaneurys ms
rec ip
an ish
ter ase
b umin
ĠCl ass
ĠA CT
gen e
ic a
S V
Ġpos ts
Ġimmun ological
od al
res olution
ĠSe vent
Ġsaliv ary
Ġisol ate
Ġshe ar
Ġanalog ue
ar ts
Ġad duc
Ġm ap
ĠE le
ro zen
Ġvis it
Ġatom s
or ous
ĠI D
Ġop posite
H I
gu ided
Ġdifferenti ate
th rough
st atic
Ġinsuff iciency
Ġstiff ness
em ographic
ĠDep artment
Ġsurge on
ay ers
amin ergic
ĠÂ µ
g er
ul ator
ol ding
per formance
Ġcon cepts
Ġcontin ue
Ġr ich
cl uding
Ġtub ular
Ġnorm ally
Ġer ythem
Ġsevere ly
oid es
ĠR ep
Ġj o
ick ing
am ents
oplas tic
os arcoma
Com parison
Ġball oon
ic o
ĠT LR
Ġspontaneous ly
Ġobjec t
Ġdep r
f requency
Ġs i
Ġen anti
Ġfocus ing
te ad
Ġdisc overed
Ġcountr y
Ġch ron
Ġdifficult y
Ġinstr uments
omes tic
Ġun like
In c
Ġsc al
B R
ili ary
ĠC G
in osa
gluc ose
Ġinf rared
Ġwid th
A p
ons et
ass emb
Ġkidne ys
Ġenh ancing
Ġhorm onal
g lycer
Ġk e
Ġhist ology
Ġun related
Ġaer obic
ure tic
Ġst aging
Ġover come
ros ophila
Ġpres cribed
Ġhelp ful
an es
Ġhem odialysis
Ġadv ance
Ġhospital ized
Ġanomal ies
ti tive
Ġchond ro
ob ut
Ġor ally
Ġanti tumor
Ġorgan ism
ost atin
ogn ition
ĠM arch
Ġfollic ular
Ġbelie f
h old
Ġguid ance
Ġas ked
Ġtranscrip t
Ġlup us
och rom
ob er
eng ths
Ġuncom mon
re tin
Î ¼
ost omy
i ative
Ġne igh
Ġtet ra
Ġradi ological
tr i
or a
lip id
ĠSim ilar
Ġis ch
Ġkin ases
we ighted
Ġnod ules
Ġcat echol
ĠL A
os ts
Ġsh ared
U n
r ies
Ġ199 9
Ġaspir ation
se lec
Ġcomput ational
at ers
itr ate
as tric
ensi tivity
Ġprostagland in
os ystem
Ġgene tically
ol ization
Ġperiod ontal
Ġsilic a
ĠAustral ia
Ġhem isp
Ġverte bral
et ection
Ġw arr
ĠIg M
Ġc asc
ĠW omen
Ġmob ile
er ge
c ap
Ġch osen
Ġch olec
T r
Ġpolyp eptide
ĠN ever
el ves
ĠIC U
rop athy
op sy
Ġbe aring
Ġreconstr uc
Ġz e
Ġpharmacokine tics
Ġide al
Ġvide o
rom y
Ġexam ples
G R
Ġto o
An ti
Ġnan o
Ġcontrib uting
Ġoff ered
Ġpolym ers
Ġt ight
Ġretin a
Ġover weight
oblast oma
Ġax ial
are an
ĠW istar
h igh
Ġd ia
Ġan ion
Ġpromot ed
Ġm ood
Ġbl ast
Ġp pm
Ġchick en
Ġconf ound
Ġform ing
om b
Ġc ros
Ġmicro organ
Ġwe ights
Ġreflec ted
ATP ase
ĠE CG
Ġleuk ocyte
Ġpres ervation
Ġins tead
Ġc igaret
Ġdecl ined
ĠR F
gl ob
Ġtra ff
Ġcombin ing
t arget
Ġgraf ting
Ġt es
Ġint ense
Ġconfig uration
Ġs aturation
Ġelec trom
Ġbr ach
M ul
D es
) ).
ĠO x
Ġso y
Ġglauc oma
Ġflex ible
Ġster oids
Ġman dibular
us ting
ent an
ĠNever theless
to red
Ġmar ine
ĠIn s
Ġsug ar
im id
Ġultras onography
e jun
Ġcontrover sial
Ġbreat hing
im us
se ven
erg ies
Ġbelie ved
Ġar s
Ġex on
om ing
ĠJ uly
Ġqu ick
Ġaut omatic
j ug
Ġse e
Ġlat ency
Ġdys plasia
Ġfibrob last
Ġcarry ing
âĢ ĳ
Ġexclusive ly
A nal
Ġper in
Ġmedi ate
Ġreinf or
Ġfacil ities
Ġerythro cytes
es arean
) ),
Ġcre ate
Ġst atic
m ium
on it
Ġbronch ial
Ġreg istered
Ġdifferenti ally
lif erative
ĠT aken
ĠSe ven
Ġnon invasive
Ġen ables
Ġequ ally
ĠG P
ĠMul tiple
Ġimmun ization
Ġnumer ical
Ġan sw
Ġvas odil
Ġg ing
Ġchrom atin
Ġtib ial
Ġschem e
Ġmicroscop e
ĠK ore
Ġplat form
hem atic
Ġs ick
Ġel ong
Ġf ell
erc ury
Ġantic ancer
o L
Ġpert urb
Ġan kle
Ġanalges ia
an ing
ĠH is
Ġbio avail
â ī
Ġneurop athy
Ġs ac
Ġ Ï
Ġactiv ate
ĠEx pression
od g
Ġc ad
Ġstr ict
ĠP P
Ġqu ite
Ġsci ence
es ophageal
Ġprocess ed
Ġrec t
Ġneur on
B F
Ġana erobic
par ative
O A
Ġelectro ly
Ġinn ov
an o
ĠC enter
ĠS yn
Ġcla im
ĠWith in
tig ra
es ides
en in
En d
Ġdistin c
Ġplac ental
Ġs elen
Ġ umb
Ġdiscus ses
Ġgover n
yr in
Ġcateg ory
ĠT T
Ġosteopor osis
Ġrel ap
ĠD rosophila
op sis
Ġtransf ected
Ġfluct u
Ġweek ly
Ġpart ly
Ġsw elling
Ch aracter
empor al
Îº B
v ol
rogen ic
oc ic
n RH
ĠG ram
Ġbir ds
p ic
m ann
Ġf asc
Ġperoxid ation
a ven
Ġsil ver
tis m
Ġcereb ellar
ĠMed ian
ĠB AL
ĠD rug
Ġb or
Ġneoplas ms
Ġunivers ity
ĠCO X
Ġt rop
Ġwaste water
Ġ199 8
pl an
Ġrefer ral
Ġmod ality
ul os
ĠCO PD
3 00
Ġren in
Ġrequire ment
Ġth yro
Ġinc ontin
ĠSix ty
Ġarthro plasty
b ec
ear t
Ġcul tiv
Ġh arm
ob lasts
at her
Ġju ven
Ġexpos ures
kelet on
Ġrelie f
ĠPseud omonas
val ent
Ġg ives
Ġinter mit
ogene ic
Ġo phthal
Ġapp lying
Ġov ary
c c
Ġrandom ised
Ġco ex
ell es
s ite
ac yl
Ġsystematic ally
Ġhe arts
Ġb p
Ġser ved
Ġbec omes
l amp
Ġoptim um
en zyme
S R
Ġme al
Ġth or
uc cess
Ġloc ally
ion ine
Ġc ure
Ġattemp ts
po ints
ĠA N
Ġempir ical
ms elves
a id
ĠAfric a
Ġshif ts
Ġvec tors
ock ing
Ġthe mselves
otyp ing
le b
fe eding
Ġf u
Ġhomogene ous
Ġpen et
Ġinc ident
si bility
Ġpol lution
Ġm ask
Ġsc in
ĠN E
ros pinal
Ġp estic
Ġtr ace
enter ic
Ġtransfer red
ole t
Ġradical s
Ġn ight
il ical
ug inosa
Ġacetyl choline
Ġas pect
m us
ĠD C
Ġl ac
Ġneuro trans
Ġgrap hene
Ġres tored
Ġt ur
Ġcon ven
yn am
ĠM or
Ġst ored
H L
Ġcons cious
otrop in
Ġw estern
+ /
let es
Ġcol itis
B r
ensi tive
Ġbran ch
omic s
Ġd omestic
Ġinflu encing
Ġaccel erated
Ġl ifest
F s
c ys
Ġopportun ities
Ġneurolog ic
Ġhypothal amic
Ġprecurs ors
un k
Ġtex t
ĠSim ilarly
n t
Ġcol onic
Ġsurf actant
e en
Ġtr ic
Ġhighl ights
ĠP sych
Ġpar a
Ġaer uginosa
ĠQuestionnai re
ĠAp pro
Ġdist ant
ĠSubjec ts
Ġdos ing
ur ic
Ġfetus es
Ġser ine
app ed
Ġsul ph
Ġcontrib utions
Ġanat omic
Ġconstr uction
pine phrine
Ġproper ty
Ġaut ophag
Ġr ace
ox if
Ġform ulations
Ġdi arr
Ġdr iving
Ġpharmaceu tical
Ġinterest ing
Ġpeak s
Ġto ok
D C
Ġfour th
Ġsuppress or
yt es
Ġcys teine
Ġnicot ine
elec tro
Ġspec imen
ĠP B
function al
Ġanth rop
Ġcryst als
Ġstabil ization
Ġcalc ulation
Ġtransform ed
ceptor s
Ġon line
Ġregul ator
Ġl in
Ġretic ulum
Ġgo als
Ġy outh
ĠG M
Ġdex amethasone
Q u
omer ase
ĠC X
oph ore
Ġdefin itive
F I
N I
ens tr
ici encies
Ġinter fac
Ġac ting
ĠR isk
Ġcirc ular
ĠB cl
Ġth rombin
ĠR V
ĠT w
opath ological
ill i
Ġcran i
Ġd enti
im etric
omy el
iv ation
if t
00 4
Ġco vered
Ġop ening
ar um
ept ember
as onal
ier arch
ere bral
d L
ur nal
ĠNa Cl
stit uted
Ġmyocardi um
Ġen tit
Ġbiomark er
at o
sh aped
ĠR aman
produc ing
s ur
Ġblock ing
Ġutil izing
H IV
Ġelec tive
Ġ ros
eren t
el ic
ĠIn tra
ĠH a
ĠP rimary
ĠSurve y
Ġimp acts
Ġexp and
Ġassum ed
ĠB R
ĠSw ed
Ġne g
Ġmes enchymal
Ġpres erved
f en
Ġep ig
Ġw rit
ater nal
Ġman ual
ozo a
vers al
Ġneurop sych
d ered
Ġh ot
ogen icity
Ġr ank
al low
uk ary
ĠCom parison
Ġrec over
part ate
Ġgangl ion
5 00
ĠC ro
Ġs arcoma
Ġex ception
C u
Ġdr iven
Ġro und
Ġmicro tub
Ġ199 7
Ġmicro ar
iat ors
ĠN ur
Ġsome times
Ġac oustic
ĠAp ril
ograph ical
opoly saccharide
Ġdramatic ally
Ġser ial
M W
bor ne
or ic
ess ation
Ġsearc hed
Ġb if
se lective
Ġaspir in
Ġhom ology
Ġrang es
Ġsurve ys
ere ctomy
odg kin
Ġs un
ash ion
urren ts
Ġins ufficient
ys es
Ġw aves
ĠC andid
G H
og ether
Ġacc es
oarth ritis
istrib ution
Ġg ait
Ġparad igm
Ġj us
is hes
u ent
ĠP H
Ġchemical s
or ubicin
Ġthreshold s
rel ation
Ġanaest hesia
on yl
ĠP GE
atell ite
b and
Ġus ual
ĠP SA
Ġpneumonia e
Ġm er
Ġge ometry
Ġexamin ing
Ġgra ph
ad renal
Ġz ero
H uman
re ver
b earing
Ġhom olog
kin ase
ĠEGF R
Ġol factory
Ġfer tility
ome gal
yn ec
Ġconstit utive
Ġs uture
ĠP ath
Ġalgorith ms
Im mun
Ġre v
form ed
Ġopportun ity
Ġf ashion
Ġy r
Ġpredic tions
Ġapplic able
Ġcardiomy opathy
Ġhors es
Ġrestor ation
Ġhe n
Ġatt ached
ĠM yc
Ġlibr ary
Ġd ense
ug e
e g
ĠM V
Ġl am
Ġremark able
ĠA ug
Ġen ough
Ġmagn esium
hep atic
Ġincontin ence
Ġinj ured
Ġepidemi ology
T I
Ġpostm enopausal
Ġequ ations
ĠIndi a
T C
Ġple ural
Ġres emb
Ġsch ools
Ġlymph oid
B G
Ġhydrox y
c ol
l ot
ore pinephrine
oc atal
Ġplas min
def ined
ĠInstit ute
Ġepid erm
ac il
Ġorb ital
Ġcorrec ted
Ġg rain
ĠIn iti
ĠT I
R el
Ġmed iators
vi an
Ġle v
ĠPro tein
Ġre vascular
ĠC AD
ĠH O
ĠM HC
Ġen rich
at ation
Ġsim ilarly
Ġre vision
op ress
Ġc och
Ġminim ally
Ġpur poses
m olecular
c ons
Ġprol actin
Ġcontamin ated
Ġhistopath ological
rough t
Ġviol ence
Ġnat urally
Ġme at
Ġ :
Ġe jection
I FN
ĠS M
Ġbacter i
k Da
per g
Ġextensive ly
Ġrecombin ation
hythm ias
Ġan is
Ġphysi ology
ins ulin
ip ine
ect able
ron tal
Ġp ore
ĠN in
Ġsh are
Ġd ro
Ġpig ment
Ġcontinuous ly
Ġel igible
Ġher pes
ĠC yt
respon sive
Ġves ti
ang er
Ġrecording s
Ġso ils
Ġpa ired
pec tives
Ġc essation
Ġpres cription
Ġmel atonin
form ations
Ġmod ulated
Ġcomp artment
ĠSt ate
Ġinvestig ating
Ġfung i
Ġsens ing
op os
Ġmonke ys
S F
Ġfit ness
Ġmoder ately
Ġchromat ographic
Ġnitr ate
d ase
Ġc urrents
Ġpolar ization
Ġt roph
ix ed
red ic
Ġt ip
Ī ¼
Ġverte br
Ġinc ision
id ents
trac ted
Ġc ranial
ogen es
ĠO A
ĠRe view
tra umatic
Ġpseud o
Ġion ization
Ġconn ected
ĠT H
GF R
Ġf ear
Ġdef icient
Ġsepar ately
n es
el t
Ġf arm
Ġvic tim
ul sive
ĠE l
Ġexpl o
ĠS he
os tr
N E
ĠLe vel
" .
Ġexamin es
us ing
Ġamb ulatory
Ġantib acterial
Ġpall iative
Ġr RNA
ĠP res
Ġepid emic
Ġver ified
Ġprost hesis
ĠER K
Ġcop ing
Ġimmun ofluorescence
l am
Ġ19 95
ĠCh anges
ĠT P
, "
ac id
Ġsuff ered
oe a
b last
Ġin active
Ġe ukary
Ġinadequ ate
Ġleuk ocytes
Ġelucid ated
D E
ĠA L
Ġper oxide
Ġolig onucle
i res
Ġs ib
Ġstructure d
Ġspectroscop ic
er n
ĠT ra
Ġar ising
Ġcytos olic
ĠEngl ish
Ġal d
Ġmass es
ud ge
ĠThe n
Ġcap ability
Ġirradi ated
Ġ ,
ĠS eptember
Ġhydro carb
Ġdec ay
Ġimm ature
ab in
Ġmig raine
Ġstatis tics
y ph
h n
Ġstimul ating
ĠF SH
Ġcult ural
Ġamel ior
b is
Ġf rozen
Ġphenomen a
v estig
atic s
ĠM C
Ġmat hematic
Ġanastom osis
Ġchar ged
Ġfocus es
ens ory
as i
Ġle thal
Ġan tiviral
c ape
Ġprot ected
Ġintermit tent
Ġexp anded
Ġneuro tox
ĠS urgical
Ġfor ward
ĠD ue
Ġfav our
Ġampl ified
Ġm u
at osis
Ġulc ers
ĠÎ¼ m
Ġfl at
Ġinterpre ted
Ġt andem
Ġabnormal ity
Ġtes tis
Ġcomple tion
Ġlimit ing
est ing
m o
ly l
ĠOct ober
Ġd imer
rom ycin
Ġb und
i tivity
ec lamp
Ġv ibr
Ġmultic enter
Ġjo ints
de oxy
Ġbioavail ability
Ġimp ed
U R
Ġadj usting
Ġher b
Ġ199 6
ĠC ase
Ġerythro cyte
Ġres usc
ĠCom bin
Ġgran ules
Ġauto anti
Ġpic ture
ur able
Ġp ort
Ġsc oring
Ġapp end
Ġword s
o ice
ill er
di abetic
N ew
Ġdescrip tive
Ġsuc rose
Ġw k
Ġ ips
Ġm assive
Ġglyc er
id ation
w an
Ġve ter
Ġco h
Ġsupplement ed
ĠV al
Ġaut onomic
ur ane
ĠB MD
ĠPro gram
ypt oph
ro gens
Ġs ap
ĠS i
Ġj ob
Ġlifest yle
Ġel ast
ĠE vidence
Ġthromb ocyt
Ġprost atic
M ic
Ġdeterior ation
Ġec ological
ĠMe asure
Ġphosphor ylated
Ġradi ographs
ator ies
in n
ĠA M
ĠH L
Ġg ram
Ġfluid s
Ġadap ted
p act
gal act
ip ro
Ġb ar
Ġcompeti tion
Ġ18 0
ti um
pl ies
Ġlife time
mod ified
Ġ201 7
S c
Ġsus tain
Ġinser ted
Ġcal ibration
Ġlec tin
V T
+ ]
Ġper ox
Ġro ugh
inf ection
ĠT e
Ġaddi tive
ĠA CE
opro st
Ġprof ound
Ġall ograft
ocardi al
ĠH B
ĠN MDA
Ġaccom pl
Ġactiv ating
sm all
ltr as
Ġtransm embrane
Ġs ense
Ġdisturb ance
Ġco inc
ar is
12 0
Ġtach ycardia
Ġda iry
A K
Ġfram e
Ġhist one
ĠA K
Ġlith ium
Rec ent
Ġmamm als
Ġmicroorgan isms
it ated
it osan
Ġconsider ations
Ġenc aps
Ġn as
Ġadop ted
Ġpost partum
eren ces
Ġ %)
cell s
Ġtransplant ed
O n
Ġimmobil ized
Ġmax illary
m aking
Ġk appa
op ia
Ġflex ion
Ġpar athyroid
Ġdiarr hea
arb oxyl
ĠG I
( +)-
Ġs on
flu ence
Ġeff usion
Ġachie ving
Ġneurop ath
M an
Ġquantitative ly
ĠC M
Ġcompr ising
M od
t t
Ġdia ph
ant om
ag g
Ġgl ial
ak er
Ġos m
Ġcereb rospinal
ĠS O
ĠA ge
Ex per
Ġv aric
en ergy
E B
Ġco ol
Ġhoriz ontal
ol ving
Ġoc t
ĠS am
Ġform ula
en viron
Ġfol d
Ġal umin
ri end
Ġperin atal
Ġumb ilical
ys ts
Ġve ins
M olecular
im b
orac ic
Z n
ab ine
Ġbuil ding
ĠAd ministration
Ġun stable
ĠS L
as ia
d al
n ec
epit helial
Ġdis app
Ġblot ting
Ġing estion
Ġcardi opulmonary
Ġless er
Ġaccum ulated
Ġpenet ration
ĠP t
Ġcirc adian
Ġen riched
av irus
het amine
ir ation
ĠT F
Ġevalu ations
ĠHy per
Ġas ymmetric
Ġbon ding
unc tiv
ell ow
az ep
Ġassay ed
Ġwound s
Ġsuper nat
Ġfluor ide
Ġs we
ut able
Ġcareg ivers
Ġath letes
Ġcatal yst
educ ed
ur ations
b ow
ĠS W
s yn
Ġop in
ĠF I
Ġattenu ation
Ġin patient
ĠS DS
Ġwh y
F U
g ence
Ġcatar act
iat um
G D
C K
Ġall ergy
tr y
Ġpriv ate
be an
olip id
rol og
Ġpromo tion
Ġalk yl
ĠQ uality
Ġhypox ic
Ġsh unt
Ġneoplas tic
Ġinter medi
Ġtrans verse
ĠCell s
Ġh arb
Ġlig ation
Ġdi oxide
Ġarchitect ure
reg ular
Ġsurg ically
Ġintra ocular
ari able
Ġc hel
Ġenc oded
ĠT E
Ġendomet ri
Ġdiscre p
ĠA sian
ĠS LE
d op
Ġcr ude
p ation
Ġeff lux
Ġequip ment
Ġsim pl
Ġcl one
Ġsc aven
year s
di rected
Ġtra it
Ġeffec tor
ĠT ur
if ug
Ġcour ses
ist ance
oc onstr
Ġ q
Ġdi vision
Ġobjec tives
Ġdestr uction
ĠCandid a
Ġcriter ion
Ġclim ate
Ġdup lic
Ġadap t
Ġdepr ivation
ati d
re w
uccess ful
" ,
C or
Ġax ons
Ġex pon
Ġcent re
id er
Ġus age
Ġreproduc ibility
B MI
ĠT M
ĠW orld
Ġfrag mentation
he ad
Ġillustr ate
Ġpor ous
ĠG iven
Ġmanip ulation
Ġjuven ile
ron ectin
h om
ĠS o
Ġvirul ence
Ġcontr actions
Ġphosphor us
Ġrec ons
ĠG SH
Ġn ig
Ġclinic s
Ġsl udge
os idase
Ġfore ign
am yl
Ġmom ent
Ġalign ment
Ġcar ies
Ġmarg inal
Ġeth nic
Ġneph ropathy
ogra fts
c er
pl oid
Ġaff ord
Ġd est
Ġr ule
ĠC och
al anine
Ġtra jec
Ġen ergies
Ġc ef
L ong
ĠB A
Ġdef ense
Ġobser ve
ĠP e
ĠPA H
x ia
Ġadmin istr
Ġg iant
ĠMedic ine
am el
ĠN I
Ġr ub
Ġm um
Ġanti ser
Ġplastic ity
Ġattr active
Ġt one
Ġcond ens
Ġst ation
Ġrepor ter
Ġsocio economic
iz umab
Ġdevelop ments
ol ation
Ġther mod
Ġleak age
tif ied
ophil ia
Ġdes c
Ġpo ison
Ġc rop
Ġdis l
ĠÎ¼ M
jec t
Ġepid ural
on duc
Ġch iral
Ġaggreg ates
Ġdetail s
ĠC RP
Ġprincip le
ym ph
c a
G P
ophosph ate
Ġdiscre te
ĠM ex
pt ococcus
Ġb ud
ĠAustr alian
ĠGerman y
ĠNor thern
ĠH eart
Ġreplac ed
Ġrel ations
Ġrecip ient
E lec
Ġgro ss
ĠB acillus
Ġw ors
Ġbehaviour al
Ġpers pectives
Ġdep olar
Ġcaps ule
Ġcycl ase
tet ra
ox orubicin
Ġemerg ence
Ġm outh
Ġmul tiv
Ġpul ses
anc ial
ung al
Ġcontrac tile
Ġmal formations
ĠIm pro
Ġcomp art
ace tic
ail ed
Ġtransi tions
ĠB ay
ĠAc ute
Ġloss es
ol er
yroid ism
ke y
Ġcalc ulate
ĠACT H
Ġhypothal amus
ĠInc reased
Ġprov ision
O b
ren ch
ĠT SH
Ġtrip le
ĠS urgery
Ġattemp ted
As s
odon tic
Ġhydro chlor
ell um
ĠG TP
Ġdirec tions
Ġsynerg istic
Ġconver ted
p ath
Ġr atings
ĠAn g
end ocrine
ĠSt and
Ġanalges ic
Ġs or
arg inine
mon ic
Ġdis tor
Ġparas ites
c omes
Ġsep tic
ograph ically
Ġdat as
Ġphospholip id
Ġcom mit
op ter
Ġbiofil m
Ġfollic les
co ated
Ġastro cytes
Ġepis ode
pr ising
S p
ĠN A
Ġex clusion
Ġpersist ence
Ġimmunosup pressive
Ġglyc ogen
Ġres erv
yptoph an
Ġfunction ally
Ġmod ify
Ġelectro cardi
Ġhy dr
Ġg iving
ish man
Ġemploy ing
Ã ¶
Ġch olinergic
reas ing
pos ing
ent ed
Ġn orepinephrine
ĠE r
ĠH ence
othe rapeutic
Ġp lex
Ġpap illary
Ġpsori asis
Ġre aching
her ical
Ġag ric
Ġd ensities
Ġselec t
Ġamb ient
f ed
Ġpoll ut
l ight
Ġnov o
ore r
Ġall ogeneic
ĠMic ro
Ġse a
. "
Ġmo iety
ocomp atibility
ĠK i
Ġdraw n
D ifferen
Ġmic ron
Ġbelie ve
Ġan ch
Ġec osystem
Ġcarcin ogenesis
ot ential
Ġang ina
par atus
Ġfibrin ogen
ĠE valuation
ap ine
ĠG S
Ġnan otub
Ġoxid ized
av ir
Ġstud ent
Ġhist ologically
Ġabs orb
Ġw arm
Ġpro ce
Ġmac ular
Ġextrem ity
Ġc ada
Ġanaly zing
Ġhaem at
ĠmRNA s
otroph ic
in cluding
Ġthromb oemb
Ġst ream
Ġfer mentation
Ġmetall oprotein
one ph
ĠB ut
ph one
Ġm os
opress in
ucle otide
Ġrecogn ize
obacter ia
ĠU se
ĠA ut
Ġwavel ength
Ġsub mitted
Ġpop ular
Ġpre vents
Ġkind s
elec tron
Ġh yst
Ġexer t
Ġc ues
ĠC s
Ġinoc ulated
ult y
Ġanti f
Ġcholec yst
Ġpool ed
Ġinn ate
Ġprogen itor
T T
Ġaut osomal
ĠP EG
ari um
Ġentit y
th i
end it
od ec
Ġmeth anol
ĠT G
Ġdis mut
Ġlip osomes
Ġsep tal
ver te
ab etes
hyper tensive
Ġquantit y
Ġs and
ĠCan ada
Ġres c
Ġconj unction
tr an
Ġhistor ical
Ġips ilateral
in ance
Ġgli oma
Ġconsist ency
ow er
L a
Ġin organic
Ġh ierarch
Ġemission s
prot ective
st em
Ġr ational
ĠAd ditional
ĠA Ch
ub in
ĠRet rospective
ĠG nRH
m y
ter y
Ġderm atitis
ĠH ER
rag ue
Ġper m
Ġpro ve
Ġcorrect ly
Ġd ial
Ġprophyl actic
a ved
Ġpolic ies
Ġtr unc
Ġap paratus
ine al
ili ac
uter ine
ec es
v ac
os ides
Ġmarg in
Ġm aps
sil on
ĠR R
Ġup regulated
Ġfib res
Ġl aryngeal
ĠP oly
Ġslic es
Ġs hed
Ġpow der
ectom ized
Ġobjec ts
Ġed ge
Ġcycl in
Ġsurv ived
it ch
M AP
Ġduod enal
Ġgen ital
Ġother wise
ĠF uture
P l
Ac ute
yst all
Ġinstit utions
Ġspl en
p al
m ass
Ġh all
Ġuncertain ty
l ength
Ġdop aminergic
Ġatheroscler otic
L e
Ġbec oming
as ts
ĠNe ither
Ġadj unc
ĠMAP K
ĠA C
d ig
g ulation
v ival
Ġj ejun
Ġher nia
Ġm ercury
ĠR ed
abl ing
Ġantico agul
bl ock
Ġhy al
) =
Ġhom ogen
Ġins urance
Ġt wenty
Ġar ach
ĠAD HD
Ġeth ical
ĠU SA
acryl amide
Ġcommun ic
ĠN ine
ĠM G
str uct
Ġt ac
Ġv an
Ġinc ome
als y
Ġantic ip
Ġco ating
Ġinverse ly
Ġmyel oma
s on
ĠI P
Anal ysis
ĠAug ust
Ġir rever
Ġend oscopy
Ġplac enta
Ġcoh orts
ĠT ai
Ġappro ved
f at
ĠU p
Ġdis par
Ġattrib utable
Ġac yl
Ġse asonal
De velopment
Ġvisc eral
Ġun able
ĠQ T
Ġapp ly
Ġgangl ia
Ġg ained
Ġca ffe
Ġbre eding
Ġph antom
Ġtrans mitted
ob arb
Ġconclusion s
ol ab
Ġrel atives
Ġall er
Ġtransf ection
acet ate
tigra phy
g ment
Ġp ay
Ġtryp sin
Ġcatal y
Ġmat ching
h ab
ig her
o is
b ase
Ġimmunos orbent
ran ts
Ġavoid ance
Ġrevascular ization
ĠEn ter
per ature
Ġdro ple
Ġlabor atories
Ġ1 10
Ġlip opolysaccharide
ĠHere in
Ġinform ed
Ġspermat ozoa
Ġr ated
ocy cl
Ġpart ner
ol a
Ġt akes
Ġcondition ing
ĠMul tivariate
Ġnormal ized
Ġline age
Ġlum en
dr iven
Ġab ilities
Ġc us
ob enz
ul ed
un ting
om iting
ĠPh ys
Ġhen ce
Ġcor p
Ġcommerc ially
= .
r us
eng er
z es
k er
Ġreproduc ible
Ġdis ulf
ĠV O
s qu
Ġ199 4
ĠH E
ĠDifferen t
oles ter
enstr ual
ol ated
Ġroutine ly
truct ures
Ġenrich ment
ip t
Ġunc on
Ġconstit ute
Ġb olus
re tro
b one
Ġnucle otides
Ġvisual ization
ĠE ven
it on
Ġar ise
tr ial
Ġdil ution
+ ),
Ġhydrox yl
ĠD S
Ġcere vis
Ġanti psych
ich lor
our se
verse ly
Ġtrans c
Ġmod est
Ġsampl ed
Ġdescrib ing
Ġen abled
Ġdis cl
Ġet c
Ġanalog s
ob i
ap opt
Ġatten ding
Ġcorticoster oids
Ġad ul
un it
Ġir regular
ĠPT H
Ġangi oplasty
Ġapp rec
-- >
Ġanti s
Co A
Ġdismut ase
ak ers
ĠGen eral
Ġsmo ke
ot actic
Ġa udi
Ġw t
ĠP ers
Ġalle vi
Ġimmun otherapy
Ġcerevis iae
Ġalcoh olic
Ġcad mium
I dentification
acch a
Ġexp endit
Ġe ther
Ġfin ancial
Ġn ation
ira ble
ĠK a
trans l
ur c
Ġcompl aints
Ġrepresent ation
Ġregard ed
Ġcycl ospor
aw ley
- )
Ġrun ning
Ġlim bs
Ġmedi ast
a ut
plic it
phosph or
Ġpoly s
ĠB M
Ġdys p
Ġrepro duction
Ġarg inine
Ġall o
tiv ities
Ġiod ine
Ġreflec ts
ĠM ut
Ġch a
Ġelimin ated
Ġexplor ation
Ġestablish ment
ĠN SC
Ġcor n
h uman
d ynamic
s ue
il is
raz ole
as tro
Ġp alsy
r active
ĠPost operative
aff in
Ġcasc ade
Ġcondition ed
ep s
link ing
ap pe
Ġconduct ance
omy c
Ġstimul ates
Ġmul tim
T reatment
Ġinhal ation
Ġbelong ing
Ġmit ogen
Ġstratif ied
Ġcaus al
Ġce phal
as m
uv ate
th rombin
Ġoste oarthritis
ater ials
G en
Ġup stream
Ġf ig
ode grad
p ig
eclamp sia
Ġfluctu ations
j ury
Ġconcept ual
o lymer
ch ol
Ġunex pected
re ening
ĠF inding
om od
Ġmedi ating
H V
o ir
Ġpar tition
ph asic
Ġmicros p
Ġpolymer ization
Ġbe h
Ġbreat h
Ġtra vel
ĠS PE
pres ses
ĠE A
ĠStatis tical
m ber
Ġpac ing
urren ces
Ġvalid ate
Ġt il
ĠP rospective
ys ter
Ġf ecal
Ġass isted
Ġco ated
ym metry
Ġstr iatum
Ġs hell
Ġman if
Ġconn ection
lu ent
Ġhem e
Ġpropor tions
Ġexplan ation
Ġmulti disciplinary
T B
Ġco herence
Ġdetermin ant
ram ine
Ġretro grade
co up
Ġslow ly
ĠS erv
Ġv aries
Ġcons ervation
appe ared
olum e
Ġcell ulose
Ġperf used
v astatin
ĠTh rough
ĠG R
P ET
Ġcirc uit
Ġtrigg er
em ble
Ġn ick
ĠSp rague
ĠH yp
Ġs ial
ed ical
Ġwarr anted
s ts
Ġging ival
ov ial
ove mber
Ġsub pop
ir ubin
oxid ase
ĠF rench
yl ic
Ġswit ch
Ġx yl
ĠCoch rane
Ġess entially
ĠDifferen ces
r ib
ococc i
Ġdistingu ished
Ġw aters
Ġseem ed
Ġresusc itation
ĠN R
Ġsl ope
Ġfin ite
Ġbelief s
Ġfertil ization
Ġaer os
o al
Ġammon ium
romy ces
ĠT S
00 6
CT s
Ġdoc tors
Ġl ic
Ġevid enced
Ġtransform ing
Ġlow ered
ong ue
Ġg yr
Ġscaff olds
U se
m i
Ġiso form
Ġminim ize
N o
ĠC entral
p en
th ood
Ġnewborn s
Ġcont acts
ig ma
Ġglyc ol
Ġrec all
G M
Ġsolub ility
ĠC N
Ġtr unk
im al
Ġint ubation
Ġautophag y
Ġslow er
ĠMyc obacterium
Ġconstit uents
Ġmicro vascular
Ġaw are
Ġtrigg ered
Ġt am
Ġf air
l ong
Ġsensi tization
om ial
Ġcur ric
pid emi
Ġcomp atible
ur an
Ġrem ote
ĠH C
ly sis
th reat
et ary
Ġhe red
ĠD E
Ġpen etr
Ġplasmin ogen
Ġmathematic al
ĠG e
Ġsubset s
Ġsub m
Ġintra peritoneal
Ġst arch
Ġhyp other
ĠC MV
Ġb rad
Ġdesign ated
Ġt ick
ĠN Ps
ĠW il
' .
al ed
p red
fl oxacin
Ġarr hythmias
olip oprotein
Ġthor ough
Ġ )
Ġcyt ology
ĠS ingle
ophosph amide
ĠAD P
Ġoste oc
Ġcent ury
Ġp ep
inc ter
Ġdel ine
uth or
Ġj our
um inal
Ġrem ov
Ġcouns eling
ure a
Ġo le
Ġver bal
id opsis
port ant
Ġlat ent
Ġf illing
Ġcorrespon d
Ġmanifest ation
ause a
Ġscaff old
w ing
ch olesterol
Ġperiod ic
of ol
Ġp oli
ĠD el
Ġammon ia
Ġpredic ts
ĠSevent y
adren o
Ġman age
ophyl l
G roup
Th ree
< .
Ġse eds
ĠTw elve
i ar
Ġin herent
Ġfron t
lit axel
icardi al
Ġresp iration
n utrition
Ġres orption
ĠCon sequently
Ġend ovascular
ul se
Ġsqu are
Ġerythem at
Ġdiss olved
d elta
Ġm V
Ġphysi ologic
trans plant
ĠG A
ang le
ob ser
Ġpo orer
Ġinc ons
g ic
ri ed
ĠM ac
Ġvesti bular
ĠS EM
aryn x
Ġperson nel
in ating
hyth mic
Ġglucocortic oid
S ynthesis
Ġprecip itation
ĠL D
Ġmes enteric
Ġpres crib
ĠAmeric a
Ġtrache al
Ġexper t
Ġhams ter
mit ter
Ġder mal
Ġmicro gl
Ġtriglycer ide
Ġco il
Ġb ac
id a
Ġtit anium
her in
ish ing
In fluence
Ġtherap eu
ifferenti ated
Ġvolun t
accha romyces
ĠB as
Ġsimilar ities
ĠIn formation
r acycl
ere b
Ġultim ately
Ġview s
in ositol
br uary
ĠT iO
othel ial
G lu
Ġins ect
Ġfacilit ated
Ġdefin ite
ĠF l
Ġclon ing
. .
ĠI S
Ġmethod ological
Ġcent res
Ġdist ances
p eptide
ol ve
Ġr ation
Ġcircum st
si ze
Ġtrack ing
Ġn al
Ġweak ness
Ġsaliv a
p H
Ġl id
Ġres ected
an os
Ġinduc ible
is ual
ĠFinding s
b p
Ġpar i
A t
Ġad ding
ary l
as tern
end ence
Ġes ters
N on
Ġh osts
op recip
quin one
h r
es tradiol
im eric
threat ening
Ġconjug ated
mic ro
Ġcigaret te
rele asing
Ġre p
aff inity
ose lective
ro id
Ġan ten
Ġlim itation
Ġmo ving
ĠF unctional
Ġemb olization
Ġspecial ized
Ġpl ans
Ġv omiting
Ġpla ques
stim ulating
iti g
Ġconsum ed
Ġexc ited
Ġaut opsy
Ġnat ri
up uncture
ot opic
ĠC ent
Ġsc ored
ag it
Ġemb olism
od er
res pective
Ġconf ined
Ġsequ enced
Ġrespon sive
Ġhom ozygous
Ġup regulation
ĠA UC
Ġfor ced
Ġunivers al
Ġvir t
Ġload ed
Ġm and
Ġcycl ing
Ġs acr
ĠRes pon
Ġ199 2
ort em
Ġhy gi
Ġinter rup
Ġsup erv
ter min
Ġpl ates
Ġhe ating
Ġfabric ated
ar ial
Ġflav on
Ġretard ation
G O
Ġc ot
Ġ199 3
effec tiveness
ad vant
d in
Ġf inally
id ic
Ġdesc ending
immun o
Ġoptim ize
B l
ochem ically
Ġreg urg
Ġcur ative
ĠP art
Ġect opic
Ġper mit
Ġob taining
X A
ĠR P
Ġcle ft
id ental
c it
ĠG ene
effec ts
Ġlab el
Ġconstruc ts
Ġend emic
glycer ol
ar se
Ġconn ective
ac ing
Ġaden oma
Ġd oxorubicin
Ġsw im
Ġenc odes
Ġ( +/-
ĠTai wan
ĠM M
on azole
Ġcomorbid ities
ĠD ay
ĠT ime
ĠCa uc
Ġcal ves
lec tomy
ĠH er
ir m
Ġf ulf
N M
ore tic
Ġhyper g
opath ology
ro vascular
ul as
Ġl if
Ġst ents
Ġoverl ap
Ġpred nis
etermin ation
Ġcation ic
Ġinfarc t
iel ding
Ġaug mented
l ayer
but yl
U sing
Ġpre clinical
Ġlead ers
Ġintravenous ly
Ġc ode
Ġmicroar ray
Ġhypot ension
Ġd ust
Ġprofil ing
ĠF orm
zym es
Ġtem plate
Ġdis appeared
in hibit
ĠM DA
Ġpreferen tially
Ne uro
Ġnon c
Ġen velop
Ġsup erc
Ġst ain
Ġpreferen ces
ĠN ovember
cept ual
Ġw ear
Ġsup ra
Ġrespon ding
Ġbi ologic
ĠArab idopsis
Ġcontin ues
ĠM CF
Ġaden omas
Ġb ull
ĠH SP
ĠP PAR
Ġhyper sensitivity
m etic
ĠG L
bl adder
catal yzed
Ġz ones
Ġphen olic
Ġunder l
Ġhel d
Ġrecons tit
ĠFour ier
Ġfores t
Ġam ni
Ġintegr al
Ġtr is
yg dal
ĠC ross
po lymer
ann el
atin um
ii i
Ġev olved
Ġ19 80
is is
w ell
ore al
Ġpsych iat
glob ulin
Ġinflu x
cat enin
te e
ĠS elf
ric es
ĠF as
Ġemp ty
ĠCro hn
Ġadmission s
Ġdem ands
sub stituted
Ġang les
ex p
Ġk ept
Ġspl enic
Ġcolon ization
T G
Ġl engths
Ġinterpre t
ĠImmun ohist
Ġprim ers
Ġmod ulating
Ġultr avi
appro priate
id ing
d el
F P
rex ate
Ġmicrom ol
ĠCh ronic
Ġdet ector
retro viral
Ġsummar ize
Ġultravi olet
Ġeth n
Ġinf l
a ight
cycl ic
Ġprom ise
ĠF c
Ġbur st
uc l
Ġhaem orrh
Ġsp ot
R ole
Ġhypot heses
Ġtra bec
Ġmening itis
Ġhighl ighted
ex posed
tr um
ĠP U
Ġaccept ance
ĠH em
Ġasc orb
In f
Ġpropag ation
sec re
ic l
ro le
Ġra w
Ġins ec
iz er
Ġinfer tility
in ous
v ated
Ġgu an
g rowth
om ethyl
Ġinoc ulation
Ġs emic
Character ization
ĠExper iment
Ġcons ent
Ġcereb ellum
Ġaver aged
rang ements
an king
ag inal
Ġpl anned
Ġb ring
Ġv ocal
ĠM olecular
Ġmy osin
Ġneurode generative
Ġreflec ting
Ġap nea
Ġprob able
Ġabor tion
Ġaffec tive
Ġstre p
Ġcathe ters
ce in
Ġcon v
b erg
Ġro se
Ġultras tructural
Ġprogressive ly
u x
H ep
Ġh ous
Ġco vari
Ġsp herical
Ġst one
Ġdiaph rag
Ġstruct urally
Ġphospholip ase
Ġmim ic
Ġsol ar
end er
Ġintegr in
h aps
Ġestablish ing
Ġfib ronectin
Ġp mol
Ġadhe sive
Ġch itosan
ĠB o
Ġmiss ing
Ġtriglycer ides
Ġcl amp
Ex pression
Ġestim ating
Ġpa ediatric
tr onic
Ġdes ired
ĠStre ptococcus
rop o
Ġr ings
ar ach
Ġmin ute
ph ot
Ġvisc osity
Ġc odon
Ġmul til
Ġch i
Ġcatal ase
Ġre versal
Ġdis advant
Ġmonol ayer
Ġflex ibility
Ġhered itary
Ġse pt
Ġfac ility
1 50
ab dominal
ĠIndi vidual
load ed
Ġdil atation
ure th
ĠTh ose
ĠE F
Ġl ag
R E
Ġesophag us
lam y
Ġbiological ly
Ġconduc tivity
ĠFe bruary
Ġw inter
Ġpoll en
Ġmon ocyte
Ġtw in
Ġaller gen
ag ers
Ġanest hetic
Ġplay ed
Ġemb edded
D O
Ġguid ed
Ġex plicit
j uvant
so ver
ines terase
ap id
ir th
Ġstr aight
em ale
eal and
Ġinher ited
Ġmes h
ĠMod el
th romb
Ġc ity
Ġrepe titive
Ġhemorrh agic
Ġadul thood
Ġelectro static
Ġpers isted
Ġfl aps
Ġmod if
CR P
Ġbran ches
Ġsp ite
Ġn ull
Ġpre con
D awley
ot rexate
Ġn ausea
Ġintro duce
Ġ6 00
Ġtit ers
M M
G MP
L s
ĠNSC LC
Ġreason able
%) ;
ĠSe qu
ĠS U
enic illin
Ġgener ating
Ġsed ation
Ġl ar
Ġsched ule
H B
p rom
Ġneigh b
Pre vious
r or
Ġsk ull
Ġle gal
ĠE P
od iazep
A N
Ġthym us
on y
Ġf oci
Ġrem ove
reg ation
ob lot
ĠZ ealand
Ġdr ink
erc ise
apopt otic
Ġaug mentation
m ac
pon ent
in o
Ġdisch arged
Ġdemonstr ation
it ron
Ġam put
us hing
Ġund ere
ĠST AT
Ġmit otic
ar tile
ec an
Ġnons pecific
Ġcareful ly
empor ary
ag glut
IN E
or r
itud es
ill a
Ġsilic on
Ġout l
id ol
ĠO H
Ġen amel
ĠDe pression
af il
Ġemo tion
Ġsubstit uted
Ġsol vents
S i
Ġd B
g ly
Ġparticip ating
ĠW HO
et ine
Ġfollic le
ĠL ip
Ġatt end
Ġneurom uscular
Ġb inary
Ġars enic
Ġepilep tic
Ġantigen ic
Ġmo tiv
ĠL act
Ġstri king
environ ment
ĠIn d
Ġfol ding
Ġepit opes
ot om
ĠS B
Ġke ep
ĠW T
Ġpreoperative ly
ĠSpec ific
Ġconn ec
Ġg els
Ġend otoxin
agit tal
00 7
Ġb ones
ĠIn vent
Ġar rays
ox ia
ĠP ain
ati te
t oc
Ġun ivariate
ĠP ol
Ġtrim ester
Ġbound ary
Ġven om
Ġantidepress ant
Ġl ib
Ġisot ope
Ġd in
ran olol
id o
r at
Ġs outhern
Ġinstitution al
Ġbio active
Ġlower ing
Ġattack s
ĠA ML
c is
Ġspl it
Ġf illed
ov ir
Ġfib rous
Ġal anine
Ġlymph omas
Ġgluc agon
N B
Ġb uc
Ġsp ind
MS Cs
Ġ199 1
art an
Ġf ate
Ġintermedi ates
Ġprogram mes
Ġwall s
of acial
Ġimmunore active
re port
Ġsal v
Ġdi hydro
Ġer os
Ġuter us
og l
if orn
Ġplex us
Ġag ar
s aturated
Ġcaffe ine
ĠAr g
par ts
Ġk b
Ġwind ow
Ġill umin
Ġt rem
Ġure ter
Ġanalys e
si veness
V al
Ġa eti
Ġf oss
os te
Ġglyc ine
Ġsuc cessive
yn e
Ġconstr aints
ull ary
Ġsp ent
Ġs en
orb ol
Ġdeform ity
Ġproduc tivity
ur ons
vid ually
ĠInvent ory
Ġn ail
Ġnor thern
Ġsh ap
Ġaberr ant
ĠExper imental
Ġb ases
ĠNAD PH
Ġdecom position
O x
Ġepit ope
opy ran
S m
ac ute
Ġlymph atic
Ġhand ling
I M
Ġperfor ation
par ing
Ġin tim
ĠIm portant
Ġgene tics
Ġchem ically
Ġac r
Ġis let
Ġam p
ĠHb A
Ġint ended
Ġcomputer ized
ĠPT SD
Ġm ism
Ġglycer ol
Ġdis tric
Ġsyn ovial
Ġd imethyl
Ġreserv oir
Ġphot ore
ĠB esides
Ġdiff ers
Ġcalc ification
Ġc ations
Ġdiss olution
Ġg et
Ġretin opathy
Ġbacter ium
Ġt au
Ġgal act
Ġheter ozygous
ic ans
Ġclass ic
Ch ronic
Ġpari etal
ĠD SM
Ġmum ol
Ġcircum ference
Ġhab its
Ġv ar
Ġcle an
ĠL a
Ġvir tual
Ġus er
o active
ofl urane
Ġlip ase
ĠCon versely
Ġbe gan
ĠCom mun
Ġk ary
Ġt ongue
or ient
Ġnucle ic
um a
Ġartic ular
C omp
ic idal
iv ac
Ġoxygen ation
ĠMeth ods
Ġmedi ates
Ġam ygdal
Ġsequ el
ĠEight y
Ġaqu atic
ur in
ĠPub Med
Ar g
K A
Ġpe er
Ġanest hetized
Ġrig id
Ġend oplasmic
Ġm ang
Ġthermod ynamic
O p
ĠATP ase
os um
e es
or th
Ġpul sed
h yp
ĠB C
ĠI r
ĠF GF
Ġradi us
Ġg ynec
ĠItal y
IC U
it ance
Ġ14 0
Ġs ar
ign ant
Ġy ellow
Ġdisulf ide
Ġp in
tit ude
tr ast
ill ar
Ġbi odegrad
Ġanti hypertensive
el an
Ġsym metry
kin in
Ġcrystall ine
PA P
Ġpos itivity
Ġphospholip ids
S OD
Ġexpect ations
ro tomy
Ġmen op
Ġsens ors
Ġirrever sible
ĠG ST
Ġax onal
Ġneuro endocrine
Ġow ing
Ġco ugh
Ġneoplas ia
Ġdef ective
Ġmen tion
ĠÎ ³
Ġorgan izations
Ġsph incter
Ġcompet ence
Ġdam aged
ĠRNA s
Ġsulf ur
ulos keletal
ĠD H
F R
00 8
Ġb ox
Ġpaper s
uc ifer
b ul
Ġm A
ar inic
adrenal ine
Ġsem en
Ġvas oconstr
z one
Ġexhibit ing
ox ane
Ġprom pt
Ġem ulsion
c ad
Ġdesign s
Ġmicro v
on a
Ġcircumst ances
Ġsumm er
Ġretrie val
ell ig
tif ication
Ġâ Ī¼
ĠPh ase
c ar
Ġrel ating
ad ing
Ġde generative
Ġresid ent
Ġvol atile
op tic
b red
Ġasth matic
Ġspor adic
ĠS OD
cop las
Ġn amed
pa re
ul ators
ĠIndi an
F GF
iss ue
Ġsacr ific
S ub
Ġimped ance
ĠSt ud
H b
ic ac
ur ate
Ġcoch lear
ing e
am er
Ġher ni
por tive
Ġextr ap
Ġstation ary
Ġshorten ing
Ġas ymmetry
P ost
oc yst
Ġmeet ing
ĠBe havi
Ġpat ency
ward s
ĠH igher
oph ils
lec tion
G s
O r
ĠR andom
Ġcentr ifug
Ġultras onic
Ġcop y
Ġsal ts
r ons
Ġvolunt ary
n oid
Ġevent ually
ch rom
qu ality
Ġinter acting
Ġper c
Ġenl arg
ran k
Ġvulner able
Ġfall s
Ġswit ching
ĠR em
rit in
Ġsex es
ĠC HD
Ġexcit atory
Ġarach id
Ġr ating
ns ic
at ology
Ġmicrog ram
4 00
rol imus
P a
re ed
Ġregul ators
Ġquanti ties
amin ase
Ġmod elling
ĠE BV
Ġn a
Ġtranspor ters
ar a
es sive
Ġelectroph ysiological
Ġinterview ed
Ġm ir
ĠD a
Ġtrans duc
s oluble
Ġc yl
un ic
Ġappro pri
Ġze bra
Ġcolon ies
s us
Ġsecond s
b rom
Ġbiom edical
Ġpro jection
ĠD O
od ic
p regn
troph ot
Ġnatri uretic
op yr
ine tic
in ing
Ġj unctions
Ġconjug ate
Ġmach ine
ĠA kt
Ġsub s
Ġdiff ering
ĠS CI
Ġimmun ocyt
ĠT i
Ġantif ungal
Ġcorp us
Ġpresum ably
Ġte ac
Ġchick ens
lact am
ol ateral
Ġnutr ients
oprop yl
Ġseg mental
on ym
ĠP ur
. ).
Ġthrombocyt openia
Ġpref rontal
Ġprost hetic
ĠM K
Ġregurg itation
Ġhydrochlor ide
Ġir respective
Ġcategor ized
Ġerythemat osus
Ġox al
Ġexce eded
Ġge ographic
Ġstabil ized
Ġv apor
Ġmix ing
Ġs enes
at ins
Ġbrief ly
Ġmat rices
D F
b a
Ġclus tering
Ġtermin ation
Ġconcentr ated
ten ding
Ġdri ve
om o
Ġactiv ates
Ġend point
id one
Ġfil ament
Ġmon otherapy
Ġophthal m
Ġt rees
Ġpub er
Ġatmosp heric
e ed
SA ID
c alled
Ġindi vidually
ock et
Ġgen omes
ep tion
Ġvas opressin
V P
wh ile
Ġfem ur
ĠD elta
Ġsed iments
Ġ 000
Ġremark ably
Ġdis plac
Ġanti retroviral
Ġlact ation
Ġimpair ments
Ġap olipoprotein
Ġfe eling
olec ules
if luor
/- )
W I
O ne
ĠL abor
ometh acin
ord ered
onit rile
M MP
Ġdepos its
Ġselen ium
Ġstreng then
ĠT a
ĠB MP
ĠS ymptom
en em
Ġmess enger
Ġsp ring
pl i
Ġ10 5
Ġaccompl ished
as ome
Ġcycl ophosphamide
Ġendometri osis
Ġo ocyte
Ġres tr
Ġpoison ing
it ors
Ġconsult ation
Ġman aging
Ġincorpor ating
ycl ic
ĠRe port
b all
res olved
prising ly
Ġimmobil ization
re perfusion
Ġb up
Ġpolymorph ic
Q R
in tegr
Ġeukary otic
tim ulation
Ġmac rom
ous ly
Ġat opic
ri tical
Ġl avage
Ġpapill oma
Ġfacilit ates
Ġk illed
Ġbrain stem
ig er
L F
Ġre act
y e
Ġpro xim
Ġillustr ated
Ġsugg estive
Ġcompart ments
Ġtub es
ne y
Ġrib osomal
chem ic
Ġprote olytic
Ġconnec tivity
G al
I GF
Ġst ones
Ġsi RNA
ĠItal ian
Ġapplic ability
om ed
Ġstr ip
Ġide a
Ġmob ilization
ĠF ood
Ġacc ounts
Ġpossib ilities
Ġn om
Ġph on
Ġd ynam
Ġhydroph ilic
D D
r d
ir teen
Ġdiagn ose
Ġtempor ary
me ga
Ġt ag
cl onal
Ġnorm ot
Ġmos quit
Ġthem es
ĠG lu
ro st
Ġimmuno assay
Ġdisapp ear
ram idal
Ġgr ass
a uthor
ĠCR C
Ġ /
Ġmutagen esis
ĠW ork
Ġundere stim
Ġabs orbed
at ric
Ġhazard s
Ġp he
Ġreg istry
Ġir rig
Ġco ast
Ġneg lec
Ġcros sover
Ġaut on
l iter
ĠCV D
Ġlymph aden
r ant
Ġsuff iciently
Ġconf ocal
Ġthe ories
Ġlar val
Ġexper ts
ĠT umor
ĠS outhern
Ġ( [
it amin
Ġmyel in
ĠCK D
Ġreag ents
Ġlys ine
G I
Ġthromb us
ĠT CR
Ġinhal ed
Ġrespond ers
ĠV A
ti zing
Ġoccas ion
av ig
ĠF rance
ag ia
str anded
ĠL ife
Ġeff icac
ir radi
Ch anges
Ġb in
ĠOut comes
Ġc ognition
Ġplay ers
Ġpublic ations
blast oma
at tern
Ġimmun ost
ti a
os per
Ġcl ot
wh at
Ġcaus ative
di vidual
Ġ13 0
tox ic
Ġar yl
Ġcatheter ization
Ġsummar izes
Ġconj unctiv
V EGF
ĠThe rapy
ĠL ys
Ġelectroly te
Ġepig enetic
ĠD ef
Ġscin tigraphy
ĠB a
Ã ¼
ine phrine
Ġind omethacin
pers onal
af ety
Ġph age
f r
i ate
Ġcop ies
one y
Ġt in
Ġprop ofol
ĠO F
ex t
perg illus
av al
Ġpro inflammatory
oglyc an
Ġ( âī
erv ing
ĠS K
Ġp et
Ġgra ded
Ġautoanti bodies
Ġstress es
hyth mia
Ġaccoun ting
nit ro
Ġar b
u ing
NO VA
ivac aine
Ġelong ation
Ġgradi ents
ĠC ys
on ium
ĠP rac
Ġc esarean
Ġintra uterine
Ġpul p
oph aryngeal
Ġnod al
Ġl ign
Ġald osterone
athe ter
c tion
ĠS r
ĠV i
Ġconcern ed
Ġpain ful
ĠO P
Ġcounter parts
Ġchlor o
Ġscenari os
Ġmin d
Ġsoci ety
Ġobst etric
HP LC
ĠV er
Ġpre treated
ĠPh ot
ent h
Ġmarg ins
ĠWhe reas
ter one
Ġpass age
ĠSpec ifically
Ġneut rop
Ġphot on
] ).
ative ly
Ġw ood
C yt
Ġpro c
Ġadequ ately
Ġtr yptophan
epti dase
d ec
Ġper haps
ex pression
Ġmicros omes
tive ly
Ġm enstrual
oxif en
Ġemploy ment
ĠS accharomyces
Ġcus tom
di hydro
ocal ization
Ġsex ually
Ġparen teral
an us
Ġc uff
Ġ erg
ĠPR L
Ġp iv
im aging
ĠD I
Ġa ph
omyel itis
ch ool
W T
Ġfib re
ĠSp anish
Ġis lets
ĠR ats
ĠVari ous
i osis
th ym
tr ig
ĠS HR
m u
Ġsynt he
ĠBAL B
oprot ective
Ġox yt
Ġsomat ostatin
Ġgall bladder
St udies
ro t
Ġpac litaxel
Ġint ensities
nit ros
ĠH IF
ol gi
Ġsafe ly
Ġcontinu ing
Ġm itig
ĠSPE CT
H CV
e e
Ġrec essive
ĠL S
Ġter med
Ġcool ing
Ġreag ent
n ary
Ġcada ver
it ability
Ġsurvey ed
id azole
Ġreconstruc ted
Ġhyper ther
Ġfamil iar
ĠM B
C ardi
G ly
pro cess
c ause
T OR
Ġfraction al
Ġdiamet ers
Ġrec urrences
Ġonc ology
Ġ iliac
Ġmedi ator
Ġpercent ages
Ġstrong est
Ġent ered
Ġaberr ations
ĠC AP
our acil
Ġradio activity
Ġgra y
Ġreg istration
Ġwrit ten
Ġmechan istic
A ut
Ġnan om
Ġads orbed
ĠV P
Ġdis abilities
ĠL eu
Ġor ders
ocic eptive
Ġim bal
acr ylate
Ġag o
ĠS NP
Ġnanopartic le
elic obacter
Ġthere after
jec ted
immuno assay
Ġne gl
Ġf used
Ġim per
Ġunlike ly
at ectomy
Ġtermin als
Ġpl atinum
Ġle t
Ġretrie ved
artic ular
Ġalb icans
v entricular
int ensity
Ġconfir ms
Ġpollut ants
ĠPh armac
Ġstand ing
Ġdepart ments
Ġgel atin
ofl av
ur ium
Ġaden ovirus
ack ing
Ġrece iver
az one
ro om
Ġfl oor
Ġcut off
ob acillus
Ġn oct
Ġin effective
Ġb oy
di a
Ġver ify
ĠG al
Ġstr and
Ġs ports
Ġle an
Ġrel ate
Ġkeratin ocytes
pos al
g p
Ġconflic t
ocys teine
Ġint ention
i etin
ic ochemical
Ġinterf ere
em oral
ĠL ew
ed ge
Ġfa ecal
c ale
Ġgly co
Ġfol ate
od erm
Ġcontr ary
Ġneuropsych ological
Ġv ast
ox al
Ġc itrate
Ġmeth otrexate
us tion
ĠD T
Ġmeaning ful
Ġagric ultural
ĠÎ Ķ
e ties
Ġcharacteris ed
M o
Ġk iller
ĠL og
Ġh ol
ĠE MG
Ġacc ordance
Ġcur v
Ġfr uct
f arin
Ġ( "
Ġintram uscular
â ģ
Ġbil irubin
ĠN an
Ġpre fer
ĠHS V
Ġdecom pression
e le
Ġeryth ropo
Ġmod ulates
Ġweak ly
of en
re di
pon ectin
ch ild
Ġde al
Ġimmunosup pression
as ian
Ġavoid ed
Ġsub cellular
Ġprojec tions
Ġpreced ing
ĠW nt
Ġa vian
NA c
ach lor
r ate
ĠO SA
ex isting
Ġau tism
m ill
Ġhe avi
Ġaccel er
ĠOrgan ization
Ġsalv age
ast ing
ĠF actors
ĠD P
li oma
Ġpestic ides
ĠW est
Ġfore arm
Ġlat tice
Ġgran ular
p an
is her
Ġgonad otropin
Ġguid eline
Ġacces sible
Ġbeh ind
Ġw alk
ĠB one
Ġconjug ates
Ġb us
Ġbrain s
Ġmin i
yst al
Ġsoy bean
ĠS te
ce ment
us al
Ġinnov ative
ĠS hort
L B
ĠSp ain
op he
assemb ly
M n
Ġl a
Ġlipoprotein s
con t
ĠF R
Ġcereb rovascular
trac ellular
Ġtumor igen
od end
Ġmicrosp heres
ver n
p ot
f a
iforn ia
Ġinf used
Ġendothel in
yl ene
Ġlab elled
DL INE
Ġdispl ays
Ġdys ph
Ġpac em
lipid emia
Ġmorph ologic
Ġbe g
ĠD N
ies is
ĠComp ound
v olume
Ġliver s
op re
S im
Ġquick ly
Ġar ms
Ġvit re
Ġbrom ide
Ġves icle
ĠSc ore
ati zation
Ġreg ime
oc r
Ġcal f
Ġ16 0
ĠE G
Ġperiod on
l a
Ġhemisp here
Ġradi os
orp oreal
ĠCF U
Ġseek ing
mod ulin
Ġdig estive
y rene
Ġindic ative
Ġex ha
Ġmor ning
Ġn emat
Ġsp ray
et te
Ġrepe ats
)) (
ple ments
oph ysical
Ġr ules
Ġconn ections
ĠDe velopment
ĠQu antitative
ne xin
ac o
Ġstre pt
Ġsc aling
ati al
Ġaff erent
ĠHy dro
Ġre acted
u an
ex pressing
Ġsequel ae
Ġd odec
Ġh ands
Ġbreak down
Ġmonke y
Ġinter c
ab olism
ir ds
Ġmanufact ure
ĠEffec ts
Ġreflec tion
Ġref ractive
obser ver
Ġar c
L H
Ġmi RNAs
Ġechocardi ographic
Ġaddress ing
Ġdiagnos ing
] ;
Ġdent in
ĠS N
Ġknock out
Ġsup portive
Ġv in
ĠBe fore
Ġloc omotor
Ġk cal
Ġsplic ing
ed ema
Ġar rangement
Ġep inephrine
Ġmicros omal
Ġexer ted
CM V
ens ing
Ġarter io
ess el
Ġtop ic
1 000
Ġblock ers
Ġmulti drug
Ġv ill
w ann
Ġchron ically
Ġbehavi ours
Ġassum ption
ĠEx amination
ox yp
an ese
pro liferative
ĠT ran
Ġde ad
Ġasc ites
A M
Ġclin ician
ĠCan adian
Ġnick el
hydrox yp
Ġantioxid ants
ad min
echn ology
pl ay
ĠAn d
L M
Ġorgan ized
b iotic
Ġchar t
Ġcorticoster oid
ĠEm erg
Ġpoly ethylene
hen ol
Ġb rown
Ġtr acer
cad herin
ĠIn hibition
Ġm ot
ĠM ale
l ist
Ġoverl apping
plate let
B ased
ĠP CI
Ġactive ly
Ġ198 8
e tics
ĠH I
el ess
L eu
Ġin appropriate
Ġchalleng ed
Ġtele phone
Ġsw ine
1 01
pres ent
Ġzebra fish
Ġblock er
Ġload s
Ġinstr uc
am en
Ġdil ated
Ġall ocated
rom a
Ġpartic ulate
Ġspon dyl
oid osis
dom ain
et work
ĠP d
Ġcomorb idity
Ġb ig
P EG
ĠE V
Ġdefin ing
Ġimmun ocomp
Ġpar am
+ .
il st
Ġg aps
AS T
Ġlo ok
Ġtraff ic
ĠE CM
velop mental
In s
Ġoscill ations
Ġprotein uria
ĠT BI
Ġhyst erectomy
Ġaccom mod
Ġfac ulty
Ġhere in
t otal
Ġfung us
Ġdup lex
Ġolig os
oler ance
vit amin
Ġmotif s
res tric
Ġhouse hold
N G
Ġdevi ations
Ġcal or
Ġlum inal
ĠS NPs
ep id
Ġcl onal
p rin
Ġgyr us
ĠNin ety
r ight
d rome
ĠC p
Ġacc ident
Ġk illing
ĠT C
B E
Ġman di
Ġ( +
form in
Ġw rist
Ġneoplas m
ĠT ogether
od ex
Ġbiom echanical
ĠF V
Ġelimin ate
Ġenvelop e
Ġlens es
Ġconsequ ently
lob al
A Ch
ĠMon te
Ġdeb ate
Ġt urb
obarb ital
activ ating
Ġuro log
Ġout flow
Ġbu ild
Ġdiscontin uation
b ond
re y
Ġre tain
h ouse
Ġencephal opathy
Ġcatal ysts
Ġconfirm ing
Ġsyn ap
ip ital
Ġ198 9
ĠM ark
Ġl ands
W S
ĠCons id
Ġperc enti
Ġmusc uloskeletal
Ġtable ts
Ġcytos ol
jec tive
Ġharv ested
Ġhapl otype
adi um
Ġexpendit ure
Ġmicro wave
al dehyde
m er
Ġt ons
Ġspec trophot
at ab
Ġvirt ually
av or
o ce
it tle
o il
Ġwas h
ĠN C
ĠS a
11 1
ha zard
ĠKa plan
anth ine
Ġcover ing
ĠR iver
Ġmet ric
Ġaccomp any
ĠCal ifornia
Ġtrop ical
Ġimmun ized
Ġaeros ol
E LISA
in jection
Ġg p
ĠR I
Ġto t
L PS
M y
os amine
Ġbi ore
opath ologic
ĠM F
op res
ĠO ral
ĠEle ven
or ax
Ġly sis
t DNA
Ġminor ity
Ġs aturated
arter ial
s ided
Ġser ves
Ġpsych osis
Ġinput s
Ġhum oral
Ġgovern ment
P rimary
Ġlymph ocytic
Ġureth ral
Ġto day
Ġphot ocatal
ĠT RA
Ġsummar ized
re al
Ġopin ion
Ġpolym eric
Ġinter acts
NT s
es tr
Ġfabric ation
xim ab
Ġde formation
ĠAs pergillus
Ġgra ding
Ġadduc ts
Ġf um
ab ol
Ġdifferent ly
ph ic
Ġge ometric
Ġdegrad ed
Ġcaud al
Ġpr one
Ġs agittal
en ol
ĠEx posure
Ġbenz odiazep
Ġlear ned
Ġimm ig
Ġelectro sp
l ass
Ġsil encing
yr ate
Ġis omer
id ym
il ized
x ual
ĠS ocial
Ġhemat oma
Ġrot ational
at t
Ġrear rangement
Ġfil aments
qu ine
ĠL iver
im es
Ġen abling
fluor o
Ġheter ozyg
ĠI T
Ġper p
Ġcollabor ation
Ġgly ce
Ġdiscrimin ate
Ġeng agement
D uring
Ġimmun omod
Ġmention ed
ĠY ork
Ġtyp ing
lyce mic
Ġshe ath
it ating
ater ally
Ġhygi ene
rel iminary
Ġmedic inal
ip al
ucifer ase
Ġangi ographic
P atients
ĠCh aracter
Ġf ire
Ġgra des
ĠCon clusion
ĠPlas m
ine ar
onucle ase
ĠB io
ĠR E
ĠCol lege
Ġosm otic
ro d
ic ine
Ġmil itary
Ġpolyp s
Ġengine ered
ĠH al
1 10
Ġhydro gel
h is
Ġspind le
Ġpathophysi ological
Ġsp ik
es ti
Ġt ear
opath ies
Ġnormot ensive
Ġbe ads
Ġsuc cin
ax ial
Ġasc ending
AI DS
vi x
6 00
Ġso on
appro ximately
hy si
ophil us
Ġax on
ex ual
hyd ration
Ġdele tions
Ġneuro blastoma
ĠI OP
Ġenlarg ement
ĠSecond ary
ĠM id
ul ae
Ġamino transferase
ĠM at
ĠC alc
S h
o up
ĠS n
Ġpromo ters
Ġax illary
Ġcon ve
Ġoverl oad
t op
Ġger min
alk yl
em inal
ĠI BD
Ġnor adrenaline
od i
Ġm Ab
ĠRh o
ok ers
Ġmon omer
ĠCl inic
through put
ĠAn other
Ġreli ably
Ġsp ut
Ġro utes
Ġact ually
Ġagre ed
d omen
tr act
Ġimmun oblot
Ġprop ranolol
Ġam ine
Ġb ath
Me ier
Ġplan ar
Ġmal formation
Ġdemographic s
Ġgir l
V HD
racycl ine
Ġall erg
Ġconfirm ation
P ar
Ġassist ance
Ġread mission
Ġprop ensity
F V
in ted
el lec
ut ch
Ġshif ted
Ġoste otomy
Ġsur rog
xim um
Ġf riend
Ġan ter
Ġe rec
R adi
Ġprim ing
Ġmi RNA
reat er
Ġnanotub es
s ter
oper ated
Ġsh arp
Ġre actor
Ġhel ix
Ġm ent
igh teen
b ly
Ġdys trophy
Ġper ceptual
Ġin version
Ġcon e
00 9
E m
Ġgran ule
am mon
Ġp orph
ot ed
Ġmic elles
Ġp enicillin
ĠB el
ĠCar lo
coup led
Ġbreast feeding
sur face
Ġsome what
Ġbrid ge
Ġfore nsic
A UC
Ġch ance
er ies
Ġthi ol
Ġaccess ory
Ġpul s
ĠMan agement
Ġpoly clonal
Ġfail ures
ĠME DLINE
ĠBrazil ian
Ġbuil t
S ur
p ur
ass ess
Q oL
pro f
Ġt aste
Ġposition ing
grad uate
ocardi tis
E arly
Ġing redi
he alth
it em
Ġnitr ite
ĠI CD
ĠPh ysical
eli ac
Ġseg mentation
ĠHe La
Ġsynthe tase
oxid ation
Ġexer ts
Ġclaim s
Ġal ive
ĠB W
Ġtrans plants
ĠE duc
Ġchol angi
Ġpath ologies
Ġb eds
Ġco bal
Ġdet achment
Ġinvestig ators
Ġf alc
Ġjud ged
os itis
ocys ts
Ġtub ules
v inyl
Ġmultiv ariable
im ide
ap amil
ĠC EA
o uble
ĠD own
Ġor dered
Ġantico agulation
Ġ- -
on ucl
id entif
Ġinfusion s
Ġh omes
Ġstreng ths
Ġwe ighted
Ġnegl igible
ere mia
ĠFif teen
Ġknock down
en ching
Ġme g
Ġultr a
Ġbir ths
ox one
DA C
Ġg ent
Ġperox is
X R
Ġsp ots
Ġa way
o ter
Ġanticoagul ant
Ġtoler ability
P r
Ġstimul atory
ĠSub sequently
Ġemphas ize
Ġ10 2
Ġneuro protective
Ac c
G enetic
di hydroxy
os ensory
Ġfif th
Ġfer ritin
Ġtrans it
Ġgroup ed
Ġcatal yzed
reed om
ĠC oll
ĠRec om
Ġprescrib ing
Ġnan ow
n m
Ġaccel eration
ox o
le p
ensi tization
Ġac upuncture
tis sue
Ġorigin ating
Ġmut ated
Ġhepat ocyte
ocor tical
anc omycin
S up
n d
Ġcreat ine
Ġspecial ist
diagn osed
Ġprote ases
ĠS CC
Ġmo tivation
Ġkin em
Ġelic it
Ġlid ocaine
lab el
Ġv oice
Ġsuff er
Ġulc erative
O s
Ġlys osomal
Ġprot ects
cal c
ĠF r
Ġhypother mia
Ġcurric ulum
B e
R OS
E Cs
in duc
ib er
et ra
ub er
Ġdisl ocation
ap ter
Ġsc ope
ĠSc i
Ġund et
Ġphys icochemical
ĠD atab
Bs Ag
Ġduc tal
di i
Ġang ular
ĠSur vival
Ġupd ate
Ġth ous
Ġte a
Ġint eres
ich i
Ġepiderm is
Ġrhin itis
Ġarachid onic
Ġvisual ized
Q OL
Ġdifferenti ating
Ġcom fort
ĠF actor
Ġcreat ing
Ġvulner ability
Ġm apped
Ġsw allow
Ġder ive
Com parative
Ġgrad ual
Ġf ra
ĠM ar
Ġlapa rotomy
Ġcyt ogenetic
Ġcortic osterone
Ġpl ot
Ġv ig
olester ole
ĠI F
Ġfil ters
ĠC CR
b oth
Ġcl ients
Ġsec tor
Ġprovid er
Ġter at
Ġborder line
Ġly so
Ġglut amine
] (
Ġtot ally
Ġc ub
Ġcalc it
Ġgranul ocyte
Ġcompens ation
Ġser ological
Ġmultiple x
rec tional
yp sin
ĠA SD
Ġb rought
Ġcont emporary
oneph ritis
ist os
Ġs yr
Ġdepos ited
Ġsup plements
Ġma ize
es ian
ĠC oun
oder ma
Ġpyr uvate
Ġint ellig
Ġ201 8
o lym
Ġhierarch ical
tro ke
Ġrod ent
ran dial
Ġmy ocytes
ges tive
Ġpal m
ĠPos itive
Ġcom e
Ġpublic ation
e fficacy
Ġch oline
Ġconven ient
Ġag glut
Ġab domen
Ġdissem inated
Di agn
Ġrem ed
Ġis omers
Ġn ude
now ledge
Ġov ari
Ġpre pare
V O
Ġpost p
Ġstep wise
Ġcol our
Ġo mega
Ġben ch
Ġvibr ational
Ġp it
orph ous
ly s
Ġel bow
un ted
Ġexplor atory
Des pite
Ġt ap
Ġstratif ication
as ted
âĤ Ĥ
is tically
Ġstri atal
ri o
ok inase
S EM
Ġarterio venous
He alth
umb er
ok er
ĠG enetic
Ġc ow
Im pact
oad juvant
Ġmanif ested
Ġc up
Ġair ways
omp ass
Ġmusc arinic
Ġmetall ic
omegal ovirus
Ġorb it
Ġplasm ids
ore active
osa ic
ĠI ran
Ġtranscrip tase
ul ins
Ġpal ate
ĠB T
Ġextrem ities
Ġge ographical
Ġr iver
ran dom
Ġw r
d ays
min ute
Ġf iring
ĠU r
Ġintrav ascular
ĠAc tivity
Ġh orn
Ġmicro environment
am n
ad ication
ĠV I
Ġk it
ĠPre operative
Ġantis ense
Ġech o
Ġout patients
Ġamygdal a
Ġur gent
Ġline arly
lim b
ail s
cep tive
Ġg h
w orm
Ġpresent ations
am es
ad ap
enop us
Ġrod ents
ĠKore an
ĠDiagn ostic
Ġmo ist
Ġpoly saccharide
ec e
d iff
ex per
Ġre per
Ġintervention al
Ġj aw
Ġrest ore
Ġdisc om
ess ary
Ġcon fer
Ġend points
F DG
ĠP ediatric
Ġpiv otal
cephal us
A u
Ġcomp act
Ġmat ch
Ġg em
oc us
od ys
of requency
Ġradio active
y ric
Ġelectroph oretic
f ocal
ĠM DR
ul ic
ophyl line
Ġrel ig
se ous
Ġrec ycl
anc re
raz ol
Ġfit ted
Ġ10 4
he tics
Ass ociation
Ġan ces
ub lic
ĠR S
P he
Ġinsec tic
w elling
est hetic
Ġal ters
an z
Ġ10 1
w here
centr ation
Ġubiquit in
Ġb atch
oph ys
omat osis
Ġex chang
S everal
Ġadoles cence
Ġiniti ate
Ġfraction ation
Ġhel ical
Ġtun nel
ĠSt age
Ġefficac ious
Ġcap abilities
C urrent
oscop e
(- /-)
Ġvictim s
ist ence
Ġline ages
dition ing
c ancer
Ġenc ompass
ĠN eu
tem perature
os m
Ġcer vix
Ġattit ude
Ġmicrobi ota
2 50
Ġneph rectomy
el le
nit ine
Ġdes orption
ran ged
ĠBR CA
Ġex tending
Ġcr ypt
on ine
Ġnoct urnal
ĠB rain
Ġmonol ayers
Ġhydrocarb ons
Ġh am
Ġer adication
Ġfac es
Ġcoup les
Ġindirect ly
ĠL im
F or
Ġtox ins
Ġinterfer ing
Ġsept um
ĠIn tr
Ġ198 7
Ġhyper trophic
H DL
ĠT c
Ġagg ression
Ġ ice
ol or
Ġinter cellular
Ġperiodon titis
Ġcer amic
Ġge omet
Ġcol lege
uc ose
Ġacid osis
ol ig
rel in
G L
ĠE p
Ġexperi encing
Ġap art
P B
on or
arach noid
otyp ed
ĠCR F
c ase
Ġdend r
Ġm ating
Ġpar affin
Ġdil ation
Ġp uncture
Ġunex pl
Ġepid idym
ear ly
amic in
Ġsub f
Ġs ides
th anol
ĠThe r
ic ide
Ġs onography
ĠM ass
Ġcirc ulatory
Ġsh oot
Ġra ise
ĠA sia
Ġtransl ational
Ġval ves
ul o
ĠIm aging
til is
ER K
Ġplate au
Ġradio immunoassay
Ġpos itron
Ġhemodynamic s
AS E
Ġdiagnos tics
Ġwar farin
Ġration ale
L i
Ġf elt
ymmet rical
Am eric
G G
ac ed
ĠMedic are
s pe
w w
at om
i ers
est abl
Ġcontrac eptive
Ġconfound ing
ĠM c
Ġex ec
am pl
Ġan x
ec k
ch i
z o
Al a
Ġcos metic
isp anic
ĠC y
Ġisch aemic
ĠP N
ipher al
effec t
Ġw orm
le m
Ġir rit
Ġmonth ly
Ġstrom a
Ġhyperg lycemia
Ġu ve
Ġdet rim
squ are
ĠF EV
ĠG olgi
Ġv ibration
Ġperm its
ellec tual
Ġmagn et
Ġview ed
ĠG D
ĠM us
v ular
Ġdiscom fort
ĠN ether
Ġnit ro
on ly
ĠImportant ly
Ġprost heses
Ġveloc ities
Ġhistopath ologic
Ġ10 6
on v
b rile
e per
us sis
Ġer a
ĠCurrent ly
ĠH elicobacter
r ically
par amet
Ġanal ytes
Ġbat tery
Ġcolum ns
Ġint akes
ĠY oung
Ġcorrespon ded
ĠWh ite
ĠCC K
ro ten
n ar
ĠU C
ĠReg istry
Ġcoord inated
Ġoper ational
ati vity
Ġexc ised
Ġs acc
ĠR enal
Ġattrib utes
Ġsimple x
Ġstret ch
Ġex ecutive
a verage
otr i
Ġorigin ally
Ġend s
Ġsol itary
ĠAd dition
Ġprim er
Ġglomer ul
F orm
Ġim ag
in el
Ġincre mental
admin istered
en oic
M any
il um
Ġcompos ites
Ġinc is
Ġsp an
Ġsatisf ied
Ġcre ation
h ol
ĠE ast
Ġlamin a
Ġbund le
i ans
Ġs ati
Ġven a
act ure
Ġchem otherapeutic
trol led
ten osis
Ġdri vers
Ġn avig
otrop y
chlor o
Ġent rop
Ġsole ly
Ġrec ur
Ġadi ponectin
Ġidentif ies
atin ib
Ġinst ances
PS S
Ġdown regulation
on c
Ġnanoc om
Ġoff ice
arb onate
Ġorth odontic
Ġspread ing
Ġdoc tor
Ġadip ocytes
Ġprior ity
Ġsuic idal
Ġ10 3
Ġlamb da
A V
Ġmal nutrition
ĠE B
Ġcholecyst ectomy
Ġty ph
Ġs ut
ĠNether lands
Ġend oc
Ġpost ural
Ġthick ening
Ġ198 5
Ġdes irable
Ġacc idents
ip arum
Ġoxyt ocin
C d
Ġamni otic
Ġglycoprotein s
Ġmedull ary
Ġstent ing
St udy
i omy
Ġt RNA
ĠMa jor
Ġep silon
Ġn os
Ġd ib
Ġorig ins
op timal
ne x
ĠN OS
plic ated
ie f
Hy per
ĠU ltras
rane an
N i
Ġin activated
Ġprost atectomy
ym ethyl
Ġhyd ration
Ġfr uits
L O
CA P
b est
ox ication
Ġduod en
ĠI M
Ġresc ue
ox etine
um en
ĠR B
Ġcons tric
Ġchem okine
ĠB al
ock s
lim iting
Ġdy es
Ġbal anced
Ġres erve
ĠX enopus
ĠLabor atory
Ġl ing
Ġwid er
Ġparen chym
g est
it ter
T GF
Ġne ovascular
m ode
Ġradi olab
ĠCardi ac
ĠU pon
Ġs in
Ġsup presses
Ġfree zing
Ġbul b
Ġdepolar ization
Ġn if
in ement
Ġmetalloprotein ase
Ġpost ulated
Ġvaccin ated
cy cle
entan yl
Ġmet aph
0 25
opos itive
Ġdom inated
ĠM O
ol k
Ġsh r
ĠAccording ly
Ġpossess es
spec ies
ode oxy
n ight
Ġdeg ra
Ġcatal ysis
al is
press ure
ĠT rich
Ġen erge
ver ted
Ġsub clinical
Ġcontamin ants
Ġtw ins
Ġbi phasic
Ġampl itudes
Ġmening i
Ġsilic one
T OF
qu antitative
per itone
Ġan ions
olec ule
Ġchondro cytes
trans plantation
Ġs tig
Mic ro
abs orption
ĠUn like
Ġbil ayer
ĠIGF BP
cor tical
ĠAd ult
ĠB ody
E CT
Ġbi otin
Ġvertebr ate
li quid
Ġo ils
Ġharm ful
Ġex tin
Ġoligonucle otide
Ġco valent
Ġexp iratory
Ġentire ly
Ġa ce
oc o
Ġpa id
ch annel
Ġregular ly
L ow
Ġdefin itions
ump tions
Ġs orption
Ġov ulation
in ates
Ġsim ply
Ġsemic onduc
Ġun nec
Ġequ ival
ĠF F
Ġcyclo oxygenase
Ġcytos keleton
Ġadv ice
Ġdis p
Ġlast ing
ĠR as
coh ol
Ġfalc iparum
Ġhypoth yroidism
ĠDiagn osis
Ġpat ent
Ġdisappear ance
Ġcoll oidal
Ġbreak s
Ġhe lic
Ġaltern atives
W ith
Im pro
Ġh ope
Ġdocument ation
Ġmedull a
ĠSwed en
ĠK ing
Ġs hel
y kinin
is tics
Ġwa ist
Ġno tion
Ġcry opres
Ġscal p
ĠSam ples
Ġp yro
Ġallerg ens
inter vention
ĠCom plete
oper oxidase
ot o
ult ured
cop e
Ġchem o
Ġpl ots
ploy ment
ĠAb out
ap atite
Ġgener a
Ġradi ography
ĠM orph
Ġcon gestive
Ġsupernat ant
Ġamput ation
Ġincons istent
Ġat ax
amp hetamine
Ġdel ays
ress ing
um ental
W F
ĠSm all
o quin
o ate
Ġmicrotub ule
ĠT RP
Ġex isted
tor ies
Ġelectrom y
Ġju ice
uc osal
Ġintr on
Ġpolyp eptides
op henyl
ĠOb ser
b irth
pon in
T H
ĠT er
ĠL N
Ġorient ed
Ġcoll ateral
il es
Ġintram olecular
u a
Ġdevelop s
Ġund ers
Ġan tin
ĠA bs
Ġse vent
an i
Ġorganization al
Ġpre eclampsia
etermin ed
Ġradi onucl
Ġel abor
Ġcyclospor ine
ur onic
ter ious
ful ness
ĠSpec ial
Ġwe b
ĠDatab ase
F unctional
ĠA Î²
m Tc
Ġenti ties
ĠO l
Ġcr isis
Ġisch aemia
Ġmediast inal
ĠDi abetes
Ġmedic ines
Ġsub tilis
ĠD et
obacter ial
PA GE
Ġim plies
Ġspi ke
in ting
Ġc odes
Ġdistinc tive
C ell
Ġalter ing
Ġavoid ing
Ġnecess ity
ĠD er
ĠO CT
Ġfacilit ating
ne uro
ĠM en
C hem
Ġdodec yl
Ġd educed
ĠM AL
sp ace
H odgkin
ĠInc reasing
ul ent
an ed
Ġinf requ
un ately
Ġexp ensive
Ġvol t
Ġh CG
E vidence
adreno ceptor
Ġis other
Ġar gue
ogen y
Ġscar ce
op ulation
f action
Ġasc ertain
Ġillness es
Ġpharm acy
Ġneutrop enia
or ial
Ġvul g
Ġtom ographic
Hy dro
th ird
aph th
Ġhabit at
Ġpar ac
ĠCon tin
ĠA CL
ĠI N
Ġlink s
Ġintr ad
Ġscenari o
Ġsenes cence
och lor
Ġro ad
Ġend ocarditis
ĠM agnetic
Ġex ons
Ġparticip ant
Ġoutbreak s
iton itis
meth oxy
Ġl ives
Ġsem inal
Ġgas tr
G y
ĠIntern et
Ġmeth ionine
us pid
Ġo zone
ic an
okine tic
p rec
ĠIniti al
Ġ198 6
. ),
Ġdiver gence
Ġ8 00
re t
T M
ĠP ort
Ġbab ies
Ġr ac
ti se
Ġimmunost aining
Ġth irty
Ġsusp ic
As sessment
Ġass umptions
Ġphen ol
Ġneph ro
12 3
P t
Ġparal ysis
ĠMeasure ments
Ġeff luent
ĠMR SA
Ġtam oxifen
Ġemploy ees
if ier
Ġcarbon yl
Ġger iatric
P oly
oc rit
apa roscopic
ĠOut come
irc ulation
am ol
Ġgener ic
d et
as partate
ĠIm plications
Ġpharmac ologic
Ġcomprom ised
U D
Ġbro il
or tal
Ġqu asi
Ġsynap ses
ĠM ET
ĠDi rect
un saturated
Ġquantit ation
ĠS G
Ġconduc ting
Ġreveal ing
organ ization
Ġbon y
ĠV T
Ġlapa roscopy
ĠConsid ering
Ġindex es
Ġsubstit utions
ĠA G
ĠT ox
Ġdep ended
Ġemphas ized
oprecip itation
ur k
Ġy ielding
Ġlear n
Ġdele terious
ĠFour teen
Ġs outh
ĠExper iments
l ase
Ġantipsych otic
it ate
Ġm osaic
ĠP i
Ġpotenti ation
ĠG rowth
Ġposts ynaptic
Ġtransfer rin
it a
Ġp ec
ĠSyn drome
Ġi NOS
Ġf rog
Ġb a
= -
cl amp
ĠÂµ g
H yp
ĠF S
Ġd ocking
G a
h ist
Ġsched uled
struct ured
Ġall ocation
Ġdisc ipl
Ġch apter
Ġv ancomycin
ĠL atin
Ġfu el
ed ipine
Ġenl arged
ĠK m
D etection
ĠA LS
ar rh
Ġhelp s
Ġoverex pressed
ord ant
Ġarr hythmia
Ġsurv iving
ĠAmeric ans
Ġlute in
ancre atic
ĠN iger
Ġhybrid s
c us
Ġelectr ons
ĠF M
Ġimp ly
Ġaden ylate
Ġdesign ing
Ġphosph o
pon taneous
Ġparenchym a
Ġam orphous
ĠAppro ximately
Ġinv ari
Ph armac
till ation
oce le
Ġbas ement
Ġapproxim ation
Ġendomet rium
Ġnecess arily
Ġsp aces
ly tic
' )
Î Ķ
Ġmechan ics
Ġtrans mit
Ġradi ologic
Ġtumorigen esis
Ġnec rotic
ĠHep G
Ġend urance
Ġl aryng
Ġsk ill
iz able
Ġsim ulate
ĠV isual
Ġfavour able
Ġac ceptor
Ġcur c
Pre valence
Ġtest es
Ġage ing
ot ing
Ġb im
Ġur ic
Ġleuk aemia
selec tin
N MR
Ġblind ed
Ġdisc over
Ġrob otic
Ġcontrib ut
Ġleuk emic
in der
Ġdetrim ental
Ġconfig urations
est rogen
c ing
Ġfit ting
ĠSc ience
Ġsuspic ion
Ġsp ir
ti de
Ġm unic
Ġint ellectual
ĠWe b
cl im
Ġmicro f
Ġdissem ination
ĠR BC
Ġcontrac tility
Ġantiser um
D etermination
on ad
ugh ter
op s
i us
P las
] ),
Ġresult ant
iter ranean
ong en
de ed
ĠM L
le tion
con ver
rele ase
Ġwe aning
ĠCauc asian
ĠF DG
Ġdef iciencies
Ġh ole
Ġph orbol
athyroid ism
Ġconstit utes
Ġepidemi ologic
Ġhyper ch
ĠPlasm odium
Ġhapl otypes
O ur
ĠN SAID
Ġrev ised
ra is
O B
Ġdis k
Ġsib lings
eng ue
- /-
ution al
ĠBl ack
ĠN GF
ĠPD GF
Ġsph ing
In tra
2 000
Ġca va
ĠMex ico
Ġsyn apt
Ġback bone
Ġthromboemb olism
Ġg ains
eren ol
F F
p ost
t ag
ĠM IC
Ġalumin um
Ġinter active
Ġfunction ality
Ġmandi ble
Ġpsych ometric
Ġimplement ing
ĠIn deed
ĠL I
Ġa rous
Ġte ams
ĠAc t
im idine
ĠBD NF
Ġoccasion ally
ĠA MI
Ġsub arachnoid
ip le
en yl
ch arge
Ġpresum ed
Ġimbal ance
Ġvacu um
c ore
arb on
Ġtoxic ities
othe rap
AT A
Ġeosin ophils
Ġfl ight
dop ed
Ġp ip
n ot
Ġtrans cribed
Ġch imeric
Ġspati ally
5 49
ĠA verage
Ġc row
Ġantidepress ants
Ġin equ
ĠF ib
ronch ial
Ġpel vis
avor able
cl usive
Ġ1 12
Ġencephal itis
Ġes tr
n ucle
Ġdi electric
s ystem
Ġs a
Ġsynthesi ze
read mill
E E
Ġatt ended
Ġsub sc
Ġlab our
Ġpacem aker
ev oked
ĠIV F
Ġperform ances
Ġunnec essary
ĠLevel s
ĠB L
k ary
Ġmodel ed
ĠF unction
Ġst aphyl
Ġos s
ipro floxacin
end s
Ġleuc ine
Ġpolar ity
oph y
O V
igen ous
Ġdiver tic
ĠBas eline
om ically
ĠAl tern
ĠE M
f all
Ġh app
ĠH odgkin
Ġl on
C ys
ĠR N
Ġto mat
lab elled
Ġethyl ene
D ec
Ġsal mon
Ġcons olid
an in
Ġtor sion
Ġmand atory
ĠM it
ici ous
Ġcoun ting
f oot
Ġneurotrans mitter
Ġvascul itis
Ġ10 8
Ġpa rox
in form
Ġtrunc ated
Ġfruct ose
Ġproxim ity
Ġspecial ists
Ġbe ef
Ġcorrespon ds
ĠJ NK
Ġca roten
en h
Ġdown regulated
Ġadren ergic
Ġc od
Ġl actic
ĠF in
ĠL ymph
och astic
isc us
Ġter rit
ĠWh at
Ġ13 1
Ĩ Ĵ
ĠAp plication
ĠAd v
Ġ %,
Ġdi ag
Ġpat ches
Ġwork s
Ġt iter
Ġear th
Ġselec ting
Ġremov ing
Ġres idence
Ġinf ancy
ĠQ OL
H s
Ġphys ically
Ġphag ocytosis
yn chron
Ġmicrogl ia
Ġon t
Ġcul tivation
Ġproper ly
Ġp p
Ġqu enching
m yc
pe ak
Ġheter ologous
Inc reased
yst als
ĠPro f
Ġ Ã
re a
Ġnormal ization
Ġpsych otic
Ġsc ann
ĠL ocal
Ġpapilloma virus
Ġanomal y
Ġmicros atellite
ĠN ormal
Ġin ability
ar ity
Ġsimpl ified
cr ystall
Ġ11 1
Ġtub er
ĠSix teen
ĠCom mit
ĠV III
Ġolig odend
ĠSwed ish
h ost
Ġorth op
om ide
is ite
Ġper itonitis
le g
ĠN etwork
Ġfree ze
ang l
Ġf las
ĠM N
Ġamong st
ĠKore a
Ġsem antic
igm oid
Ġaccum ulate
Ġs igma
Ġun e
Ġins ects
Ġint oxication
erc etin
ĠG lobal
ĠCom plex
Ġmac roscopic
ĠMor tality
Ġprolif erating
Ġpro of
ĠS ER
ail ure
Ġinterfac es
ĠStand ard
Ġan ore
HR H
ie ties
ep ilep
sub unit
Ġsubpop ulations
oprot erenol
ĠT issue
ig enic
ma ximal
opa edic
n c
ĠCh rom
ĠP an
cys teine
Ġat tain
Ġcop olymer
Ġwa iting
ĠI A
Ġwork place
Ġhypog lycemia
polymer ase
Ġt re
Ġtr ich
ĠEngl and
Ġher bal
Ġbound aries
oc ations
Ġdon ation
ĠA DA
Ġcap ill
jug ated
Ġfl ag
Ġintr an
Ġtraff icking
Ġman n
ab ular
Ġdisch arg
Ġpreced ed
op i
Ġrh iz
Ġshap es
Ġhem angi
P sych
s im
Ġo m
Ġpercenti le
pa ign
Ġtax a
tic als
Ig G
in ities
Ġpa rotid
Ġas partate
Ġprecise ly
Ġamin es
Ġre place
Ġres tenosis
p sin
Ġam ide
Ġ ~
it um
ĠO s
Ġreal istic
V R
id ge
CD D
ĠLew is
ĠHa em
Ġnanoc r
ĠMT T
ĠGroup s
S urgical
Ġwh ilst
Ġsub di
Ġhistopath ology
Ġsulph ate
k al
Ġveget ables
ĠT rial
thromb otic
B arr
ass ays
cor rected
Ġsub tle
Ġdetermin es
Ġure teral
ke phal
im als
stand ard
Ġc it
Ġheter od
Ġan c
it an
Ġinterfac ial
our ce
Ġhyperther mia
Ġbrach ial
o ke
Ġn arr
Ġmet formin
Ġaeti ology
a ult
Ġconsum ers
Ġethn icity
ession al
ic illin
ot emporal
Ġtrig eminal
Ġsp iral
L ys
ĠElec tro
ap illary
Ġile um
M eth
Ġb ending
Ġv on
Ġprol apse
ĠM CP
ĠPre vention
ĠL arge
Ġglyce mic
ĠP erc
Ġsput um
chol inesterase
Ġb ub
Ġhom ocysteine
ĠZn O
in i
Ġdiscrep ancy
Ġdisrup ted
ĠMS Cs
Ġimportant ly
Ġfib ro
Ġirrig ation
gu inal
Ġresponsi bility
ĠN D
Ġcontr ain
ĠIn vestig
qui re
as er
Ġobser vers
or h
Ġsc r
Ġjud g
Ġâ Ģ
Ġcardiomy ocytes
ĠA LL
is per
al bumin
Ġstop ped
Ġtherapeu tics
ic ul
Ġfluores cein
ti les
ĠI CP
Ġhydrox ylase
Ġco operative
Ġmod ulus
str and
Ġmang anese
Ġtrabec ular
F E
de g
pyr idine
Ġm ult
j i
ig uous
inc ome
Ġexerc ises
o ichi
R h
od emographic
Gl c
Ġexce eding
cent er
Ġexpon ential
Ġaggreg ate
Ġcircum f
Ġover t
Ġod or
Ġv ent
ation ally
Ġpert ussis
Ġcobal t
el astic
Ġ12 3
mark s
Ġwill ing
Ġpreferen tial
Ġreal ized
Ġdet ox
Differen tial
Ġconc ordance
Ġcho ices
lim ited
ĠWhe ther
Ġne oadjuvant
Ġcyt omegalovirus
ĠB ax
AB P
Ġinn ervation
orph in
Ġprog ressed
Ġv oid
ĠM ice
13 0
ent ary
Ġre ward
termin us
Ġcurv ature
Ġtime ly
Ġcyl ind
omorph ic
Ġteac hers
Ġvascul ature
Ġcurc umin
H CC
ul ph
Ġdistric t
CA D
Ġra in
Ġhaem oglobin
Ġrear rangements
Ġfram es
ĠL ik
Ġexpl oring
i ated
ĠD utch
Ġes cape
an il
ith iasis
Ġdrople ts
Ġsurrog ate
v ir
Ġbot tom
Ser um
Ġimmun ologic
Ġcomp an
vi ve
x ine
ĠA NOVA
ĠTh irteen
B u
Ġexpl ores
R isk
Ġwors ening
Ġextrac orporeal
Ġform at
ĠMeth od
ĠL DH
im eter
v ail
Ġam en
Ġmon os
Ġhaemorrh age
Ġhemat ologic
I QR
Ġsuspension s
oth orax
ĠF amily
Ġsci atic
Ġformal in
Ġbroad er
Ġver apamil
ĠD en
Ġmic rons
w a
ew ise
ĠHist ological
Ġw ire
ĠD Cs
Ġan ionic
identif ied
ĠGra de
Ġtrajec tories
Ġr ising
Ġbenz ene
Ġgen otyping
Ġiniti ating
Ġneuropath ic
Ġneutr on
Ġhams ters
K Y
Ġlab elling
ocyt oma
H em
oli osis
Ġtrigg ers
Ġcam era
Ġnal oxone
Ġtop ics
o tics
ĠPh osph
Ġh old
h and
ĠG r
Ġre ly
ĠSystem atic
in ery
Ġparad ox
m etal
Ġmiss ed
to z
u er
Ġtail ored
Ġsup ine
ast rectomy
Ġhis tidine
ĠC e
trans f
ĠMed iterranean
ro cal
Ġfe brile
Ġat tained
Ġb urs
Ġde af
ĠL ung
Ġcompens atory
Ġd anger
c oding
Ġe ut
ĠC ity
Ġfresh water
Ġ< .
Ġsacrific ed
Ġcorne a
H E
Ġt readmill
Ġmeth ane
AD P
wh ich
up l
Pro tein
Ġrepresent ations
Ġrelap sed
ĠBay esian
Ġcondens ation
ad ministration
Ġscrew s
om nia
ocarcin omas
Ġparas itic
in um
Ġvitre ous
Ġdi arrh
Ġsarc oidosis
Ġin patients
ĠS ol
con f
Ġleg is
ĠCT L
ot ent
Ġbi od
Ġdem yel
O ver
enti sts
ĠM ental
target ed
oplas m
Ġphosphatidyl inositol
Ġground water
phot on
Ġhyperch olesterole
P LA
of ibr
induc ible
Ġlink ing
Ġc amp
Ġlyso zyme
edic ated
Ġimp rin
Ġmism atch
Ġradi ofrequency
Ġcapture d
Ġswim ming
Ġaden ine
ĠPer formance
ĠA RT
om ere
Ġempty ing
Ġey el
Ġspec ified
i op
ore g
rop ine
ten e
ab d
id yl
eth anol
inf rared
Ġprojec ts
Ġassemb l
polar ization
Ġl uciferase
cler osis
oph thal
Ġsur vive
Ġtransfer ase
" )
Ġg rew
ex change
plement ation
m ale
Ġc GMP
t z
Ġf reedom
cys tic
dep th
Ġchar ges
Ġprom p
por tion
Ġtex ture
p p
f os
be havi
Ġlymph oblastic
Ġnec ro
ĠB acter
ĠD D
ĠH BsAg
g els
hed ral
Ġcomprom ise
ep tic
ater ial
Ġmicrobi ological
Ġcle aved
id ia
it oring
Ġbic arbonate
ĠF low
ĠL P
Ġachie vement
Ġr if
15 7
Ġanthrop ometric
Ġre in
gra ft
ox ib
ot ocin
Ġana emia
ĠY et
ĠSc reening
Ġinc omp
Ġcapill aries
act ants
ĠH MG
ĠPre treatment
Ġis ometric
ĠCs A
Ġextin ction
last ing
Ġt ears
Ġatmosp here
Ġphotos ynthetic
m en
Ġillustr ates
Ġhemat ological
Ġcapac ities
Ġencour aging
ith romycin
Ġfar ms
ic it
Ġnod ular
orb id
ĠC AB
ĠLog istic
Rel ationship
Ġcollabor ative
ĠF ew
ĠV AS
ĠPro v
Ġm tDNA
Ġdi ast
Ġcar c
Ġadop tion
Ġace tic
Ġs om
Ġra m
p ain
Ġco operation
he rapy
Ġped icle
w id
transl ational
Ġ ign
ati l
Ġele mental
crip tions
al g
Ġperturb ation
ugh t
no ise
ĠU l
o vi
Ġatr ium
Ġprogram med
Ġnor th
j ac
Ġcompos itions
Ġinvestig ates
oper idol
Ġc ast
ĠF L
Ġca vern
Ġs keleton
ritis h
at ural
verte bral
Ġtheore tically
ox yn
Ġprogen itors
F our
ox on
gen esis
Ġaccompany ing
Ġoff ic
Ġab st
Ġsensi tized
Ġnot ably
Ġst ores
Ġhyper b
Ġ11 5
Ġintr ap
W s
ĠED TA
Ġadd iction
os ure
Ġin guinal
Ġmorph ologically
row ing
Ġretin oic
Ġe ase
Ġventil atory
uc k
x y
Ġtib ia
Ġp ocket
opro liferative
ĠS ensitivity
Ġanis otropy
Ġglycos ylation
Ġfunctional ized
Ġsh aring
Ġopi oids
c AMP
omo tion
Ġinter play
Ġduc ts
ran d
Ġdisper sed
Ġcha per
Ġneurotox icity
Ġf entanyl
Ġc ured
ĠRespon se
arm aceu
dependent ly
Ġverte bra
Ġgent amicin
Ġnod ule
ĠE pidemi
Ġeff iciencies
A E
c ost
Ġgener ations
Ġmod ifying
ostr idium
eren ts
Ġ ic
Ġbe ams
Ġobst ac
Mul tiple
fort unately
Ġappropri ately
ĠN utrition
Ġacute ly
m erc
Ġmo ieties
Ġo ve
ace ous
am ides
ar ate
Ġper iv
Ġsusp ended
Ġdiscontin ued
Ġ= .
si bly
S elec
Ġlamb s
Ġincorpor ate
ĠCh i
Ġex ud
M g
In hibition
Ġtor que
Ġinstrument ation
ĠR us
Ġbif urc
ĠEn viron
Ġsub cl
ĠO per
Ġ10 7
Ġov aries
ĠNur sing
D is
Ġsm ear
Ġhomogene ity
Ġco agul
G B
ĠÂ ©
ĠE ch
I O
Ġclinic opathological
Ġadjunc t
ĠCommit tee
ochond rial
Ġobvious ly
Ġe lution
pli ance
ĠA CS
Ġman agers
L ip
Ġser otype
oglyc ans
hyth ms
Ġperf ect
Ġinstr umental
acter ium
Ġob li
Ġdetermin ations
Ġco herent
V ari
Ġ10 9
Ġqualitative ly
ĠR OC
Ġket amine
ĠD F
restric ted
ip ramine
valu e
Ġj ump
Ġform ulated
Ġgastro enter
ĠH sp
tr ained
Ġdis position
oc omial
Ġtr ib
Ġtight ly
Ġde gen
Ġascorb ic
A kt
Ġequ ine
Ġansw er
oid y
Ġle iomy
ĠServ ice
Ġrel ies
Ġpy ramidal
Ġcam paign
ĠIs ra
ĠC ycl
coh olic
Ġconflic ting
Ġdatas et
dial dehyde
dial ysis
Ġhel per
par ation
Ġneuro trophic
Ġvertebr ates
selec ted
k yl
re onine
Ġseed lings
Ġsens ation
Ġsubcutaneous ly
ĠG T
ĠUnder standing
Ġaut oradi
ĠP s
ion ate
Ġca ution
ĠE MB
Ġnot e
Ġduplic ation
Ġleaders hip
ĠPM N
ĠP ac
Ġtra de
fer on
ĠElec tron
ears on
iz ers
ĠL R
oal veolar
Ġmineral ization
Ġshorten ed
Ġweak er
mac roph
ose xual
Ġf ly
ic tor
Ġcarc ass
Ġcompet ing
Ġcolon oscopy
ĠP LA
m id
ĠSch ool
Ġutil ize
ishman ia
Ġmon ocyt
ĠP aren
Ġse al
opo iesis
Ġhistor ies
Ġthym ic
Ġst ool
Ġin ositol
conver ting
b B
Ġcatechol amine
Ġall oy
H is
orient ed
ĠPro t
ĠMean while
ĠAn imals
ĠD r
Ġthal amus
ĠM echan
Ġpen ile
Ġtit ration
Ġadv oc
ES I
01 5
ĠOn c
Ġrheum atic
10 5
k ines
Ġre ality
al d
Ġob lig
ĠW ater
Ġaddress es
Ġrect um
Ġdec arboxyl
Ġcontex ts
onym ous
ĠD iff
Ġop posed
Ġbl unt
t reat
Ġcompr ises
Ġgener ates
ab is
Ġsurg eries
Ġpotenti ated
Ġt ymp
Ġtrans ported
y an
Ġcoll apse
Ġ24 0
ĠP reliminary
Ġmethod ologies
vers us
Ġencaps ulated
Ġanalog ous
Ġdysp nea
a icin
Ġburn s
Ġprot otype
all ic
Ġfig ures
Ġfo am
Ġpuber ty
iazep am
T n
ĠN umer
on ical
Ġf ill
ast atic
Americ an
Ġchor oidal
Ġcentrifug ation
Ġdiab etics
Ġev apor
idne y
Ġtransduc er
Ġmeas urable
Ġoste osarcoma
epilep tic
Ġhyp o
Ġflow s
T e
am a
aph thal
ĠD FT
Ġneutral izing
Ġpup s
Ġartif acts
Ġinter personal
Ġc ath
Ġanticip ated
13 3
ĠCombin ed
Ġd edicated
ens es
oph ores
Ġfoss a
Ġmolar s
Ġphosph odies
Ġnif edipine
Ġchol est
ĠLact obacillus
g ated
ens ors
em pl
th ick
ĠAn gi
ĠPA I
qu artile
le uk
Ġlamin in
Ġind eed
ĠA SA
Ġster ile
Ġle aving
Ġpolar ized
Ġstress ors
uc ine
Ġcirc uits
re activity
Ġev olving
iat r
ophe rol
ĠM ich
ĠMT X
Ġcl o
ĠG ly
Ġsp astic
No vel
ĠP otential
Ġab rog
Ġres olve
lamm ation
M K
Ġhor se
Ġtransi ently
Ġpractition er
Ġc iprofloxacin
ĠEmerg ency
Ġpostp randial
Ġaff inities
Ġdistor tion
Ġschizophren ic
g us
Ġm as
Ġmuc us
ensi le
Ġwhere by
ĠC amp
H ow
ĠO ste
Ġrele asing
ĠD etection
Com bin
Ġst ochastic
B NP
Ġst atin
ache al
ĠAnal yses
im urium
Ġreg ulations
Ġcollec ting
Ġpor tions
Ġg ases
Ġk m
Ġsp arse
Ġ ib
Ġgo ats
Ġliquid s
Ġb act
Ġoste oblasts
Ġexcit ability
Ġprot ecting
gly coprotein
Ġtrajec tory
vi ties
Ġloop s
at rol
Ġoper ator
Ġr hythms
Ġcar ing
Ġelectrom agnetic
Ġelectro encephal
Ġatten tional
ĠEduc ation
Ġim pression
Ġassign ment
Ġdi e
d em
Ġintro ducing
y a
D elta
ron ate
ĠPro te
w es
ud ine
r ys
ur onal
Ġprote olysis
ov entricular
Ġmot one
Ġcar p
ĠG a
ĠOr th
Ġdischarg es
Ġdex tran
V D
Ġgli omas
Ġundet ectable
itu ximab
Ġpo ols
Ġbre ed
ĠI CAM
Ġdim ers
Ġsup pressing
Ġconscious ness
F C
Ġtomat o
Ġmicrotub ules
or in
Ġdepend ency
Ġhyper th
Ġdatas ets
Ġenc ode
Ġconform ations
Ġg ad
ĠK nowledge
for ward
Ġp ad
c urrent
an ia
me as
Ġproced ural
Ġmid line
Ġpost ure
peritone ally
an yl
ĠS BP
Ġcal modulin
Ġpharmac odynamic
Ġatax ia
eren tial
18 0
ĠNAD H
ter a
Ġexcl ude
â Ħ
Ġproblem atic
R et
id el
heres is
A sp
et ent
et ers
Ġcruc iate
en riched
Ġrem n
L N
Ġse w
Ġdich ro
Ġday time
Ġtra ditionally
oll agen
ut in
ĠMul ti
Ġincre ment
odex trin
benz yl
Ġconstitutive ly
Ġp ineal
Ġw ard
Ġvulg aris
ver atrol
M al
ĠC he
Ġdis ordered
res tim
H LA
P os
Ġpur s
Ġund es
Ġabs orp
Ġpack ing
qu ilibrium
Ġkne es
d am
ign ed
es te
Ġmicro flu
ĠPos sible
gn ostic
Ġn ose
rec tion
ĠE ighteen
se gment
oval ent
ul ous
Ġdistinguish ing
Ġst yle
ĠP MA
Ġpoly acrylamide
Ġs av
oxid ant
Ġmod ule
rec ogn
Ġc ue
ammon ium
Ġenter ic
exp ensive
eti te
Ġillumin ation
Ġchem oradi
Ġin hab
d U
Ġpoli tical
Ġsed entary
Ġcarbohydr ates
act one
oth iaz
b ilities
for ce
rain ing
azep ine
Al l
E BP
Ġdysph agia
Ġlands cape
ist ine
Ġrecip rocal
ĠG d
Ġren der
c ens
ĠQ oL
Ġtro ponin
Ġs port
ĠCommun ity
PT H
et een
Ġnucle oside
ĠT yr
in dividual
Ġschem es
Ġanten atal
W hen
ose lec
ĠG o
Ġeng aged
Ã ¯
Ġattenu ates
Ġexpand ing
Ġgli oblastoma
Ġprolong ation
Ġd yst
ĠJ oh
Ġlit ter
T ra
Ġassemb led
Ġre operation
Ġdri ed
Ġoste ogenic
ĠPA F
Ġbios ynthetic
Ġregen erative
Ġint ens
ĠT reg
Ġhydro cephalus
tr im
Ġpack ed
enic ill
j u
Ġcalcit onin
ĠE st
Ġupd ated
Ġquad rup
in iti
ĠA ch
sequ ent
Ġb ag
ĠR ating
elf are
Ġeros ion
Ġmamm ography
ongen ital
I ON
Ġspectrom eter
Ġoutl ined
ĠB ritish
Ġgranul osa
Ġinter con
Ġthromb otic
Ġag ree
le ted
Ġpestic ide
Ġeth ics
E fficacy
Ġco val
Ġtransfusion s
Ġexper tise
Ġun w
Ġarb itr
Ġalle lic
fluor ouracil
amin ophen
aus sian
Ġosteoc last
establ ished
ulin um
Ġat ropine
uli ar
ish ment
Ġglucocortic oids
i ro
U s
Ġhum idity
um ing
Ġexacerb ation
Ġrig orous
C ol
Ġduoden um
Ġarous al
v olution
i j
ĠM W
Ġsm ears
ĠP redic
M echan
Ġpro spec
ĠT arget
Ġultim ate
ĠB CG
Ġclos er
Ġuncom plicated
Ġdisturb ed
Ġr an
Ġg astrectomy
ith i
Ġpost traumatic
ĠP en
C NS
ĠStre p
Ġsomat osensory
e z
im plant
Ġunf avorable
Ġinher itance
vis ions
Ġheavi ly
Ġo val
Ġd ots
hes us
n als
Ġlat est
Ġprol ine
Ġadduc t
ĠB SA
Ġcot ton
Ġoligonucle otides
Ġde aling
o hex
ĠNot ch
Ġleg s
/ /
yt herapy
omegal y
Ġno tic
Ġpur ity
Ġst oichi
on dialdehyde
S ince
Ġ(âī ¥
t able
ĠInter view
Ġmeas les
Ġsediment ation
Ġencour age
Ġa rom
a que
ep endence
Ġb aro
zym atic
Ġscaven ging
in ducing
Ġcovari ates
Ġexpect ancy
kephal in
ĠIns ulin
Ġentrop y
Ġpossess ed
01 2
Ġst ressed
ĠM eta
14 0
r id
Ġveter inary
ĠGF R
Ġcoast al
l ock
s econd
Ġre min
Ġcommit ment
Ġdise ased
ĠL E
Ġar res
ĠM r
Ġile al
D N
Ġseg regation
ĠB reast
E MI
ib rio
Ġtil t
ep tin
Ġmanufact uring
ĠV II
Ġdistinc tion
j e
at ching
Ġh o
Ġneur ones
ĠRep e
dic ations
Ġrestor ations
Ġdiaphrag m
Ġmoist ure
onstr uction
V s
Ġbuc cal
Ġtra ine
Ġbe ats
ur ip
ines cent
) ],
Ġove restim
ĠP rior
Ġconsum er
ED s
Ġin expensive
Ġper ic
Ġunderl ie
ĠM il
cent ered
ĠGu id
Ġaug ment
Ġh oney
Ġc ame
T iO
Ġperipher y
rais al
Ġflavon oids
os ylation
Ġis oproterenol
ra ft
olip ids
s hell
Ġgraf ted
Exper imental
lo op
ĠPer iod
Ġbr ight
Ġhis ti
ĠV IP
ph ysiological
Ġmonocyt ogenes
cit abine
Ġparen chymal
Ġcare er
ĠC AT
Ġappro val
ti pation
inc ubation
Ġcol le
Ġnew er
Ġchar ts
p athy
ĠClass ification
Ġultras on
Ġsubstit ute
Ġdom inance
' t
Ġinternal ization
Ġcl ock
Ġne o
anti le
Ġprotein ase
ĠPub lic
ĠD ys
roph yl
Ġst atins
Ġconcentr ate
R O
Ġcr yp
Ġtro ut
Ġis land
AD S
Ġth inking
ĠM ain
Ġear s
Ġr DNA
Ġend o
Ġvers atile
s he
Ġvolum etric
Ġpostm ortem
ĠS ep
ĠS ec
ĠM el
Ġcharacter izing
Qu antitative
Ġdeter gent
ĠCX CR
Ġind oor
Ġspecial ty
ĠV S
Ġiod ide
Ġa ur
Ġop ac
ĠA E
Ġhem olytic
ĠPC OS
Ġcall s
op ent
re mia
tr ical
Ġ19 70
ĠF ab
Ġrh od
56 2
i qu
Ġcoval ently
Ġpenetr ating
ĠD ist
arr hythmic
Re g
lamy dia
Ġn in
Ġpsychiat ry
ust ered
en a
Ġe wes
ĠEffec t
di astolic
Ġatr i
or us
Ġtet ram
ile y
Ġsug ars
I K
f ord
r ated
Ġexcl uding
im ab
Ġintra peritoneally
ĠNP Y
Ġr acial
Ġsoci odemographic
b ach
ĠG O
opter a
ĠA ff
Ġdisplac ed
Ġmid w
fl ight
up take
Ġradi ology
anti gen
truct ured
Ġneurop eptide
Ġb are
Ġph thal
res ia
tetra hydro
Ġgas trin
ĠMedic aid
a ortic
G SH
Ġsec urity
ĠO C
Ġnation wide
Ġdi ethyl
Ġpsych otherapy
Ġparas it
hen ic
Ġmon omers
ĠCH F
ĠCons istent
Ġnanos tructures
Ġgh relin
ari atric
ap onic
Ġprote asome
LD H
Ġvi rolog
Ġpl ain
ink age
B H
Ġoste oblast
eth oxy
ĠA LT
MS O
K T
toc opherol
idi rectional
ĠIn jury
Ġr ip
im plantation
Ġorigin ated
Ġcultiv ars
ĠReg arding
Ġocc ipital
centr ations
Ġhyper activity
d ichlor
athe cal
Ġpsych o
if ers
Ġbr ush
Ġhydrocarb on
t us
Ġp ector
on atal
Ġecosystem s
ĠRandom ized
Ġchrom ium
Ġtet racycline
ati o
a rose
Ġd engue
Ġmuc in
d t
Ġo titis
Ġsymptom atology
ĠRe f
Ġhydro gels
ir ium
Ġt ensile
Ġaltern ate
Ġadministr ative
Ġmet ac
ureth ral
al t
Ġacet onitrile
S ch
al gia
F rom
Ġlute al
ĠSub sequent
H PV
Ġsub c
Ġfra il
ĠT N
Ġaddition ally
Ġra ises
s urgical
Ġca vities
ix imab
he ast
b les
Ġur g
Ġdecarboxyl ase
Ġocc ult
P redic
Ġtrigg ering
toz otocin
ob ese
Ġaden ocarcinomas
ĠMe as
Ġc rest
Ġprov ince
Ġcase in
Ġp ose
k en
resist ance
Ġanomal ous
azol am
Ġcomp ares
Ġtel omerase
Ġstret ching
Ġinter molecular
Ġste el
Ġsuperf amily
Ġtransi tional
U P
ĠO cc
Ġradi ologists
ac quired
eng then
Ġ198 4
ĠT PA
Ġvasoconstr iction
r f
Ġtrem or
Ġcal ibr
l ocal
Ġemo tions
ne e
Ġto lu
Ġbran ching
P ur
U ltras
Ġlibr aries
az e
Ġt onic
plic ity
Ġdispar ities
ĠP PI
Ġmorb id
Ġan aphyl
Ġhyper par
âĦ ¢
ram olecular
ĠCH O
Ġthym idine
Ġconjug ation
Ġ(- )-
ĠAn xiety
ĠTr ials
ĠAs p
a und
b urg
acyl glycerol
ĠPh yl
Ġoligodend ro
Ġpharmac ists
ps tein
atis m
Ġhal operidol
Ġmenop ause
Ġtable t
ĠB ar
ĠE d
Ġerythropo ietin
ole ic
Ġap t
ili ated
r is
op id
ĠP CA
Ġcont our
k es
on ing
Ġprote omic
Ġtun ing
Ġins piratory
Ġsick le
Ġdisadvant ages
h am
Ġintegr ate
Ġorgan elles
Ġnotic ed
U p
Ġcollec t
Ġde oxy
ate let
ĠAc tivation
Ġf irm
Ġdiarrh oea
t onic
Ġhomogen ates
k inson
ĠA Q
ĠC RT
V S
Ġubiquit ous
Ġrepeated ly
pir ation
Ġneigh bor
ĠE stim
ĠCom plications
ad ec
fl at
ĠI dentification
Ġfore brain
Ġl umin
orr hea
lective ly
Ġanore xia
rel ative
Ġtrans gene
Ġgermin ation
ĠV eter
verte br
ther mal
Ġchick s
ud in
Ġchem ot
Ġint olerance
Ġsc oliosis
Ġfund ing
ic itis
M on
Ġper icardial
prot ection
Ġdichro ism
ed le
Ġwave gu
Ġundergo es
Ġfac ile
ĠP rom
Ġcharacter s
ce mia
ĠAc id
Ġ13 5
Ġlate x
Ġnicot inic
Ġapproxim ate
Ġh ollow
ab ain
Ġhospital izations
factor ial
cription al
Ġfibr ils
Ġhypothe size
Ġsplic e
Ġplant ar
Ġphosphatidyl choline
Ġrecommend ation
Ġoccas ions
Ġattenu ate
Ġjus tif
Ġanti platelet
Ġc ities
il le
og rel
Ġenh ancer
Ġall ografts
Ġpo uch
olin ium
t um
ĠRep ublic
iment in
Man agement
c el
u ated
Ġag encies
ĠI Q
ĠP GF
Ġsustain able
Ġdig esti
arri ers
Ġalkal oids
Ġquad r
itin ib
T ran
ati zed
oglob ulins
Ġprolif er
ĠCl ostridium
Ġhepat oma
Ġth igh
Ġinstr uction
Ġd iazepam
Ġpot ato
Ġstr ic
bin ant
ĠD emographic
emb edded
Ġpres erve
Ġag gra
Ġper mitted
Ġhaem odynamic
Ġpro tr
tox icity
Ġcathe psin
Ġfound ation
Ġor d
Ġy olk
Ġund ifferentiated
Ġbran ched
Ġpres ynaptic
verex pression
Ġsal ic
Ġspir it
on ergic
ĠA PC
et axel
Ġcomb ine
t ogether
Ġd ic
Ġr ights
ĠImmunohist ochemical
Ġpre requ
od ermal
ercul ous
pe titive
Ġsent inel
ĠCAB G
Ġsynchron ous
der mal
orb idity
In tr
ord s
b u
os econd
Ġcatechol amines
ĠCp G
ec tious
C ons
Ġnas opharyngeal
ser ine
ĠR O
Ġtermin us
T F
ĠS afety
Ġrupture d
Ġnan ofib
Ġthe ophylline
G N
ĠTI MP
Ġdi vers
ĠLow er
Ġuncon trolled
Ġph il
Ġpsych opathology
Ġp od
Ġanastom otic
erv ated
ĠN B
ĠCD K
Ġcarb am
Ġc age
an ch
Ġpec uliar
ĠS ign
ox azole
18 7
MAP K
Ġdiscl osed
Ġs ymmetric
m orph
Ġintegr ating
Ġindividual ized
Ġpres criptions
Ġclon idine
ste ad
on ates
Ġneuro imaging
regn ancy
Ġprim ates
ob ia
Ġde eper
ĠD anish
Ġconver ting
Ġvag al
Ġat resia
Ġantiser a
Ġqu ercetin
ĠR AS
Ġinst ance
Ġdec id
s uch
ĠC x
Ġfor ty
Ġj aponic
Ġtrap ping
ĠPAH s
Ġcalc ulating
gra phy
ir s
Ġtechn ological
Ġf MRI
otox ins
Ġst ated
Ġbi ot
Ġrecycl ing
Ġmach inery
13 1
Ġtub ule
ĠSe vere
Ġresid ential
Ġmel ting
el vic
Ġmat urity
and er
ĠMP a
Ġem it
im etic
ĠH Cl
Ġcor onal
am id
Ġmed ically
us ter
ivers ity
t ail
p onses
este em
Ġintra hepatic
Ġadhe rent
Ġj ug
Ġ12 8
Ġsil ent
Ġ11 8
e fficient
n orm
ĠV TE
angi ogenic
01 3
Ġan te
Ġexpl ains
Ġres ections
Ġrot avirus
Ġd rought
ĠP hysi
ĠUn it
ul itis
Ġposition ed
Ġer up
Ġrh abd
Ġfe et
vid ing
ator ial
ĠL F
ĠSignificant ly
Ġele gans
Ġclar ified
Ġ11 6
ĠLe ishmania
ĠRel ative
ĠP W
Ġuniform ly
Ġdrop ped
ĠCB F
Ġpig lets
Ġdiver gent
ip ping
Ġle th
wid th
Ġunexpl ained
Ġatri oventricular
Ġhighlight ing
Ġhelp ed
Ġre pression
Ġdeple ted
se vere
rele vant
Ġexpl aining
ĠT K
Ġo u
Ġins ignificant
Ġent rap
Ġtw elve
em p
Ġh op
ĠB S
Ġdef ibr
Ġretro peritoneal
Ġhepat ectomy
en n
agglut inin
Ġbios ensor
Ġsu ited
Ġ( (
ec tors
est hesia
Ġcarbon ate
ĠH ow
Ġmim icking
ĠC as
Ġextr av
Ġcarcin ogenic
Ġpres chool
ys mal
GF P
luores cent
Ġd urations
ĠA beta
CP s
ol ia
Ġmor al
Ġangi ogenic
Ġel lip
ĠD L
gluc uron
duc t
ĠB inding
Ġmechan ically
Ġsupernat ants
E EG
Ġde hydration
Ġpneum ococcal
Ġtun n
Ġuro thel
ened i
tis one
ĠF isher
Ġstrict ly
Ġperme ation
pa ren
ĠEMB ASE
ĠA H
Ġc oc
ĠS y
Ġint en
Ġbrach ytherapy
ĠF ed
ĠR CTs
Ġsingle t
Ġdos ages
Ġo t
Ġfif ty
em ide
ĠCO N
u ates
Ġglomerul onephritis
Ġjour nals
olym ers
nit us
ĠControl led
ĠM Y
Ġadverse ly
atis faction
01 4
ry onic
in ar
Ġw ine
hen ium
or um
athe red
Ġcultiv ated
R u
enc l
Ġnos ocomial
Ġcl ustered
if ies
Ġrepres s
ĠR CC
Ġco at
yl es
ĠR u
ĠG i
: //
Ġk il
Ġst ake
Ġcompr ise
at uring
ĠH ip
Ġtransl ated
Ġhist ocompatibility
Ġmorph ometric
ĠD em
P b
um ulation
n an
Ġgang li
oth ane
f ixed
Ġcaps aicin
Ġt on
Ġimp acted
Ġdest ro
olum inescence
Ġset up
ĠCol lectively
ag o
Ġprogen y
ron t
pregn ant
Ġamyloid osis
Ã¯ ve
ĠO T
Ġvolt amm
Ġout line
ĠK Cl
01 6
S ystem
st one
id ences
ang ular
ĠOn ce
cell ulose
MI C
ia x
Ġelectrosp ray
uc in
Ġhyperpar athyroidism
Ġcontinu um
Ġpal mit
it ness
Ġd ens
Ġalcoh ols
Ġerec tile
uz z
Ġco factor
w ar
Ġprednis one
oplas ma
Ġs es
il ed
Ġsugg estions
mal ignant
Ġr umin
Ġren ew
ĠT D
Ġorthop edic
Ġthromb olysis
Ġcareg iver
Ġre form
ĠIn tegr
ĠSt ress
ĠP ulmonary
Ġul nar
R V
Ġpo res
angi otensin
ĠSup er
Ġbo ard
Ġimmun ogenicity
opid ogrel
og aster
ĠTr yp
ĠCom par
ĠE t
ĠI X
In vestig
amin idase
ĠR ab
reg ulating
Ġpolys accharides
l at
ĠA BC
Ġk Hz
rob or
isting u
Ġmut ual
ĠTR H
Ġmutagen ic
ypt amine
Ġ11 4
up ro
ĠF K
Ġexcre ted
T yr
Un der
onv uls
ran ul
Ġsp ores
Ġf en
MR T
S tructural
Ġmeth icillin
Ġmorph ogenesis
anti f
Ġco al
Ġsp acer
Ġelev ations
Ġinv est
T i
Ġcontinu ity
V AS
Ġscat tered
sc ore
an ase
Ġsurf actants
NA ME
Ġpl urip
01 1
ĠM ann
Ġe V
IT C
Ġcann abin
- /
Ġin verted
O ut
assemb led
f ast
Ġevery day
Ġchem okines
Ġol ive
ur idine
p ent
ot t
c n
Ġsolid s
Ġcytos keletal
Ġretic ul
ĠG ood
ges terone
Ġd ot
Ġintrac erebral
Ġj aund
ĠAr th
Ġsub class
Ġbiofil ms
Ġm TOR
Ġmon omeric
hel ix
duc tase
ĠSur prisingly
Ġfist ulas
deg ree
Ġwork load
ref lex
ĠH u
Ġfeeling s
ul try
Ġeng age
ro line
Ġac quire
ĠUn fortunately
RA F
R AS
Ġap ex
ĠS troke
Ġsulf ide
ĠGL UT
ĠE E
Ġresid ency
Ġaccel erate
Ġprote omics
aro tene
com ing
ar ant
Ġchlor ophyll
ĠB K
Ġiniti atives
il ing
si ella
Ġreinfor cement
Ġrecover ies
or rect
Ġalign ed
com ponent
ures is
ac ia
ĠOn t
ĠChem ical
ĠNI H
ch aracter
Ġcons tipation
Re gulation
Ġh s
d ate
Ġpro thrombin
Ġaltern ating
ĠM DS
Ġmal ondialdehyde
Ch ild
g ut
Ġfair ly
Ġoff set
oth i
s ign
Ġexce ed
Ġar ises
Ġdiscussion s
ĠKing dom
il ation
Ġprim itive
Ġswallow ing
Ġ11 3
in ite
hom ogene
Ġlas ted
Ġbact eremia
Ġmult in
ĠC ognitive
am ple
Ġbi ocompatibility
Ġins omnia
Ġstr ips
Ġsub optimal
ĠF emale
ĠL Y
Ġwor th
Ġdisplay ing
ĠProv ince
log ical
Ġabst in
Ġar gu
)] (
Ġtherap ists
Ġdes ire
Ġfund us
ĠIn stead
Ġobli que
ov es
ov sk
Ġacces sibility
k y
Ġl engthen
Ġn ested
Ġprednis olone
Ġdent ate
pi per
bl ood
Ġpar v
Ġeas ier
ĠM CA
Ġeosin ophil
Ġtric uspid
Ġsor ting
Ġmeth an
ĠC ap
ĠH M
Ġgon dii
ar co
Ġbup ivacaine
16 0
Ġ( Â±
Ġreconstit uted
Ġb out
immun ity
Ġshe ets
Ġ17 0
Ġsu itability
Ġpo ultry
Ġflux es
rop ol
Ġc rown
ĠH eter
ph armac
ar one
Ġcoord inate
Ġs atur
ĠE PS
Ġend ocytosis
Ġcon dom
Ġsym b
Ġintra epithelial
I U
Ġstrep tozotocin
Ġelectroph ysi
Ġcontrover sy
Ġchor ionic
Ġhydroxy apatite
ĠReg ister
er sion
Ġim id
ent re
N V
Ġser ving
low ering
oplas ia
ocyan ate
Ġcho ose
tox in
G u
Ġo edema
Ġpass ed
c ut
ĠPro ject
Ġnig ra
ok es
Ġcor robor
Ġloc omotion
ass emia
ob ility
Ġreper to
Ġcombin es
oc utaneous
ĠC ases
rom ic
Ġgastr itis
ap ril
Ġsup pressive
Ġp unc
b et
Ġf ing
Ġplas mon
ars al
Ġdy ing
Ġdrople t
pos sible
Ġsup ers
Ġs oph
oplas ts
Ġhabit ats
Ġphysiological ly
Ġdis si
ever ity
ĠSymptom s
le a
Ġinc on
si ent
ĠTur key
ĠPD E
ulsion s
Ġgland ular
Ġc iliary
ox an
Ġbab y
Ġprob ing
y tical
pl ates
Ġbil aterally
Ġconfound ers
Ġscann er
Ġuns uccessful
ĠC AS
R ed
ĠA Z
ĠGF P
ĠAt l
od ipine
Ġsign ature
Ġman eu
hydrox ylase
Ġal titude
Ġpneum on
Ġis op
ĠSe a
S MA
ĠHT LV
rom etry
Ġvitamin s
Ġsci entists
Ġcollec tive
Ġophthal mic
emi as
Ġme als
Ġhemat ocrit
ĠL M
l ac
H ist
Ġshe et
Ġcon g
Ġt ent
ĠF P
thym idine
Ġintellig ence
ĠCor onary
Ġheter o
S r
ad one
b on
op oside
Ġvis ually
ex c
st yrene
â Ī
R apid
Ġpredom inance
Ġdiscrep ancies
Ã ¡
ĠC op
Ġveget able
Ġextend s
ĠC CL
rom ised
Ġser otypes
Ġind ependence
ĠRe al
ĠCom mon
Ġ198 3
an at
Ġbund les
Ġins pec
Ġlob es
Ġa ra
SA R
Ġimmunoblot ting
a ec
Ġre activation
ag er
Ġle ave
Ġcut ting
Ġreg imes
Ġbi of
ĠP earson
Ġmetric s
og roup
ĠCor relation
Ġest rogens
Ġintr as
Ġ12 9
Ġkary otype
ex posure
Ġclass ify
p ump
Ġcoll ision
Ġtac rolimus
Is olation
Ġingredi ents
Ġe jac
oman dibular
R B
m RNA
Ġlact ose
opl atin
Ġpharmac ology
Ġarth roscopic
Ġs atellite
Ġcaps ules
ĠT EM
respon ders
Ġveget ation
tomy ces
p lying
ek ing
n am
c her
oz apine
Ġane upl
Ġgrain s
Ġreconstruc tions
Ġext ensor
ĠO V
% ]
Ġpre y
di phenyl
Ġco atings
b ox
entan il
ilum inescence
res id
Ġtop ography
Ġads orb
w est
Ġdi ploid
Ġab rup
Ġinform ative
he sion
lys ine
Ġstabil izing
ĠCl in
Ġcyt ometric
Ġlic hen
ĠA ir
Ġk J
troph in
Ġan hydr
Ġgluc uron
anal yses
ĠStr ateg
h i
Ġphen yle
Ġna ive
ĠG LP
Ġel se
Ġcarb oxy
Ġsup plied
ĠDise ases
Ġc ream
ĠSur face
ĠRh od
ĠF us
c ognitive
Ġcrystall ization
Ġdeliver ing
Ġmulti focal
ĠI OL
Ġreconstr uctive
Ġcrop s
Ġc ass
Ġst ably
Ġout growth
Ġdis traction
hyd raz
othe lioma
AL L
Ġins em
ip olar
hy brid
Ġinfec tive
Ġonc ogenic
Ġeas tern
Ġearli est
Ġar ranged
carb on
Ġuve itis
C an
ĠS tructural
Ġbrad ykinin
Ġmosquit o
S al
ĠCon f
ĠIn hibit
Ġsut ures
ail and
Ġd imensional
press or
ĠP ap
Ph ot
ĠAV P
Ġabsorb ance
Ġpartition ing
ĠC irc
Ġeosin ophilic
Ġnon com
Ġphotocatal ytic
Ġemph ys
Ġvasodil ation
H a
Ġcann abis
op eptidase
ur ition
is chemic
Ġr hesus
fac ial
partic les
Ġ12 6
Ġiniti o
Ġanti proliferative
Ġintro duc
us ers
uz umab
14 5
es ophag
pha rose
ges ia
Ġonc ogene
plas ma
Ġpoly cystic
Ġcirrh otic
opor ous
ĠM aternal
Ġxen ograft
ĠT g
ĠSim ultaneous
t w
Ġmet at
Ġdescrip tions
Ġexplo ited
Ġsubstit uents
Ġimp lying
Ġerythro id
uod enal
yl obacter
Ġis oflurane
Ġcl ient
ĠD ynamic
Ġiso electric
ĠR o
Ġsecre tions
ge vity
S ingle
Ġ3 50
Ġpar ap
ĠS an
th oracic
ge ons
11 6
Ġdig it
Ġhip s
ER T
ĠDis orders
ĠTh at
Ġconsum ing
Ġalg inate
are a
P SA
Ġdi urnal
Ġmes ang
Ġty ros
c an
uc cin
Ġcon ception
f used
Ġventil ated
galact osidase
Ġf eces
Ġtr acts
Ġmulti factorial
g ian
ĠSw iss
roscop ically
om ous
Ġbelong s
vac izumab
ĠH U
Ġbronch i
Ġevalu ates
Ġnan or
Ġunder graduate
S n
ĠStud ent
oster ic
ĠM Hz
Ġson ographic
Ġpan ic
Ġdendr ites
Ġwavel engths
Ġas h
Ġcontext ual
Ġwas hing
ĠV ir
ari o
Ġra ising
Ġglob ulin
Ġb cl
Ġacetyl cholinesterase
n g
ĠD HA
ĠAp o
Ġref erences
ĠN CT
Ġgen otyped
rel ations
ĠThe rapeutic
01 8
Ġmicroflu idic
Ġveter ans
Ġp K
is tering
Ġsol ve
osp asm
Ġpar ity
Ġpredis position
por ter
at able
Ġpoly unsaturated
Ġdeliver ies
Ġdiscrimin ant
Ġserot onergic
Ġpredis posing
Ġta urine
Ġm aster
Ġregard s
Ġtrache a
ĠI ll
spec trum
m ul
Ġse asons
Ġantagon ism
operative ly
C YP
ĠT um
ĠH ispanic
Ġmir ror
ĠL ittle
et ting
m olecule
Ġ198 2
recogn ized
Ġl ists
c i
amin ated
Ġimplic it
Ġmod ulators
Ġdip ole
Ġre paired
Ġch imer
ĠL inear
Ġoccl usal
Ġ11 7
ĠLe ft
Ġpro poses
Ġturn ed
M N
Ġneovascular ization
Ġmar ital
Ġdry ing
n ity
Ġbio assay
hal f
cal ation
Ġnot able
Ġinc orrect
Ġox y
ĠAd oles
Ġsen ior
pro sy
Ġenter ing
Ġl iv
Ġab l
Ġdeform ities
10 3
ĠA NP
pl ane
Ġconsolid ation
Ġdiss oci
Ġgu anine
Ġcondition al
Ġstabil ize
Ġoffer ing
Ġat tracted
Ġout d
Ġpl aus
Ġw elfare
Ġmod ulator
ine ural
Ġdoc uments
Ġauton omy
Ġe uth
hip s
ket o
ĠQ RS
Ġb ank
01 7
istr ies
u tic
AS H
B MD
Ġin otropic
Ġma ze
iter p
ĠG AB
Ġautomatic ally
Ġprim ate
F actors
p ired
Ġl en
og onal
Ġantic onvuls
al coholic
Ġra b
Ġimplant able
A bs
ili ence
Ġphyt o
Ġbro th
pit uit
ver y
Ġthe ta
id den
Ġmelan ogaster
transfer ases
Ġpi per
ĠSevent een
ocycl ic
Ġcalor imetry
obut yric
Ġdetox ification
Ġlum inescence
ardi zed
ro plasty
Ġod ont
ĠBi om
ĠCent re
paramet ric
Ġsal inity
ĠR PE
Ġemphas izes
Ġenrol l
Ġl ived
opro te
Ġacet abular
pituit ary
G ene
g ression
ex pressed
O CT
Ġhous ing
Ġpathogen icity
ĠE pstein
ten si
Ġoligos accharides
Ġsubsc ales
con trast
Ġkeep ing
ite al
Ġsearc hes
Ġdi ode
Ġide as
upro fen
Ġamp hetamine
Ġrestr aint
Ġflex or
m is
Ġrib onucle
Ġadvance ment
ĠP ress
Ġspecific ities
Ġultras tructure
Ġrepe tition
i aceae
Ġrif amp
M ac
Ġsub acute
re test
Ġaff erents
Ġulc eration
Ġswe et
re ment
tin ent
Ġorth opaedic
Ġtax onomic
Ġwork ed
ĠS kin
ĠD ig
Ġexplan ations
brid ement
ĠS us
Ġbacter icidal
ĠCA M
ĠNur ses
Ġtub ulin
Ġmy ofib
Ġinter disciplinary
Ġnavig ation
Ġintr al
Ġz yg
Ġpur p
vid in
Ġnanow ires
res trial
et e
Ġinter ne
Ġg athered
ĠA ND
Ġun res
Ġimmun oglobulins
Ġtrip let
ĠV E
ĠP AS
Ġbe et
Ġspl itting
ĠP al
Ġins ensitive
uz i
trans formed
cy tic
et ts
Ġpolyp hen
l av
Ġdes m
ĠC ML
Ġappend icitis
em ory
Ġstem s
S pec
Ġelectrocardi ogram
Ġob sc
Y AG
Ġthous and
og ue
ĠMex ican
ĠAd j
Ġimplic ation
Plas ma
oc ol
Ġle ishman
ĠNor way
c ross
leb siella
Ġhe aled
op ram
Ġref ined
ĠL ight
em ph
Ġmus ic
Ġmet am
Ġbrid ging
Ġrelig ious
Ġjug ular
ymp athetic
Ġphosphodies terase
Ġpar s
Ġtransc ranial
ĠR D
ĠL ang
Ġ13 7
us es
ĠS leep
iz z
ag as
kin je
ti an
NS C
ur acy
Ġmethyl ene
Ġlat encies
Ġsew age
he ter
Ġwork sh
tr is
Ġthal amic
Ġstr aw
ick ed
h u
ĠB I
Ġhypercholesterole mia
8 00
id ene
S elf
Ġhist ochemical
ĠF re
Ġthromboemb olic
Ġexpl ants
Ġgem citabine
Ġsl a
+ ).
Ġcap ital
Ġoper ate
ĠACh E
AP P
Ġanaest hetic
V E
ĠPac ific
Ġnorm s
D oes
ĠN G
he sive
Ġneuro genic
os ition
lor a
ĠN AF
G e
si vity
g ressive
k a
Ġinc idences
W L
Ġresemb ling
Ġsol ved
ĠTh ailand
man agement
ĠSm ad
Ġad opt
Ġhydrox ide
h olds
gu an
dehy des
os ulf
ĠFI SH
Ġcadaver ic
usion s
ĠL ab
Ġtr ust
Ġs tern
Ġovari ectomized
Ġtri ed
Ġsh aped
Ġdys regulation
per iod
iaz ol
Ġjaund ice
PK C
Ġnanos cale
Ġfl ies
ĠP HA
Ġmaxim ize
ĠPrevious ly
Ġpur ch
pr int
ys eal
os up
Ġobser ver
ĠR b
Ġor n
Ġun in
tr ated
ĠPre valence
ĠInf ection
Ġradionucl ide
Ġhyp ere
b ar
Ġminim izing
Ġc eliac
Ġvas oactive
Ġsav ings
Ġalg ae
Ġser ous
M orph
Ġy ou
Ġmy x
end icular
Ġing ested
ĠEnter obacter
br is
Ġgra vity
Ġgonad al
Ġassoci ate
Ġthromb oxane
Ġadhesion s
Ġuter o
Ġ( +)-
Ġaccept ability
il ia
Ġun equ
Ġb esides
Wh at
Ġc ing
E pidemi
Ġfriend s
Ġsup ramolecular
K O
Ġp T
ual itative
ĠN it
ĠG Ps
ER D
Ġcontr adic
ĠAd verse
Ġsearch ing
b ed
pro portion
Ġca v
t oli
Ġslic e
oc arb
Ġgalact ose
Ġintr act
ister ia
ĠAr ter
yph ilis
Ġ iv
Ġx anth
Ġlack s
Ġprob abilities
Ġfl ora
ro in
o ured
Ġsubstanti a
d ys
uber tal
g ov
Ġsol ute
Ġdynam ical
Ġp ter
Ġmo ved
Ġpeak ed
Ġbenzodiazep ine
Ġtolu ene
10 2
U A
iven ess
d im
Ġdel irium
ĠCr ypt
ĠT or
ĠOnc ology
Ġeyel id
Ġal dehyde
in jury
Ġneph ritis
ĠNiger ia
Ġrough ness
Ġadjust ments
Ġconsid ers
ploy ed
carb oxyl
Ġtin nitus
ĠLe g
ffe e
ibr ary
ular ly
ut ter
umb ens
A CT
Ġ12 1
Ġstere otactic
Ġprostagland ins
10 4
Ġet oposide
Ġenter al
amil ton
Ġmiss ense
Ġmit osis
Ġmon ophosphate
Ġconstit uted
ĠStrep tomyces
Ġimmunomod ulatory
ut roph
ĠL p
Ġcar ries
Ġextr insic
B SA
g ar
p rim
Ġtop ois
Ġmulti functional
ĠS everity
se x
Ġs ister
ĠAD C
ĠNot ably
stim ulation
Ġsilic o
M ut
Ġfacil itation
ry ing
Ġtick s
P ath
ep razole
Ġdisper sal
reg ulate
Ġv imentin
Ġas best
Ġper ce
R CC
th io
ĠF ailure
ĠTh ough
l ler
str y
Ġth io
ĠM es
Ġventil ator
Ġf ric
ell ate
Ġconstit uent
Ġadapt ations
Ġcon dyl
ĠV ac
Ġframework s
ĠE g
Ġb FGF
Ġcom ment
Ġfail s
Ġreplic ated
Ġoccup ied
M it
ĠN PC
Ġtax on
/ =
Ġadjunc tive
Ġanaly tic
Ġinfer red
ĠIs land
azep am
Ġconver gence
ĠB F
Ġr ituximab
ĠServ ices
Ġno tice
Ġopportun istic
23 1
Ġlinear ity
Ġdil uted
Ġdenti sts
ST AT
Ġconsequ ent
Ġsap hen
ĠE th
Ġsensi ti
Ġclinic opathologic
Ġleuk otri
ace a
Ġp ict
tr ate
Ġbar ley
ĠUr inary
Ġplay ing
l able
Ġpossess ing
an um
CB F
ĠG reen
tol er
Ġper icardi
Ġt al
ĠOl der
ad ine
ĠCI N
ĠEx p
itone um
ĠÏ Ģ
N L
it t
Ġdes ensitization
ĠF ree
ĠL ess
m ention
Ġhe ns
ap ular
Ġparal le
ce an
ĠN ext
ĠO ff
b ing
Ġhal othane
Ġchem otactic
ĠP opulation
ĠG VHD
ici le
Ġretic ular
Ġsyn cy
l ers
n oea
crip t
Ġtroph ic
Ġs itting
Ġar t
Ġmod ules
ear man
ĠPC B
w ich
Ġsensi tivities
Ġfil tering
. -
up s
Ġwe igh
Ġcr uzi
ens ed
Ġsoph istic
Ġphot onic
Ġvari eties
Ġfree ly
Ġencaps ulation
ak ary
til led
Ġlon gevity
Ġimm ersion
Ġre imb
am ing
Ġlutein izing
is cal
ore tical
process ing
s um
Ġerythem a
a rous
Ġmast ectomy
cin ation
Ġir is
Ġden ervation
Ġmicro RNA
he al
im ine
c arotene
Ġdoc etaxel
y ron
Ġs igmoid
Ġ zym
Ġepithel ia
oselec tivity
Ġsmall est
ĠE astern
Ġcigaret tes
Ġcoup le
at r
Ġelast ase
Ġte en
ist an
ĠP hen
Ġneighb oring
Ġabscess es
ens ation
Ġnemat ode
ĠR SV
Ġfresh ly
d iss
P ers
ut s
ĠH GF
Ġnucle ation
Ġoxid ant
mention ed
Ġgen otoxic
ok inin
ĠTr p
om iasis
ĠUn ivariate
Ġend oscop
Ġasc er
Ġsarc omas
N it
ĠN d
ĠMa ximum
anos oma
erv es
Ġvic inity
ri amycin
Ġspec iation
Ġor ange
Ġpa uc
Ġintract able
J un
Ġchamb ers
ĠPrac tice
ens able
Ġfraction ated
Ġrobust ness
id is
Ġsem in
lactam ase
Ġastro cyt
Ġquantif ying
Ġann ually
Ġoptim izing
Ġarch ae
ĠC Y
z on
B MP
Ġplac es
terol ateral
ĠL es
l oxacin
Ġgranul ocytes
ĠF DA
M HC
id ative
Ġcl opidogrel
Ġintr athecal
yn ch
ĠIndividual s
Ġac ne
Ġhydro dynamic
Ġprecon ditioning
Ġl arynx
vit ro
ak ed
v oflurane
ĠD ES
im otor
ĠS il
ĠG aussian
ro ad
Ap plication
Ġolig omers
ĠA PP
at ched
Ġneuro lep
Ġeryth romycin
orm one
Ġtwo fold
Ġath le
ĠMed line
Ġreplic ate
Ġo esophageal
Ġplan es
iss on
ĠNo vel
Ġp ix
Ġstig ma
Ġdisc s
Ġconven ience
Ġact u
Ġac clim
ĠE PR
Ġel usive
Ġr im
Ġlack ed
Ġpolymorph onuclear
Ġimpair s
Ġ198 1
thick ness
it ates
in ia
Ġfil es
Ġ12 2
Ġhar monic
ced ural
k inetic
Ġim possible
Ġparox ysmal
Ġmom ents
ir con
Ġco res
ent ation
prop yl
Ġuns aturated
Ġl ies
Ġsp he
Ġafford ed
Ġfol ic
Ġnons m
UN EL
I G
Ġc itr
Ġstress ful
Ġann ot
hy roid
ifferenti ation
ĠImpro vement
ĠK lebsiella
Ġind ole
tr acts
ĠV ascular
Ġo roph
ĠSequ ence
Ġbenz o
Ġ12 4
Ġdiss ected
partic le
i ens
Ġpanc reat
od ine
M H
Ġde uter
az o
fer ior
Ġcomb at
Ġcaud ate
Ġpromp ted
in jected
ĠD Q
da ily
ĠS l
mat urity
irradi ated
coplas ma
Ġarom atase
Ġpyr id
v iv
Ġ %),
ĠCoun ty
w k
Ġepis odic
Ġb ariatric
ll a
Ġin hib
Ġpoly cyclic
Ġhyper insulin
ĠC er
Ġdecl ines
Ġanalges ics
Ġmon oxide
Ġhydroph ob
Ġou abain
Ġs ing
Ġmesang ial
ane urys
Ġinc en
ian a
Ġtun able
lit azone
Â ²
Ġcon gr
Ġradiolab eled
air s
g mental
Ġlaw s
ĠComp uted
Ġbronch oalveolar
Ġassum e
Ġ13 3
k b
Ġarbitr ary
or g
Ġcataly zes
b as
tr yptamine
Ġlink er
c entric
Ġmid azolam
rogen esis
ĠâĢ ¢
Ġf ur
ech ni
Ġin vertebr
c irc
Ġembry ogenesis
Ġthym ocytes
Ġcaps ular
Ġcor ro
w estern
Ġamyl ase
S tr
Ġca ve
ĠL ake
h an
ocys tis
Ġsyn ovi
Ġcyt ologic
z ers
Ġred istribution
Ġpres erving
S W
Ġsound s
ĠPhys icians
ĠÃ ħ
ith ine
ĠA AA
Ġan ne
vent ful
Ġpsych ology
n aphth
Ġconsecutive ly
in eral
Ġfac ed
ĠB E
MS E
Ġcollagen ase
SP R
he astern
n ucleotide
ethyl ation
Ġg amb
cep tional
Ġa ids
Ġgerm line
phosphor ylation
group s
Ġvirul ent
prom oting
pl en
ĠI CS
up ational
Ġmy omet
alian a
Ġsuperv ision
ĠAss ociated
oter icin
Ġthyro xine
Ġ2 10
Ġms ec
Ġinc ub
Ġmicron ucle
Ġunderestim ated
ofen ac
Ġrec re
ish able
osyl transferase
Ġal bin
f irst
ĠRe v
ef ined
ec rosis
ĠD BP
Ġdec omp
Ġconjunctiv al
Ġsched ules
Ġoccl uded
otr acheal
ĠCX CL
op sin
Ġir r
oc ent
Ġth aliana
Ġwe bs
Ġcat ch
Ġt ang
Ġex empl
Ġfor sk
Ġun less
s elf
Ġpack age
ĠL ibrary
ĠP rop
ectom ies
Ph osph
Ġinf ras
ĠCG RP
Ġpo inted
ic ate
Î ´
v s
Ġkinem atics
P ulmonary
opyran osyl
Ġunc oup
Ġoxal ate
Ġmono amine
Ġsp ong
ĠL y
Ġsemiconduc tor
Ġcyt ological
Ġcle aning
Ġlegis lation
Ġstar vation
Ġshort ly
ip henyl
Ġune ventful
Ġph aryngeal
B W
Ġdiff icile
Ġpul l
od om
Ġsynchron ization
rit on
Ġhouse holds
B N
Ġinfiltr ating
Ġ ip
Ġnon un
se p
ĠV itamin
2 10
Ġdo ing
block ers
oci ations
ĠF H
( Â®
Ġac know
e ff
Ġtrans parent
ach ol
ĠB PD
s ol
atil ity
P res
as tig
Ġnorm ative
ĠCon centrations
ĠJ AK
Ġacet one
Ġbroad ly
dition ed
Ġview ing
Ġauto immunity
Ġprogram ming
lig and
Ġimmunocyt ochemistry
Ġfat her
Ġparen ting
Ġtri phosphate
Ġsurround ed
Di rect
of uran
lymph ocyte
Ġveh icles
Ġpro drug
Ġinf antile
Ġep iph
ĠE U
end othelial
Ġanaly te
Ġ11 9
ĠPe ak
Ġpredict able
Ġnecro tizing
Ġb ad
Ġn ociceptive
Ġopin ions
ech in
Ġco oper
roph osph
m p
Ġw edge
ty rosine
Ġmelan omas
Ġantipsych otics
Ġfav ored
Ġpe ers
Ġtris omy
pic illin
Ġsubpop ulation
Ġprerequ isite
Ġperturb ations
crip tive
c ulture
ĠStud ents
Ġh olds
Ġint ent
ĠF il
Ġves icular
Ġcouns elling
Ġretard ed
Ġc oded
echn ical
Ġformal dehyde
phosph olipid
d ine
Ġprog est
ĠE RP
ĠPD T
yt oin
MS C
Ġbelong ed
Ġsequ es
Ġoste omyelitis
ĠS k
Ġprot ons
Ġion izing
abil ized
opt osis
Ġphag ocytic
ĠP FS
Rec ently
ĠW iley
Ġros tral
P W
Ġch ip
Ġenanti omers
Ġphot odynamic
ac a
pro duction
Ġqu arter
10 6
ĠG AD
Ġreperto ire
Ġin bred
str ate
ĠNAF LD
ES S
or ylation
ha em
oly l
abil ization
S ome
ĠT op
Ġbe ha
Ġstandardi zation
ĠSer toli
u istic
Ġprote ome
immun oreactive
ag onal
ĠPur kinje
Ġmit ogenic
Ġinfrequ ent
Ġaim ing
ĠÎ ´
P N
Ġpy el
Ġstric ture
ĠTh romb
ĠAK I
C alc
ĠF C
pos ites
Ġpar kinson
ĠNin eteen
Ġgranul omatous
ĠH an
ĠM UC
ĠA PA
ĠRe le
Ġt idal
Ġapp etite
par ag
Ġcomprehen sion
k ling
Ġbiodegrad able
Ġamph iph
Ġsick ness
idin ium
Ġforsk olin
Ġ *
ult ures
O ste
T ime
le ft
Ġdev oid
Ġpath ogenetic
Ġfem or
Ġmultic entre
h ar
Ġcyt oker
Ġ2 20
Ġbas olateral
Ġrestric tions
Ġtraine es
Ġnanocr ystals
% /
ĠP CP
aden osine
Ġwash out
Ġobstr uc
Ġphenyl alanine
Ġe NOS
ophthal m
Ġread ers
Ġacet ylation
f unctions
Ġen ding
Ġopi ate
Ġg um
ĠN AC
Ġle prosy
Ġxen ografts
on asal
Ġactiv ators
arri er
Ġmy opia
Ġrhabd omy
D Q
Ġit erative
ĠMal ay
v able
an ide
Ġreflect ance
tt p
Ġpress or
ch icine
yr yl
Ġtransform ations
Ġcontrac eption
a el
Ġag arose
Ġantagon ized
Ġst ock
Ġem erge
m end
ĠCon tr
mod erate
ĠS AP
ĠCon t
ĠH o
be am
Ġtr ach
Ġmicroc irculation
Ġperp endicular
Ġb read
ex traction
irradi ation
Ġ %).
Ġp aternal
ĠH ong
Ġimmun oprecipitation
Ġneglec t
Ġhom ozyg
ĠPort ug
f u
ĠTh ird
AA RT
Ġco ffee
Ġinclusion s
Ġless ons
ĠH ol
ch ronic
ter ies
imid azole
Ġemphys ema
Ġp and
re te
ĠTur k
ar ine
Ġsub cortical
ensi ti
ĠPT EN
Ġversion s
istingu ishable
ĠGABA ergic
Ġens uring
al tered
Ġneph rotic
Ġover night
trans formation
R OC
Ġderm is
Ġbifurc ation
Ġro ck
pos ity
Ġde bridement
m ix
Ġ14 5
r ater
ĠAF P
Ġgr ating
nit rop
T EM
og e
Ġrap amycin
Ġhyp oplasia
ĠD U
Ġob liter
m ain
im a
unc il
Ġval vular
utr ient
os iti
OR T
ĠA x
Ġrecogn izing
ĠPh il
Ġcor on
Ġsil k
rom agnetic
Ġwarr ant
Ġass urance
ne oplastic
Ġrepeat ability
ĠC PR
S yn
pit helial
Ġstr ing
ĠK ong
Ġnarrow ing
en zymes
Ġco vers
tic es
ĠDi etary
Ġcollec tions
ĠB CR
sh ock
Ġins oluble
Ġexacerb ations
ol ide
ear ning
Ġdop ing
Ġcompan ies
fold ed
ph i
Ġrecogn ised
ĠF NA
ĠH el
por a
ĠOnt ario
Ġher ds
Ġto uch
atis factory
Ġter restrial
Ġtop ology
Ġfulf illed
sm okers
ack s
f ect
Ġin ward
Ġsupplement al
Ġver ification
Ġinfiltr ate
ar ith
A ge
Ġencoun ter
Res ults
ĠPA R
ĠV irus
Ġinstruc tions
S CI
Ġsyn cope
Ġanti epileptic
ic ially
hold ers
ĠD PP
Ġconcurrent ly
Ġm ist
Ġde bris
p ower
um e
Ġk Pa
omyc osis
Ġov ine
Ġcrani ofacial
ĠH amilton
Ġhem ostasis
Ġbe vacizumab
Ġbenz yl
Ġchemot axis
Ġc iv
it real
Ġg a
Ġim posed
ses sive
Ġmeth adone
cr ystal
Ġste atosis
ot onic
Ġadvantage ous
Ġnarr ative
Ġmetabol ized
elec tronic
Ġnerv osa
Ġsaphen ous
Ġhomolog ue
is opropyl
un ch
v in
Ġm isc
Ġanti arrhythmic
Ġun identified
ĠH RT
ĠP red
re ement
ĠC at
Ġmy o
rom atosis
Ġw ing
Ġ12 7
Ġpict ures
Ġport able
ĠStr ong
Ġcarboxyl ic
ind ole
ĠH CT
inform atics
ĠPhyl ogenetic
al lel
Ġinfluenz ae
Ġspermat ogenesis
g reater
osp here
Me asure
ocon version
Ġz eta
Ġphotos ynthesis
et hel
Ġbis phosph
Ġec ology
am ylase
S tructure
ĠB NP
Ġglycos amin
er ally
Ġpattern ing
Ġoccup ation
en ib
Ġdi am
Ġmetalloprotein ases
Ġbroil er
Ġpe g
meth ionine
ĠA CC
ĠCom parative
macroph age
ĠD ental
Ġrelap ses
Ġgo at
ĠL L
ĠSch wann
Ġtop ological
w orld
Ġmim ics
HF R
ĠE MT
Elec tro
ĠPol and
Ġfing ers
Ġabstin ence
ĠDis order
ĠRN ase
ac ral
is tein
aw ater
Ġequip ped
Ġanis otropic
/ (
Ġcomp ressive
Ġto w
l oss
Ġimp ul
Ġinf est
Ġdiss ociated
Ġpro posal
prof essional
ĠI B
Ġsequ entially
ĠFT IR
ĠCo hort
mit ters
kines ia
op ar
ĠA PO
Ġal ert
B io
Ġtechn ically
ox ymethyl
Ġc ock
00 05
iaz ole
ethel ess
id ate
iver y
Ġtel omere
ĠS ynthesis
ĠI CA
Ġpuls atile
A CE
mi R
ic ides
ĠAc ad
ap eptide
Ġphil os
ĠMAL DI
Ġa flat
Ġglut amic
ĠSup port
Ġallevi ate
henic ol
ob ium
CR T
Ġ14 4
ĠMeasure ment
er als
Ġser opositive
Ġbond ed
ĠSA H
Ġencour aged
Ġneutral ization
Ġre aches
Ġgr ip
ut henium
oc clusion
ĠAtl antic
Ġfer ment
ox el
ĠR C
Ġacc umbens
Ġphot od
Ġremain der
con jugated
Ġhelp ing
Ġfe el
Ġalcohol ism
pl o
Ġexpl os
Ġenroll ment
ĠCompar isons
Ġgly cop
Ġtrap ped
+ +
til ization
Ġfol ds
Ġau x
ĠIm pact
Ġbre eds
Ġappro ached
ĠAl most
Ġsix th
Ġdrop s
Ġval pro
Ġden aturation
Ġaw ake
Ġdep ic
ĠBi ol
Ġcheck ed
Ġansw ered
Ġhe ifers
ĠE c
attern s
agon ist
Ġherpes virus
ĠH PA
ĠHe ad
Ġmacrom olecules
ul ence
Ġtransport ation
amp henicol
ĠCP B
Ġreflex es
Ġshed ding
Ġbor on
Ġfall ing
Ġmin ing
pred nis
Ġlif es
hem oglobin
Ġpur ine
Ġpo le
leb rand
Ġcompet ent
Ã ³
ump s
Ġk ill
v ar
01 9
ox ides
ĠUltras ound
ĠÎ¼ mol
I CC
T MS
iv ocal
Ġcross ing
Ġind istinguishable
Ġventric les
yn aec
Ġimmunocomp romised
l ay
Ġhydro lase
201 0
Ġlas ers
Ġlact ating
Ġa esthetic
ĠB H
ĠDen mark
Ġpre cl
ĠP he
ĠV alu
Ġbench mark
per me
F L
tro duction
Ġdich lor
N MDA
ropol itan
Ġwrit ing
Ġd ur
Ġasbest os
Ġcho osing
Ġurothel ial
um arin
Ġtopois omerase
Ġa ven
)- -
ĠD ex
it ney
Ã £
Ġsp here
Ġconstric tion
Ġcylind rical
Ġorigin ate
rim al
ey dig
H BV
M ost
ĠL isteria
B one
Ġdys lipidemia
Ġspon ge
Ad v
ĠAMP K
Ġed ges
Ġh oc
Ġr as
con tin
Ġcl ozapine
ĠT em
ĠB PA
10 9
Ġfac ing
Ġqu ies
Ġre organization
Ġ iat
Ġinspec tion
of emoral
Ġfer ric
Ġarr ival
ĠP ak
T wenty
Ġglob ally
com plex
ĠR apid
Ġinfer tile
Ġmultim odal
D ynamic
hen tic
Ġanaly zer
ĠB er
Ġhem olysis
avi an
Ġbo ost
Ġsyr ing
H SD
ank ton
ĠL oss
emb ered
Ġcap top
ĠMus cle
G ABA
Ġcomparative ly
inter quartile
AL Y
S L
Ġchlor oplast
sc at
ber ry
Ġcaptop ril
Ġanx i
Ġd s
Ġester ase
Ġstr atum
Ġsecre te
dep leted
ĠR ob
ur ning
ra ulic
ĠQ ue
Ġcan als
ĠS NA
Ġbot ulinum
Ġparad ig
Ġcolle ag
Ġrelap sing
Ġneighbor hood
Ġsophistic ated
Ġs orb
ĠO CD
ron idazole
Ġreconstit ution
Ġun ion
Ġcardi over
Ġdig oxin
CI S
12 6
ad ex
Ġelucid ation
ap enem
Ġdigesti bility
Ġgranul oma
Ġph one
f in
ĠA O
ĠB N
ep i
Ġres veratrol
Ġdent ure
ĠMut ations
ocy anine
Ġl umb
Ġascer tained
Ġdri ver
ĠSw it
py rene
Ġgastro esophageal
ac ers
Ġinv ent
Ġlo os
Ġinc idental
Ġeuth an
Ġperoxis ome
Ġantagon istic
Ġtend er
Ġgl en
phosph atidyl
ĠV max
Ġparamet ric
ĠL OS
Ġprojec ted
orrh iz
Ġres ilience
S LE
res is
ĠWil lebrand
ĠLong itudinal
h um
Ġsuccin ate
ĠM i
Ġn yst
A ML
diagn osis
ĠIsra el
Ġin homogene
Ġch ief
ĠCompound s
Ġgu arant
radi ation
Ġsensor imotor
Ġcan onical
01 0
ĠF ox
f atal
T BI
respon siveness
Ġjus tified
Ġter nary
p ical
Ġconf usion
Ġtoxic ological
Ġsa fer
re in
ID DM
Ġpep tic
opi oid
Ġro ds
avir in
v aginal
idel ity
ĠV F
Ġlin oleic
Ġhe roin
gen erated
ĠSystem ic
Ġas cribed
Ġcontr act
Ġsl ides
Ġd ressing
Ġ13 2
Ġinst ant
Ġneurode generation
f oc
Ġm ere
ĠH UV
Ġneur ite
Ġconf ers
olar s
is ters
Ġwork er
b it
Ġhyper al
Ġcop olymers
Ġn est
Ġcom ing
he li
Ġporph yrin
ĠGuid elines
re tic
Î¼ g
Ġent hal
ĠV ibrio
ot ecan
transl ated
Ġcarb oplatin
BM Cs
Ġred und
Ġinteres ted
Ġphenyle phrine
E t
Ġremod elling
ĠT n
Ġch ym
behavi oral
min o
Ġdis proportion
Ġorder ing
ĠT ex
ĠcDNA s
Ġadd ic
ĠLik ewise
Ġg rey
ĠS MA
Ġreason ing
ĠI K
ĠP LC
Ġseg reg
R N
Ġt ensor
Ġlip osome
Ġdial ys
ĠN M
ĠR H
ĠK ey
ĠEle vated
Ġdirec tional
? ].
ond on
ox amine
E CM
Ġam picillin
Ġjejun um
le e
ig ration
ĠSc ot
Ġblind ness
Ġsub traction
Ġconsult ations
Ġelse where
gra ms
a ft
ab out
Ġparalle led
ĠE PO
ros ome
Ġplat forms
Ġadi posity
T ype
Ġanc ient
Ġfl anking
Ġlo ose
Ġg ar
CV D
Ġwhe el
m otor
ĠC PT
d ifferentiated
Ġevalu able
t osis
Ġh uge
Ġrot ator
Ġsol ving
st ained
ĠIn ternal
CH O
amil ial
Ġpat ellar
Ġisot opic
Ġglycos ylated
ĠTryp anosoma
Ġc occ
ign ment
Ġars en
Ġpos es
Ġguid ing
ĠFin land
Ġmanip ulated
Or gan
Ġharv est
ell er
dop amine
ĠRed uction
s ignificant
oin ositi
f ly
Ġaddi tives
Ġdestro y
Ġfig ure
Ġtend s
PA C
aval in
Ġsinus es
transf ected
it ants
Ġj un
omet ers
ig inal
on at
Bl ood
Ġsh allow
ep tor
Ġtrans position
iod arone
Ġox ides
cardi ac
O ral
os ynthesis
Ġo esophag
Ġel uted
ĠAb normal
Ġphe rom
Ġg ame
ĠR EM
Ġretin ol
ĠPer ipheral
med ia
Ġg amet
omet rically
ter oidal
Ġmeg akary
Ġabrup t
ĠF E
ech o
Ġinf ra
ut y
ĠU s
Ġpr ur
ĠF N
ent in
ocyan in
Ġsup posed
Ġcyclospor in
Ġcavern ous
Ġpop l
ĠL iter
Ġbi ases
Ġfor amen
Ġassum ing
Ġprim e
ĠReg ional
ĠNSAID s
] :
Ġrect us
ĠF er
ath ic
ĠPB MC
EGF R
in is
Ġdele ted
ĠF D
ad ed
Ġc ited
Ġlam ellar
E st
ĠN Y
Ġelimin ating
Ġse awater
Ġcost ly
ĠCom paring
o encephal
Ġbo ok
is o
ĠC SA
el uting
Ġtend ons
Ġmid brain
Ġtroph oblast
icl ofenac
O G
Ġtrans pos
ĠMS C
p able
ĠQ ualitative
Ġlip ophilic
all ik
Ġmeth acrylate
Ġfinger prin
oper iod
yron ine
lec ted
ter ic
Ġelastic ity
Ġtransf ers
Ġleishman iasis
Ġpharmac otherapy
ĠTh r
f ur
Ġadequ acy
iter ia
Ġfat hers
m embrane
Ġneon ate
ĠD ose
ĠN rf
ĠCamp ylobacter
Ġcephal ospor
produc ts
Ġev ac
Ġtyph imurium
ĠR ES
Ġadv ancing
Ġacet aminophen
Ã §
os seous
Ġdi version
aps ular
Ġorth otopic
R enal
ed ullary
Ġsplen ectomy
ĠS timulation
ĠG G
ĠC ost
Ġdiast ere
ĠC OS
ĠN ic
reas es
retin al
yr ib
Ġspik ed
t emporal
Ġcar pal
et yl
D rug
ĠM CI
ym ic
ros arcoma
aphthal ene
Ġcheck point
I NF
ast hen
w all
Con trol
Ġstraight forward
Ġres emble
Ġw ards
tr aining
Ġcompens ate
S hort
Ġelectr ically
tig m
Ġth ink
Ġcomp atibility
Ġhyperth yroidism
Ġintim a
10 8
oc ument
Ġhypothe tical
Ġfluct uation
Ġmunic ipal
Ġthrough put
Ġspectrom etric
Ġfilament ous
Ġac ted
Ġn arco
Des ign
Ġse voflurane
Ġcoex istence
Ġt ab
Ġthyroid ectomy
Ġsim ulating
Ġsix ty
cepti ble
Pro t
Ġmenop ausal
ST s
Ġdim eric
Ġmes othelioma
ad ish
Ġdiaphrag matic
Ġ {
ĠReg ression
Ġsp heres
Ġind igenous
Ġapp oint
Ġcing ulate
Ġ7 00
im ilar
am ples
Ġreimb urs
Ġshr inkage
RS V
Ġbeg ins
Ġg ins
Ġcon ce
ĠConclusion s
od ia
Ġl isted
Ã£ o
Ġd or
Ġolig omer
other mal
Ġdos imetry
Ġbiodegrad ation
ol ase
Ġp aste
Ġass im
ari ans
ĠF lu
ater nary
Ġlign in
Ġinduc er
S ix
d imer
le thal
as hing
Ġchor oid
Ġex port
Ġa per
Ġharv esting
Ġb it
ox yrib
ocal cin
ap o
Ġorth ogonal
et om
on i
Ġmicro p
he um
ĠA LP
Ġthorac otomy
In t
th ma
Ġnit ros
om ated
M yc
Ġsp anning
ĠCO D
ĠD VT
Ġmes oporous
ĠD isc
ĠDa ily
pro ton
Ġmo tions
M in
Ġpl ug
os yn
ĠD G
ne edle
anth in
ĠRadi ation
on ide
Ġcat abolism
Ġbeg un
Ġneuros urgical
Ġphot ographs
ĠOR F
d ural
Ġ4 50
obenz ene
Ġelectrocardi ographic
ĠR ad
ĠT raining
Ġmut ational
Ġsubm ucosal
Ġirr itation
on ality
Ġdi v
w t
m ortem
ry th
ĠNe gative
v us
ovirus es
Ġsign atures
Ġparam agnetic
Ġo estrogen
ĠC arb
Cardi ac
Ġintercon n
en et
CO PD
thanol amine
ĠGra ves
Ġsp aring
Ġlocal ize
ĠEm b
Ġdi valent
N N
ĠR a
ak i
Ġenerge tic
Ġsh rim
tom ic
Ġfl ood
Ġsch istos
the rapy
Ġneuro genesis
arcin oma
Ġst ro
Ġtach y
ĠP TP
ap sed
Ġmulti dimensional
29 3
cor tisone
( +),
Ġd oll
l ived
prec ed
Ġmann ose
Ġb ite
enti lation
iti zed
Ġpig mented
Ġwarm ing
Ġvasodil ator
Ġplaus ible
Ġb arb
ifer a
Ġgynec ologic
Ġrel ates
on ance
Ġhead s
em ed
EM G
ĠA ST
Ġdef ence
ĠP ot
ĠB or
ĠL eydig
Ġins tillation
Ġiat rogenic
ĠO d
Ġpresent ly
ĠF ram
Ġconstr ained
Ġalkal i
Ġhazard ous
Ġpor osity
v ia
tic a
ĠE PA
Ġattend ance
ĠO N
Ġis lands
Ġmeta plasia
Ġoutl ines
rob enz
ol lic
Ġp itch
ĠM H
ocic eption
ĠC ry
Ġbio activity
on as
est ock
Ġcoord inates
end ers
Ġb ill
ĠSr c
ĠWh ole
preced ented
duc tive
id us
child ren
Ġcyan ide
hydroxyp henyl
P d
di p
ardi ac
Ġlys osomes
Ġcop e
Ġs yphilis
Ï Ģ
hal ed
cr istine
Ġneglec ted
ox ins
III a
Ġrestric tive
Ġveget ative
yl ine
ĠPo isson
Ġmess age
g as
ĠCo uncil
Ġmorph ogenetic
re ducing
Ġib uprofen
emph ig
op eptide
norm ally
Ġden itr
ĠMD D
art z
Ġgad olinium
ĠC aco
Ġre ceptive
Ġswit ched
Ġele ven
Ġd ere
ol ones
E le
Ġintegr ative
34 4
er adish
mon ths
0 24
ĠS uccessful
Ġper tinent
uod en
ĠAd en
Ġliter acy
Ġmicros tructure
Ġlymphaden ectomy
n et
ĠReg ion
Ġt ips
os ylated
in amide
ĠU DP
am i
h ans
op enic
Ġs an
ĠV L
Ġl ake
m obil
Wh itney
Ġwar ning
Ġl os
Ġhepat otoxicity
od opa
oxygen ation
be it
Ġxen ob
et ron
ĠG old
tr imethyl
Ġ-- >
ros emide
our ished
ĠUV B
h ole
Ġb ov
flu ores
Ġbrad ycardia
ĠRes istance
Ġsuper im
Ġall osteric
13 7
T LR
Ġand rogens
Ġbot t
rehen sive
Ġamph otericin
ĠMet S
Ġsial ic
Ġpro kary
b urn
Ġg ating
oun ted
Ġevapor ation
Ġm ur
ĠNumer ous
Ġpneum othorax
Ġanest hetics
Ġhydrophob icity
per m
Ġcomplex ation
ĠES R
Ġf oster
opro l
Ġim atinib
ro tal
ac oustic
utr al
Ġspik es
Ġadv ent
Ġ13 4
ĠE ff
Res earch
Ġunf olding
ĠT ri
Ġcolor imetric
Ġpro pri
Ġun altered
Ġur tic
Ġreview ers
ĠPe ople
re p
trans port
ĠVeter ans
le ason
Ġf us
rag matic
Ġchem iluminescence
T K
ĠPC a
Ġclot ting
Ġeti ological
ĠA GE
ĠContin uous
ell osis
ĠM IP
vol vement
Ġh oles
Ġin timal
f ted
Ġanastom oses
Ġcom es
Ġab er
Ġvisual ize
ti p
Ġmicrogl ial
pro st
Ġsh ut
Ġcl ade
ric eps
Ġemerg ent
Ġdis posal
T L
ĠDis ability
j ured
ep tives
r um
Ġaggreg ated
Ġre uptake
uc onazole
Ġmal t
as in
Ġeti ologic
as tically
enz a
acycl in
Ġdev ised
Ġfasc ia
ĠW ar
th ys
EA E
Ġascorb ate
Ġoss ification
8 01
Ġposition al
Ġgr id
Ġher d
gene ic
Ġtransc atheter
ti i
Ġcryopres ervation
ĠAr gent
Selec tive
Ġr umen
Ġ3 60
spe ed
one gative
Ġcolleag ues
ĠAQ P
A fter
Ġbil ayers
Ġsci ences
Ġstake holders
Ġchol era
Ġqu artile
el in
Ġman us
Ġglyco lysis
Ġconver t
Ġoverl o
Ġjour nal
ynam ically
electro de
Ġmy opathy
Ġsh ar
Ġw ake
Ġjudg ments
Ġm ec
Ġcarb achol
Ġimmunohist ochemically
mend ations
ĠCh lor
all ium
Ġmeth ylated
prot ected
ĠD MSO
X S
ar an
Ġj unctional
um ption
Ġadrenal ine
Ġpand emic
Ġtempor omandibular
Ġflu oxetine
Ġde als
Ġultr afil
Ġsuc tion
â Ī¼
rob last
Ġval ence
Ġmicrob es
Ġsuperior ity
ĠC LL
Ġreg ister
our nal
Ġ201 9
ĠA MD
rec tal
Ġinf erence
Ġpr ion
Ġmin erals
12 2
Ġstrateg ic
Ġbus iness
Ġ13 6
0 23
Ġpar an
ĠME K
Ġaut hentic
un ts
r als
re otide
ces sion
ĠV LDL
Ġopen ed
Ġbi ased
ance ment
Ġsur prisingly
ĠAc tive
ĠAl together
oprot ection
Ġe ic
ĠPl ant
ĠS CD
d esis
ĠH om
Th r
Ġcoun ted
Ġdis infection
in dex
activ ities
Ġlin ing
ann abin
ter ations
ĠHR V
ĠO c
P CI
Ġsten oses
d welling
th irds
Ġoverex pressing
Ġim aged
amet er
Ġp ra
Ġeffec tors
Ġme iotic
end ym
ice al
ĠS UV
ĠT ask
Ġprepar ing
character ized
tro pin
Ġwilling ness
Ġvertebra e
acet amol
Ġprem enopausal
Ġamph ib
Ġventric ul
Ġdescrip tors
Ġneurotrans mission
En hanced
Ġintrav entricular
Ġtr action
ĠSurve illance
Ġcr im
Ġphen obarbital
sup ported
Ġsc ars
Ġprob iotic
d il
R C
Ġmyc el
Ġconcomitant ly
fall s
ĠC atal
Ġal dehydes
st ress
Ġlab els
id omide
Ġinter ven
allik rein
Ġimmun ogenic
Ġble omycin
Ġmuc ous
Ġtac tile
Ġ13 8
ĠL ig
P i
Ġb er
s paring
Ġreplac ing
Ġphe ochrom
Ġdis aster
ĠN L
Ġnanotub e
Ġcontrac eptives
ĠRes ponses
rob lasts
electro ly
Ġhyal uron
op ec
ol ith
D o
Ġargu ed
emb ran
art erectomy
y cle
ĠM ad
ĠAc tin
reg ulates
Ġsitu ated
Ġamin oglyc
NSC LC
Ġnit rop
ĠEnviron mental
se eking
CH D
bo ok
Ġh yster
Ġmax ill
Ã Ń
xim ide
tig o
prednis olone
Ġchlor ine
Ġpoly styrene
Ġmotone urons
th aw
Ġcal oric
D ef
ĠA U
Ġrig idity
mol ality
Ġorient ations
Ġimmunocyt ochemical
d m
Ġfail ing
Ġgro ove
Ġmess ages
Ġinjec ting
e valu
Ġf eline
ĠComp uter
glut amyl
ost om
] [
Ġfl o
oxyl in
11 5
eng ine
ĠE u
tiv ated
Ġdev ast
ange al
D el
Ġeti ologies
ĠN uclear
Ġcharacteris ation
ĠAn t
An gi
x yl
Ġun m
Ġimp ulse
NK L
agg reg
Ġpsori atic
ĠMA O
Ġde hydro
Ġex it
il t
Ġaver aging
V C
Ġch ori
Ġ19 79
brom o
Ġblast ocyst
Ġherb iv
Ġalbin o
otr ypsin
ip arous
ĠA z
spec ial
ĠD o
Ġchem opre
man dibular
12 7
a ver
CO X
ĠTurk ish
Ġeduc ators
Ġneed les
B O
Ġphoto electron
ore tin
MP s
14 6
Ġneurotrans mitters
Ġr ash
f amily
Ġureth ra
ĠObser v
P U
ĠFus arium
Wh ile
ur red
Ġvis u
Ġoscill atory
oc ap
Ġintram edullary
Q L
Ġdyst onia
Ġread ings
Ġheterozyg osity
10 7
Ġure mic
Ġparadig ms
ER S
is en
ĠS ES
Ġa vi
Ġtem plates
p ulse
velop ed
ĠD ouble
Ġcarcin ogen
ur us
dom inant
Ġs ymmetrical
Ġhead aches
Ġh olding
Ġren dered
Ġanticoagul ants
Ġsch wann
Ġd ural
ĠCardi ovascular
ĠAl a
Ġfl ank
Ph ase
Ġtetra hydro
phosph atase
arc tion
Ġphotore ceptor
Ġst ore
Ġqu ar
ill es
Ġsinus oidal
ĠN HS
Ġun infected
dep endence
Ġtrans ection
Ġz ircon
Ġglomer uli
hel ical
ĠS LC
t andem
Ġnephro toxicity
Ġdisrup t
ch an
S pecific
Ġartif act
ĠF luorescence
oth yronine
Ġscar ring
k i
Ġharb oring
Ġinter vertebral
op artic
Ġun precedented
Ġper ip
en kephalin
Ġansw ers
tic k
Ġthorough ly
Ġhyp n
ĠInter vention
Ġmosquit oes
Ġop ens
Ġnumer ically
MP A
sy c
ĠOp en
ĠO v
ĠCh lamydia
co agul
Ġsp asm
ĠPar tial
Ġbeds ide
ĠCD C
Ġprote oglycan
Ġth umb
Ġweigh ing
200 9
Ġoccas ional
Ġremn ant
Ġsc anned
Ġlog arith
ĠS CA
Ġosc illation
Ġm ite
DT PA
Ġneuro fib
Ġnanom aterials
Ġinterrup ted
S DS
W A
Ġend otracheal
opre valence
et nam
oplasm osis
o fer
Ġinv ited
Ġintran asal
ĠE s
Ġmild ly
en afil
Ġprospec ts
ĠO verexpression
Ġiniti ative
Ġherni ation
T s
ĠEx ercise
Ġelong ated
Ġcomput ation
Ġche ese
Ġcompens ated
arboxyl ic
ical s
Ġmuc inous
Ġ %.
tomy cin
ĠH G
Ġvoid ing
Ġab dom
Ġrob ot
Ġcros sed
Ġbi ochemistry
plement ed
ĠM U
E r
0 27
Ġdiscipl ines
Ġsole us
h ard
in oc
Ġb omb
ip tera
Ġhyp oglyc
D FT
Ġneurotox ic
chlor inated
Ġle x
Ġdiff us
ĠR ever
ĠMy ocardial
ure tics
Ġparticip ates
ĠUn ion
otom ies
11 7
ten ing
Ġapp raisal
em y
yr id
ĠTRA IL
Ġpack aging
Ġpauc ity
ĠH and
en zymatic
F c
Ġsib ling
coplas mic
Ġpr ice
at rial
Ġinfiltr ates
ĠBehavi or
anger hans
Ġb arium
om atis
ĠG astro
ĠP BS
ĠR ole
Ġlo oking
Ġenvironment ally
ag ens
Ġhe ated
Ġresemb les
n ock
Ġscaven ger
Ġf iss
Ġ( '
Ġres is
Ġultrason ographic
ĠHealth y
ses sion
Ġj et
Ġle aching
od a
oc ar
Ġbi ophysical
B rain
ĠB B
Ġproce eds
ĠS j
Ġform ulas
R b
Ġl ot
Ġcar nitine
Ġn s
Ġmeningi omas
Ġster ic
Ġs aid
et ing
Ġec z
ĠHealth care
200 5
secre ting
Ġjud gment
ĠR ates
Ġolig o
Ġev olve
Ġmicro particles
Ġwork force
ĠRepe ated
Ġphot operiod
Ġfil tered
f ront
Ġoccl usive
Ġgeomet ries
ins tit
Ġrab ies
Ġderiv atization
Ġabrog ated
Ġcarbam azepine
iph atic
Ġnic he
raction ated
Ġac inar
Ġdec ided
ature d
Ġdanger ous
CR C
sess ing
Ġoste ogenesis
oxic illin
Ġgonad otroph
Ġinterrup tion
our ing
Ġtoler ant
Ġdoub ling
Ġconduc tive
ĠB RAF
ĠF OX
n or
Ġph i
iv ity
all eng
gra ding
ub erculosis
Ġdam s
Ġdecl ining
Ġsac ral
Ġf mol
Ġcanc ell
Ġv inyl
ĠPro cess
Ġprolifer ator
Ġg aze
ĠH DAC
Ġdi uretic
ĠD OX
Ġg ate
Ġstandard ised
f oli
Ġatroph ic
Ġpersonal ized
Ġreimburs ement
Ġv oc
ĠW a
Ġep icardial
Ġinterpre ting
Ġworm s
Ġrub ber
ig hed
Ġtr acing
Ġacid ification
ols tein
amin obutyric
0 26
Ġbat teries
c ourse
Ġfed eral
Ġmelan in
f lex
ĠC ur
Ġtermin ated
Ġcub ic
Ġwas hed
Ġdis integr
ĠPK A
Ġout let
ĠB V
estr us
ĠFor ce
az em
Ġstate ment
ime tidine
load ing
il ance
Ġl ax
S U
Ġye asts
ĠL ate
Ġproduc tive
is in
Ġsub sp
or atory
MA C
Ġpyr idine
ĠIn str
ĠNO D
0 28
ĠI a
Ġlob ectomy
meas ured
ti ometry
Ġequival ents
f olate
ĠI BS
Ġlectin s
Ġamelior ated
asthen ia
random ized
he pt
Ġmod ular
Ġdiscrimin ating
C p
Ġappear ing
razol ium
F SH
other mic
Ġlig aments
ĠM er
Ġhaem odialysis
Ġdis abled
Ġdeline ate
Ġen ucle
Ġliv estock
Ġpharmaceu ticals
Ġinc idents
Ġhyper lipidemia
Ġadip ocyte
w alled
Ġd iaz
cop y
but yrate
Ġcyt och
ch ond
Ġaut ore
arp al
itr ite
Ġplac ing
ent gen
ist al
pred ict
tig ens
ogen in
Ġleth ality
Q uality
Ġbud get
T her
enc oded
15 5
ĠRh iz
S N
Ġpy rophosph
Ġhydrox yp
glut amate
Ġev ening
Ġarteri oles
Ġneuropsych iatric
ĠP AP
ĠW M
et u
ound s
orph ine
ĠM RP
Ġlip osomal
Ġsuperc onduc
Ġcon tig
ĠRec overy
G rowth
Ġman nit
Ġtrans dermal
Ġfibrin olytic
Ġloos ening
ĠC FT
Ġcond uit
Ġair borne
Ġdispar ity
ĠSS c
Ġsub scale
av a
Ġhydroly zed
Ġde ployment
ĠRes piratory
Ġd iclofenac
Ġsyn geneic
ĠCent ers
Ġcreat es
Ġrot ating
ĠR ac
yl l
af e
13 2
bi ological
Ġdim orph
Ġelectroly tes
g ren
Ġaut ocrine
iti dis
produc t
Ġeffusion s
Ġdoub led
Ġosteoc lasts
ĠO M
ĠG leason
Ġosteopor otic
0 22
Ġspec ially
ĠO X
Ġinser t
Ġro w
Ġn ap
ĠImmunohist ochemistry
Ġad ver
Ġthromb olytic
Ġhypot ensive
Ġtet rap
Ġmannit ol
poly acrylamide
d o
Ġbronch itis
Ġord inary
ĠP neum
ĠK D
S G
Ġover w
Ġrepro duce
M agnetic
adreno ceptors
Ġstro kes
Ġre ti
Ġcoll oid
Ġe ug
Glc NAc
encephal ic
Ġde er
ĠMich ael
Ġ15 3
methyl ation
ĠI E
Ġtub al
Ġcounter part
Ġchloro quine
Ġjejun al
Ġadv is
Ġanticonvuls ant
Ġment ally
zer land
arb y
Ġshif ting
Ġind isp
Ġging iv
Ġpa w
Ġbirth weight
Ġrepro duced
Ġmet ronidazole
âģ »
Ġsynerg istically
is ations
th reshold
Ġcon ferred
il in
respon ding
og rap
Ġnot es
Ġimm ortal
Ġautoradi ography
Ġcorro sion
Ġde emed
Ġion ophore
ep silon
Ġauthor ities
lem ma
Ġpurp ura
ĠI CH
Ġnon diabetic
Ġ16 8
ĠLiter ature
Under standing
et tes
om n
Ġutil izes
j unctiv
Ġ19 0
Ġimmig rants
l ate
Ġf ishes
Ġstate ments
ĠB ur
ĠA er
Ġco enzyme
Ġdig ested
Ġs aw
Ġen orm
ĠPro per
Ġdoub t
H M
Ġc ra
ĠAd ults
Ġmem ories
Ġwave form
f emale
Ġco arse
Ġobst etr
RF LP
Ġre traction
nat ally
ch a
ĠB CL
mic rom
obut amine
Ġl amp
op amine
Ġdop ed
Ġobjective ly
ur ized
ĠP RP
ĠDes criptive
ĠE US
Ġrestor ative
ob ronchial
ti azem
Ġfo etal
ĠM AC
ohydr ate
ĠF lor
ari etal
ĠV ol
tim icrobial
ĠInc idence
ET s
Ġens emble
ĠS ex
trans criptional
son i
ra ge
Ġper ia
ov iral
ĠMin i
Ġst ature
ĠGS K
Ġbe an
ĠSystem s
ĠHal f
Form ula
cons uming
Ġinterc ourse
Ġ17 5
Ġuncertain ties
Ġextr usion
Ġelement ary
B y
Ġglyc osyl
Ġcompl aint
G ST
on ecrosis
Ġend onuclease
ore l
ĠCon ventional
Ġsand wich
Ġbr ack
Ġca esarean
Ġcol chicine
ĠF inn
ĠES RD
Ġfasc i
Ġlib itum
Ġbrid ges
Ġwe ather
y ch
C ancer
t osecond
ĠClinical ly
Ġm ission
Ġcyst ectomy
Ġcentr ally
re tt
Ġdet ectors
12 4
oul ing
valu es
Ġphosphor yl
oth ione
Ġbip henyl
otr ip
Ġz o
Ġt rough
Ġsusp icious
Ġvaric es
Ġw earing
C ongenital
Ġtrach omatis
50 6
r ach
Ġpe an
Ġinvest ment
ĠF at
Ġbiom aterials
out ine
ĠUn til
Ġphyl ogeny
uth ors
ove al
Ġs terol
Ġch ord
201 2
Ġbiore actor
Diagn osis
ĠC CA
l ich
rus side
Ġsubdi vided
Ġbreak through
Ġax es
Ġgenomic s
ov ar
y lyl
Ġintrac or
ĠV it
Ġsm art
Ġrev olution
ĠB u
ĠDe ath
Ġdevast ating
ĠP PV
In duction
ĠSub st
Ġshrim p
â ĨĴ
o tional
Ġer adic
og s
Ã¼ ller
Ġcrystall ographic
pro te
mus cle
Ġh idden
wo od
Ġhyd raulic
Ġscat ter
Ġgover ning
Ġtr iti
200 6
Ġdr astically
Ġfarm ers
M a
Ġsh ares
Ġtit res
act am
Ġsc op
Ġchlor amphenicol
Ġinhab itants
ten se
Ġnanocom posite
Ġtryp an
ĠF ran
Ġen graft
ĠIn dependent
m M
Ġd yn
H ER
anc ers
Ġvit rectomy
Ġs el
Diagn ostic
on ed
ĠMon itoring
ĠP CV
Ġintrav itreal
Ġt ar
ĠSa udi
ĠJ oint
ĠG lyc
Ġsh aft
Ġsim ulator
Ġmaintain s
Ġche wing
Ġdraw back
Ġseques tration
H SP
ĠAn n
Ġprior ities
ree k
Ġre ass
ro ids
ĠR AP
ĠT un
enef it
Ġeosin ophilia
Ġplurip otent
os c
Ġam y
Ġterrit ory
Ġsp r
Ġfric tion
Ġm Glu
Ġcomp ost
Ġcommon est
.. .
oin ing
Ġlifes pan
ot tic
Ġlymphaden opathy
antif ication
ĠK en
Ġang er
AL S
ur ies
F irst
H u
Ġstrept ococci
si ties
Ġt ill
Ġmus s
D Cs
ug g
9 37
m ade
Ġcomple ting
phosphor ylated
ĠWe ight
Ġchloro form
Ġan kyl
-[ (
SM Cs
glyc ine
M CA
Ġsar coplasmic
Ġaz o
Ġabs tract
ac illin
ĠK O
ocomp atible
ocon jug
Ġ2 05
at eness
Ġgen otypic
Ġviol ent
Ġfac et
Ġvoltamm etry
ĠF ac
ĠEm base
at ases
Ġl nc
Ġ19 75
Ġabsorp tiometry
Ġhydro per
Ġsupplement ary
Ġp as
ch ip
ĠB lue
iter pen
E X
Ġw ant
Ġexplicit ly
re view
Ġal f
receptor s
cycl odextrin
Ġvacu oles
ĠEn ergy
assess ment
r un
ĠTra uma
vel ength
Ġeff erent
ack ed
ĠM agn
Ġdegra de
Ġinterne urons
ĠVi etnam
armaceu tical
Ġa rose
Ġd amp
Ġamen able
iatr icians
Ġanne aling
Ġl anth
Ob jective
i ensis
ĠR at
ra vel
Ġtherm o
Ġneurode velopmental
opl ankton
ch id
gluc osidase
Ġmac rol
bond ed
eth ane
Ġplac ent
t RNA
Ġal beit
Ġana plastic
Ġcontrast ing
Sim ultaneous
ep ing
Ġcrim inal
Ġsingle ton
Ġimper ative
Ġleaf let
Ġdenti stry
ack ground
Ġp emphig
urb an
NT R
pyr rol
Ġfluor oscopy
hex yl
Ġamelior ate
il ine
Ġp ie
7 00
Ġemulsion s
Ġresemb led
rom al
Ġlong est
Ġstr ands
200 8
Ġra inf
Ġmicroar rays
Ġde acetyl
Ġintroduc es
13 5
ne u
ĠU A
ereb ro
ro at
cn emi
0 35
Ġst ains
Ġped ig
Ġoutd oor
200 4
ĠT riton
Ġch in
Ġspe eds
Ġquestion ed
Ġconf erence
di ol
ĠS CN
ĠE CT
omorph ine
Ġwh ites
ucle in
Ġinfec tivity
Ġcl av
tis tic
Ġhar mon
ĠV en
ĠL O
ag mus
Ġmicro RNAs
pos terior
ĠGl ucose
oe ba
Ġmedi ation
Ġbi ogenesis
PA T
Ġmar ried
ĠSwit zerland
Ġper ovsk
com part
Ġstatis tic
ĠMid dle
Ġmagn eti
ĠPC NA
Ġep ist
ist ant
ont ine
Ġin acc
Ġmus h
Ġmigr atory
sh ift
Ġab normally
ĠL o
Ġcont acted
um n
Ġinteres ts
Ġre w
or ide
ĠC re
Ġphen ytoin
U r
Ġhyperal gesia
ĠInc ubation
Ġinsem ination
ov ulatory
-- --
ĠGl ut
Ġcer amide
Ġgener ator
Ġrepress or
Ġ19 78
ĠI TS
Ġremed iation
C X
F H
Ġmusc ul
Ins ulin
Ġvas ospasm
Ġh us
ul line
Ġmim icked
rel and
Ġlet ter
Ġrough ly
co elastic
Ġh olog
Ġlengthen ing
oflav in
un a
Ġhum eral
ĠT U
Ġbir d
Ġburn out
Ġeukary otes
ĠII b
ĠAN G
Ġconn ecting
ost osis
Ġcom mitted
lymph ocytes
ĠEnter ococcus
Ġsubcl avian
ĠIntra venous
ĠB BB
rophyl axis
arc omas
F l
Ġpel lets
Ġrefer rals
Ġsqu ares
P CA
Ġglycos ides
Ġide ation
Ġins ult
E K
h anded
abil istic
onit oring
Ġole ic
Ġimag ery
ĠC ong
ĠB O
Ġ14 2
et obacter
uc tal
Ġgen istein
Ġcent rom
200 2
opec ia
est hetized
ĠLV EF
ph adex
Ġmeningi oma
ĠSe lective
uron ium
with out
ĠW KY
in ol
ch olic
Ġcontamin ant
Ġchemo at
ak a
Ġretro virus
B ec
arm ing
Ġsc ene
Ġsinus itis
ĠDep ending
c oxon
Ġmanip ulations
a ided
v essel
ĠRe action
ĠPT X
Ġfib rotic
Ġchaper one
Ġhal ogen
cnemi us
et t
und er
benz ene
anz apine
Ġmush room
ĠS tructure
Ġal iphatic
S CC
ĠL ondon
Ġdr ift
ĠIs olated
C NTs
Ġchemoradi otherapy
Ġmembran ous
I r
rome gal
Ac tivation
ent on
ĠR ot
0 21
orpor ation
Ġfollow up
Ġradi ograph
he ximide
ĠP AD
Ġacknow led
Ġ2 30
ĠAl cohol
Ġfu rosemide
en ers
Ġo estradiol
bo ard
Ġprac tically
ores t
ĠDet ailed
Ġwor st
11 4
Ġdys functions
Ġtunn eling
af enib
Ġvin cristine
tim ization
z a
Ġtet anus
INF O
Ġcataly ze
Ġsim vastatin
Ġbov is
Ġhall mark
P atient
Ġpolyphen ols
Ġmit omycin
isper idone
Ġsp acing
Ġvis ited
ĠI dentif
Ġre absorption
ores piratory
Ġmarg inally
okine tics
inf lammation
S NPs
Ġvolunte er
osm otic
Ġwavegu ide
Ġsuc ce
s ystolic
Ġp ine
rolog y
Ġmitig ate
Ġfrail ty
op en
Ġcompet ency
ĠP rec
Ġmyel operoxidase
Ġper taining
gen er
Ġr idge
Mul ti
W HO
O cc
Ġdestr uctive
Ġg aining
ĠD iss
enc aps
phen ol
ĠAr c
Ġanthrop ogenic
P GE
ĠParen ts
Ġindisp ensable
ĠRel ationship
ri ve
17 0
tigm atism
Ġhard ness
Ġconcl usive
Ġimmunocomp etent
Ġassembl ies
ac cept
ĠW BC
Ġcomb ustion
Ġreview ing
Ġtherm ally
end orphin
Ġinfl amed
ĠW ell
Ġpr ison
Ġn u
er us
produc tive
Ġmyocardi tis
Ġmas titis
Ġconver gent
ran ging
Ġnitrop russide
Ġperiv ascular
Ġpre vail
Ġconflic ts
iform is
ĠIn trac
m or
ĠG reater
Ġaber ration
- .
ĠM PO
Ġradios urgery
Tr p
Ġchem os
Ġoste ocalcin
ĠE fficacy
V F
Ġsec ure
Ġfer tile
Ġrib avirin
CA R
MS H
Ġk yph
uls ification
dis per
ati t
ver ages
Ġfactor ial
Ġmyel odys
G TP
Ġdep ths
ĠS em
bre eding
Ġsmok ed
ha i
Ġdeaf ness
Ġar rangements
ang itis
Ġser ologic
ov ol
ac rine
ĠA rea
benz o
ĠS ing
Ġref inement
Ġcannabin oid
ĠPA RP
l iving
Ġhyst ere
Ġqu it
Ġv iv
1 12
Ġepididym al
C NT
Ġvig orous
Ġger minal
Ġexec ution
etermin ing
Ġfluor oquin
Ġsubstit uent
Ġ16 5
ad ays
Ġsugg estion
HS V
ĠNH L
tri atal
oc ene
Ġflow ers
Ġdi uretics
Ġ19 60
amp ered
Ġ29 3
Ġrib osome
S B
Ġnons teroidal
Ġoper ators
oprol ol
ot ax
Ġfer ro
Ġobstac les
ĠT HP
Ġo tol
Ġminim ized
id ated
Ġk ain
Ġtranscript ome
Ġhaemat ological
Ġdip henyl
opyran oside
f illed
re duction
p ub
ĠP CO
Ġle ach
ĠP y
present ing
ĠE qu
Ġant ine
Ġpre existing
Ġwithdraw n
C y
ĠEx cept
et oprotein
Ġpig mentation
il lectomy
Ġcom a
g ered
Ġexp ense
Ġdis ag
st roke
ig ibility
ĠAT CC
e a
Ġsn ake
ad ow
t re
Ġimmun ophen
Ġprim ed
Ġrandom ization
ĠH ar
Ġcar d
Ġpall adium
ĠAg ency
Ġout per
orb ital
ĠB MT
Ġ13 9
Ġcytoker atin
ati a
Ġnor adrenergic
re action
ĠJ ournal
trig lycer
Ġly tic
Ġreson ances
Ġtun ed
ĠTex as
Ġor ific
Ġker atitis
Ġunres ectable
Ġdec e
rog lycer
h ou
st ay
Ġnanocom posites
ĠAdv anced
ĠI reland
ĠH olstein
Ġdam ages
Ġcorrespond ence
ĠAn at
Ġreson ant
C irc
troscop y
Ġcent ered
ĠAn imal
Ġb ark
Ġcompl ained
Ġcomp uting
Ġe GFR
amyl oid
Ġerup tion
Ġhyd raz
Pro gnostic
Ġ15 5
Ġec centric
omy ces
lic e
ĠPo lym
ĠP CL
E CG
L aparoscopic
adap ted
f riend
Ġpep sin
oste al
ij ing
Ġ( =
Ġhist omorph
Ġflavon oid
Ġquad riceps
mu ir
Ġ14 3
Ġconcentr ates
ĠP le
ĠI CC
Ġstrict ures
Ġhyd atid
if iers
Ġtri age
ĠContr ary
ĠSur geons
AL T
Ġprop ionate
ost at
ĠWith out
Ġincis ors
Ġnec rop
c ience
Ġpsych omotor
ĠEnd oscopic
Ġs pro
P erc
A RT
Ġprevent able
Ġcon ting
Ġrestor ing
Ġh sp
d emographic
ĠPC Bs
atid yle
Ġtempor ally
ĠH RP
Ġtherap ist
rib ose
Ġgen esis
ĠRA W
Ġcarcin ogens
N eu
ĠG BM
Ġbas ilar
Ġ14 8
ĠS CF
Ġfl our
000 2
am ers
Ġh rs
Ġlev odopa
Ġo vid
as ant
Ġab iotic
Ġh ampered
Ġcommit tee
i ke
Ġslow ing
Ġmask ed
Ġperce ive
Ġauton omous
T umor
ĠH SA
ĠU GT
Ġbenzodiazep ines
Ġf asted
Ġ( %
flu x
at oma
Ġfibrin olysis
oxy cycl
ron bach
g ulatory
ĠT L
Ġp raz
ith in
ĠT reat
Ġg un
Ġmob il
qu ad
other s
ters titial
Ġx anthine
ĠT UNEL
Ġex tern
Ġnation ally
Y S
ob ile
Ġland marks
Ġapprec iable
oll en
all ergic
Ġlimb ic
Ġcalibr ated
Ġgreen house
tis ing
hydroxy tryptamine
as cin
Ġto ur
ĠH CO
bi ased
Ġel ite
Inter action
Ġket one
Ġconfirm atory
Ġunique ly
V is
Ġreg istries
Ġnit rous
Ġob sessive
V L
ob iliary
rac ene
Ġmon oc
Ġl ae
ĠO D
Ġpump s
Ġne bul
n ourished
Ġ14 1
Ġtrans mitter
Ġcarcin oid
r ide
ĠW ales
P o
Ġimprin ted
par as
ren atal
Ġn i
Ġexact ly
pl us
ĠDes ign
ĠD AP
Ġreduc tive
l ung
Ġwhe e
d c
Ġqu aternary
Ġsoci eties
Ġreason ably
ĠCh ile
bal anced
Ġband ing
Ġh atching
ĠG ATA
ĠRecom mendations
I CP
ĠFinn ish
Ġrich ness
Ġch rys
Ġincon clusive
Ġserious ly
Ġleukotri ene
U TR
23 187
isc her
Ġown ers
ogl uc
Ġcons ul
plement ary
ĠL ym
Ġab ut
reg ulatory
ion ization
Ġun predict
Ġw itness
Ġhyper cap
Ġqual ified
osp ice
unt ary
Ġflow er
ĠMic ros
lif eration
ĠIn tensive
PS Cs
Ġ2 80
ifer ous
S pontaneous
Ġextra hepatic
Ġdet rus
amb iguous
Ġhors eradish
T otal
il ibr
Ġmicro dialysis
ĠLeu k
Ġster ilization
op orph
ang ing
Ġads orbent
Ġsynchron ized
Ġinvas iveness
Ġengraft ment
Ġprost acyclin
Med ical
Ġalcoholic s
K D
Ġres erved
Ġlay ered
Ġhall ucin
em atic
ell ae
Ġinter observer
Ġste adily
Ġt ank
Ġinnov ation
st omy
ĠK d
hex a
erg ed
K i
Ġend arterectomy
Ġin activ
Ġglut en
C ycl
R a
ur ring
200 7
iod othyronine
I E
i et
Ġglyc ation
al one
ĠE X
hydr yl
Ġintr at
Ġman ure
Ġprefer able
crystall ine
ĠA BA
Ġanti thrombotic
Ġm astic
us s
Ġcell ul
R ep
ar ray
Ġk V
E p
ĠV ery
sh ot
Ġkinem atic
CV A
Ġhyper cal
Ġclass ifications
Ġas tigmatism
Ġextrav as
Ġcalc ified
Ġrec anal
Ġmy ogenic
ar aldehyde
Ġex ceptional
th y
osper mia
Ġbl ank
Ġproce ed
Ġmorph ologies
Ġacc idental
cont aminated
Ġy our
gl ial
st udy
ĠG DM
Ġover dose
Ġsl ip
Ġalkal oid
Ġoverlo oked
ism us
Ġt itr
us ate
ĠG E
rel ationship
orp tive
_ {
im um
ĠK idney
ĠI b
ĠArter ial
perg ill
uzz y
Ġindustr ies
Ġfores ts
ĠT aking
Ġcoun ty
Ġ15 00
Ġcycl ization
Ġacr ylic
Ġ14 7
omed ial
I CA
Ġblood stream
Ġtet r
Ġr uled
ĠCh ar
ĠS Y
Ġiso zymes
Ġcholest asis
in ae
Ġsubf amily
E PO
T arget
ag al
Ġt ann
ĠEffec tive
Ġnyst agmus
K S
ex y
low er
Ġbub ble
Ġmin us
ĠM PA
ĠAs c
Ġcult urally
Sm all
Ġdemand ing
oinositi de
Ġst aged
Ġr hythmic
Ġexc iting
anti body
Ġemit ted
com itant
Ġt ape
Ġne vi
Ġinhib in
II a
Ġdetrus or
T SH
po or
ed es
ĠCom mission
Ġpig e
she et
Ġst a
ĠE L
Ġgastroenter itis
in ferior
Ġschistos omiasis
S iO
Ġecz ema
Ġch itin
duc ts
orb able
tr ifluor
Â° ,
Ġam iodarone
Ġnanos he
Ġbre aking
Ġmacrom olecular
Ġ14 6
Ġcas tration
Ġsolub ilized
Ġbin ocular
Ġanalys ing
Ġretin oblastoma
y rosine
Ġexpect ation
ĠS um
ĠT V
(- )-
az a
Ġcoex isting
Ġinfl iximab
Ġel igibility
ĠAK T
H eter
ĠPr inc
Ġguan osine
Ġsw abs
Ġquies cent
ĠF all
Ġanest hesi
Ġadren ocortical
ĠT O
ar ation
ĠTNF alpha
Ġp ectin
an tigens
Ġap ple
Ġs ows
Ġhem ostatic
Ġdimer ization
ĠCharacter ization
ak s
Ġstain less
ĠT b
Ġmut ans
ST R
ĠF os
Ġcl ues
Ġinter cal
ĠL G
med icine
hel d
Ġfavor ably
pro l
Ġprincip ally
Ġpollut ant
Ġlymph oproliferative
Ġoste ochond
Ġwar rants
Ġspati otemporal
g ress
Ġwors ened
ĠN IR
fib er
Ġarres ted
Measure ment
X X
y z
E stim
ĠC Cl
oprotein s
ill ator
cont act
e Ag
al ine
agland in
Ġcalc uli
Ġest rous
ĠOx ygen
ĠC RI
g ow
og astric
Ġos seous
u el
Ġsup ras
ĠG AP
Ġestr us
Ġpers ists
Ġgastro cnemius
Ġcircumf erential
ĠL BP
m orbid
ĠR educed
Ġk its
Ġun met
Ġman soni
ĠW B
Ġtrans aminase
AT S
d ens
etal dehyde
Ġoper on
Ġbiod iversity
tim ulatory
Ġantin ociceptive
ad o
Ġos molality
agglut ination
Ġsub dural
Ġalg al
Ġunder pin
sp in
Ġad ds
IN G
Ġinfras tructure
Ġref ers
Ġhand le
ĠSp earman
Ġarth roscopy
Ġadmin istering
Ġad hesi
Ġli e
ne al
l ofen
diagn ostic
ath iop
ĠG el
F M
he red
ĠD istr
ĠL angerhans
Ġpath ologists
Ġbronch oscopy
wa velength
Ġinten tions
Ġpath ologically
ĠHE K
Cor relation
V ascular
Ġout ward
mit ting
Ġintr ag
Ġspecific ation
ĠDifferen tial
Ġh im
Ġair flow
is ure
ĠL TP
ĠL U
Ġresid ing
Ġd ed
rain ed
Ġst yles
pro BNP
anth rene
Ġd ict
Ġpector is
o j
ĠE N
Ġrifamp icin
ĠHep atic
f el
Ġlig ase
Ġcasc ades
Ġciv il
Ġallo ys
health y
Ġcondens ed
ĠAF M
Ġis oflav
Ġling ual
Ġan tral
ĠF MD
Ġnemat odes
P LC
Ġdistric ts
ĠC z
ĠT oll
Ġvirolog ical
un ar
Ġann ular
Ġmo le
Ġmigr ate
PE C
Ġincorpor ates
pr one
Ġhex agonal
Ġincre ments
um ulative
Ġ15 6
wh ite
Ġam oxicillin
ĠNon etheless
por ous
MA R
ĠH emat
Ġgen otoxicity
Ġultr af
xim e
GT T
s n
Ġsp ore
las gow
Ġcaps id
Ġdi es
Ġn ip
ater gic
Ġver tigo
ĠL aser
MR SA
ĠColl abor
Ġe IF
ord inate
Ġprov oked
Ġuro kinase
Ġmask ing
Ġlet ters
ĠQT L
Ġanch or
car nitine
Ġtrap s
Ġhyal uronic
s a
ĠPl atelet
op rim
ĠL ast
(Â® )
Ġ15 2
ic ations
Ġintim ate
Ġaneurys mal
Ġthough ts
tit udes
oxyn ucle
y x
11 3
Ġrank ed
Ġinsectic ide
ĠG W
ĠBi ochemical
Em erg
hol der
Ġh ttp
ĠF ield
tr ypsin
CE A
ĠM u
05 9
Ġphysi otherapy
Ġencoun ters
icrob ials
oes ophageal
ic ola
Ġregen erated
C al
Ġc erv
Ġspec ulate
ĠGen erally
Â ¹
oth al
mod ulated
Ġc c
Ġlys ates
Ġcarb apenem
ab an
l ithiasis
ar abine
Ġpost treatment
Ġmetast as
Ġshort age
Ġdef ines
Ġhand ic
Ġmisc arri
etom idine
p ared
Ġread er
Ġinter ior
F as
ĠSer ial
ĠAMP A
ĠC ushing
Ġhel min
Ġrever sibly
FI SH
ĠCol or
grad ation
Ġmonol ith
0 29
Ġinf ormal
201 1
Ġst ations
Ġl ose
asi ans
ĠJoh n
ĠS exual
o ons
Ġprim or
Ġgo ing
Ġper ineal
Ġcor ner
Ġconstr aint
ĠF B
Ġacr yl
l en
ĠIniti ally
ĠK inetic
ju ana
Ġmic ellar
Ġspectrophot ometric
Ġexchang er
Ġth aw
Ġbut yrate
Ġantioxid ative
yr ist
Ġconc an
OR s
Ġregen erating
NH L
re tion
ĠClin icians
av entricular
Ġbi och
Ġdrink ers
Ġbackground s
ĠLip id
ser um
Ġaccum ulating
12 9
am atergic
Ġdi pl
Ġburs ts
Ġman ually
ogene tics
Ġy rs
ect ants
Ġelectro catal
ver ty
Ġcheck list
Ġex plant
Ġz ona
Ġrecogn izes
ĠM otor
Ġshar ply
Ġbe verages
Ġat or
Ġpo verty
ture d
l ateral
over n
Ġdam aging
ĠE v
Ġc utic
ĠB acterial
Ġdi viding
ĠE I
ĠNor we
ful ly
R M
Ġpr on
tic ism
Ġro l
Ġ9 00
ĠProt ection
ĠCT A
Ġuns atisfactory
Ġvis coelastic
Ġcontr acture
Ġgrad uates
Ġflow ering
Ġdistinct ly
yn yl
ĠLang muir
Ġcl ay
Ġtr y
tom ies
ĠCombin ation
athiop rine
istos oma
assess ed
Ġmax illa
al in
ren ds
Ġfer mented
ĠHyper tension
B et
re th
Ġbl a
v ivo
albumin uria
tis ts
Ġfurther more
ĠLi ke
Ġ15 4
Ġm akers
ĠS iO
12 1
201 4
Ġbe ar
os i
Ġator vastatin
ĠSh ig
Ġfum ig
iod ine
ie u
Ġple i
ĠG MP
ĠPr P
Ġgra zing
ild enafil
D iff
od yn
ocortic oid
Ġd urable
ap heresis
Ġth read
T D
Ġfol ded
ad ol
Ġins pired
Ġre vis
Ġbl unted
Ġpractic ing
Ġhypog onad
tub ulin
Ġexce eds
201 3
A CS
Ġexha ustion
d y
Ġwe ighed
op ril
Ġconstant ly
ereb ellar
Ġapo E
Ġ il
Ġpyr imidine
Ġtrans activation
Ġmanufacture rs
Ġpuber tal
In tegr
ap ore
Ġparas ympathetic
ĠC erebral
Ġoc ul
Ġmet ropolitan
izz iness
in hibition
and ing
pers on
h CG
Ġpharmac ist
si tion
Ġmethyl prednisolone
Ġfaecal is
Ġperm is
ib li
Ġrecre ational
ĠG re
Ġun ambiguous
Ġintegr ins
Ġarg uments
Ġreconstr uct
ĠÏ ĩ
ĠG B
ap ac
ĠF ound
ipl atin
cin etobacter
Ġz oon
Ġ19 77
Ġpay ment
Ġbio transformation
ĠAg ain
k it
2 001
en di
ac ces
Ġaflat oxin
med ical
Ġpure ly
ĠChe ck
Ġc imetidine
Ġ3 20
Ġhyper plastic
An g
Ġpredis pose
ĠR an
Ġcontin ence
Ġepit heli
ĠIm age
Ġbe at
Ġt alk
an oic
ocal ized
r P
Ġonc ological
ĠMet abolic
ĠStatis tically
Ġex agg
Ġpo inting
as p
Ġsub mandibular
Ġstream s
ĠPo lymer
ĠNeu ros
Ġworksh op
ool ed
ĠA part
Ġinter acted
Ġdiag ram
F ib
Ġpath s
Ġgeomet rical
Ġpre maturity
erebro ventricular
Ġpar acetamol
ox ious
otyp ically
Combin ed
Ġrain bow
Ġex ocytosis
Ġflas h
Ġinterpret ations
ĠRes id
inhibit ory
Ġdysfunction al
Ġtoxic ology
Ġlith otrip
Ġconcentr ic
is ser
velop ing
0 36
ĠPU FA
sc an
Ġphot ochemical
romy algia
H ere
Ġgen ders
F ree
Ġg out
Ġsepar ating
Ġrequ ested
Ġag ency
Ġhydro thermal
Ġagric ulture
Ġcaroten oids
Ġis otropic
ĠInf ants
Ġadv ocated
Ġrequ est
Ġanaphyl axis
Ġpass ing
oc a
Ġnever theless
les ion
Ġfrag ile
ari juana
ĠA h
s ingle
o lymph
pro ven
Ġmarket ing
Ġhyp ocal
ĠOb st
Ġd uty
Ġste ep
Ġpsych otropic
Ġband width
sup er
ĠMy coplasma
th yl
Ġmo un
Ġthyroid itis
Ġjustif y
aps ules
ĠBo ard
Ġdev oted
S v
ĠC PP
of luorescent
Pro te
Ġdece ased
Ġas phy
Ġseed ed
I CAM
ĠBe ijing
Ġempir ically
ĠT om
12 8
Ġevid ences
hex idine
Ġch ir
Ġenorm ous
syc INFO
ĠS AR
Ġanti inflammatory
Ġvaric ella
Ġread y
Ġhard ware
Ġswe at
Ġphys ics
Ġret urning
Ġhydro cortisone
Ġpart urition
S Y
Ġfl ame
Ġ2 70
Ġpolyp osis
Ġkeratin ocyte
Ġdraw ing
le gia
Ġdistor ted
Ġunc over
t el
Ġfell ows
Ġc in
Ġmar ri
Ġthree fold
Ġex ocrine
ĠL HRH
acc umulation
Ġdoll ars
Ġan ode
Ġg amm
Ġther most
I CD
le ucine
Ġal opecia
Ġocclusion s
Ġparac rine
d G
Ġconservative ly
Ġcontribut or
Ġup right
P red
ĠD ic
Ġblast ocysts
ĠC PAP
Ġpig ments
Ġm ug
Ġhep t
ĠM CT
MP O
Ġsim plicity
Ġdeterior ated
Ġac romegal
str ain
em itting
ĠL AD
p el
S ol
os tig
out heast
K s
Ġal ph
fac tors
ĠHaem ophilus
el ast
Ġretro viral
Ġinoc ulum
Ġconcan avalin
Ġpup il
Ġshap ing
Ġinvent ory
in ces
ant le
Ġhard ly
Ġsc rap
ĠG reat
W D
Chem ical
Ġser ology
ĠSc anning
ĠTh ai
Ġelast in
ĠI SO
Ġcann ula
ĠBehavi oral
opos terior
Ġcalc ane
Ġneuro physiological
Ġ( +)
ĠCr iteria
Ġg ynaec
Ġtrans urethral
om inant
ĠR ay
Ġas pergill
Ġinf low
ĠR IA
Ġantim icrobials
Ġ19 76
Ġch im
F ive
Ġtrache ostomy
ĠCalc ium
am ido
P GF
Investig ation
Ġconf inement
t ance
n uclear
Ġst ellate
Ġoval bumin
olum n
Ġmigr ating
d or
Ġthem atic
Ġro entgen
Bec ause
Ġser oprevalence
Ġsevent y
ĠBP H
ous es
M es
Ġphosphor ylase
ĠO VA
Ġmyc obacterial
angi ect
Ġcada vers
fil ament
ĠECM O
Ġemphas izing
ĠQ Ds
) %
Ġm oll
Ġd obutamine
0 45
Ġclim atic
si ans
Ġket o
Ġagglut ination
Ġacetyl transferase
jec tions
Ġsemi quantitative
Pre paration
ĠÂµ m
Ġ19 2
Ġk a
Ġcyt osine
sion s
ĠL MW
Ġmultil ayer
Ġun im
Ġcomp ressed
str uctive
d on
ĠAr ch
Ġp est
Ġes c
roglycer in
it abine
amil ies
Ġfem tosecond
Ġprecip itated
Ġhomolog ues
re duced
Ġsla ughter
tid al
ling ual
trig gered
atidyle thanolamine
ĠU ltr
ĠFlor ida
Ġsleep iness
ĠPro ble
Ġover d
ĠGF AP
Ġtr if
Ġfr ac
ĠV R
ĠB urk
A den
ĠExper ience
Se vere
Ġlac rimal
as y
Ġmon oph
ĠH ung
ub stituted
Ġ2 25
Ġinsectic ides
Ġabs tracts
Ġpit falls
ĠF ull
200 3
Ġaper ture
Ġpro pos
ric e
ophen ol
Ġsubt otal
N ur
li er
pyr idyl
Ġreinfor ced
Gl n
Ġidentif iable
ed ding
Ġst acking
Ġre ared
Ġhypox emia
Ġassoci ates
SP E
ĠL earning
Ġrun s
ĠNorwe gian
ĠCR H
Ġexpendit ures
Ch rom
Ġc ages
omer ular
oper fusion
plan ar
Ġances tral
Ġpean ut
fl urane
0 37
ither to
Ġcryopres erved
Ġmy ocl
es pecially
Ġâ ĨĴ
Ġrecur red
Ġ26 4
Ġed iting
Ġsyn apse
Ġur anium
Ġr uthenium
med ication
DS S
C ar
at ri
si ed
ĠCd c
iv udine
ĠRecom binant
Ġmaxim ally
Ġprur itus
ĠHist ologic
Ġch ose
Ġmotiv ated
Ġplas monic
f it
Ġoroph aryngeal
ph ys
S NP
Ġartif icially
Ġk allikrein
oxycycl ine
c ation
i tives
ĠG h
Ġco ils
Ġ15 1
ores istance
Ġduct us
L ymph
s ample
ĠM BP
11 8
ĠS odium
Ġdi phosphate
ĠRec eptor
D istribution
Ġmagneti zation
B reast
ĠWil coxon
Ġpseudo aneurys
Ġtrans thoracic
Ġpherom one
eth oprim
functional ized
0 20
ĠHR QoL
Ġen for
Ġsulf on
cep s
Ġmo unted
ĠT NM
Ġto e
Ġv ice
Ġchol angitis
Ġnanofib ers
Ġdis tension
C ontin
Ġparadox ical
Ġc uc
ĠD BS
thys m
ĠCFT R
Ġqual ities
as hes
Ġacid ity
Ġsec tors
ĠBar rett
Ġcortic es
Ġw ax
av our
ĠGTP ase
Ġhyper tonic
ĠL aparoscopic
ano ate
ĠC RS
Ġentrap ment
Ġdialys ate
ople gia
Ġmulti level
Ġag itation
ĠPA C
Ġprote oglycans
In duced
ĠPh yt
ir med
ĠSp inal
lic ation
Ġdil tiazem
ĠBi ological
Ġstoichi ometry
Ġdimin ish
Ġlae vis
Ġv oxel
Ġf urn
Ġarthro desis
ĠS PSS
Ġc res
k B
sus ceptible
Ġanti thrombin
Ġendoc rin
st ent
g reen
p ulmonary
Ġfl uconazole
ĠSch iz
17 4
Ġgran ulation
Ġbro ken
to ok
Ġ15 7
ĠStrateg ies
Ġp ts
ĠI H
ma ximum
Ġth roat
m TOR
ĠRB Cs
unting ton
Ġinvari ant
0 34
Ġprep ubertal
Ġagglut inin
con v
en an
os terol
Ġinf lation
ow ard
ĠP CS
Ġch olester
Ġop tically
Ġaccording ly
L YP
im umab
2 20
ĠC le
Ca P
Ġspirit ual
pocamp al
Ġcongen ers
Ġherni as
Ġcass ette
l anguage
is ia
ac ies
im ers
on n
ly b
Ġoccup ancy
ĠL AS
Ġfunctional ization
Ġdiam ond
Ġ( âĪ¼
ore ceptor
Ġcas ual
Ġcoinc ided
oph ytes
ĠMeas ures
ib ly
ne tium
Ġtransl ate
Ġsepar ations
Ġd ol
ĠI MP
MD R
ĠTest ing
ĠH AART
Ġinequ alities
Ġre acts
Ġhyp onat
Ġres ins
Ġbacteri ophage
Ġevent ual
Ġcompet encies
met er
ĠMul tiv
Ġhemisp heres
ĠCauc asians
ĠHist ologically
ĠH V
ase ous
Ġpal atal
Ġcyclo heximide
Ġprec a
A SA
Ġhydroly s
Ġbronch odil
ys ed
Ġphot ons
Ġra y
ĠAnti bodies
Ġhom eless
ren orphine
ĠTa q
Ġdisper sive
glob in
ĠI MT
end azole
por ph
Ġmy oglobin
Ġcovari ance
Ġmen iscus
otin ib
yster oid
Ġnew s
st ant
Ġalumin ium
Ġp M
Ġmoment um
Ġsol vation
Ġcath ode
ced ure
Ġcas p
Ġthyro tropin
Ġb inge
ĠCor relations
Ġpheochrom ocytoma
olytic a
ĠT KA
ni i
Ġdissi pation
AL P
inter feron
Ġpoll uted
ĠPress ure
Ġurtic aria
Ġtub erculous
D ata
se e
Ġesophag itis
i per
ĠV H
al le
prop ylene
0 38
Ġrepair s
ĠE ye
bon ding
Ġdeg ran
S uccessful
Ġmic elle
Ġexchang es
Ġamb iguous
Ġgl ia
Ġcare rs
Ġsel dom
Ġ2 60
Ġun selected
Ġmeth amphetamine
encephal on
Ġvag ina
Ġfac ts
Ġcall osum
Ġbur ning
ĠAR F
ichlor o
16 5
f etoprotein
th yroid
ard ed
ĠP Y
Ġtyros inase
Ġneuro cognitive
n ull
ess els
Ġpoly amine
Ġd ithi
osp inal
Ġw ent
ov a
Ġm U
PR L
iment ary
Ġfrac tal
Ġcomplic ating
Ġtrans esophageal
ĠmA bs
Ġun ravel
ĠF em
Ġmo lyb
l ines
Ġol anzapine
Ġmelan ocytes
Ġglut araldehyde
Ġara bin
yr idine
ï ¼
Ġen al
ĠPro state
Ġgamb ling
Ġultrafil tration
ĠEn hanced
o oth
Ġrefer ring
Ġcann ulation
an er
ĠN early
Ġdys plastic
Pur ification
Ġcorrel ating
ĠES I
ti r
Ġsensor ineural
Ġbac illi
Ġfa eces
Q I
Ġg ill
Ġpoly chlorinated
os clerosis
ĠP DA
SP ECT
blind ed
ĠC yp
Ġk D
i en
et ed
Ġhum erus
11 9
Ġpepti d
Ġcomp any
ĠP ED
Ġglyco lytic
ĠSing apore
c he
il ding
ol ite
Ġhemat uria
BB B
F os
ir t
ĠT ax
Ġin ert
Ġoste oblastic
Ġland f
Ġlo oked
(+) /
ynt hesi
Ġp ond
ĠAn a
Ġstrengthen ing
r atio
Ġsocial ly
orm onal
Ġsplen ocytes
Ġmetaph ase
ath ion
ĠCon cer
Ġreal ize
ĠG ERD
Ġunder took
ol amine
Ġhomogen ate
Ġtr imethyl
ĠP regnancy
tag ged
og y
Ġref raction
Ġco oking
ĠAcad emy
Ġorn ithine
Ġbas in
imid azol
Ġantim al
Ġintr ons
Ġlos artan
echan ics
Ġoc ta
Ġcorne as
Ġhydrox ylation
ĠOp timal
Ġdiscipl ine
e valuation
Ġneurop eptides
Ġdemyel inating
Ġse b
2 40
ĠRNA i
oreg ional
cor relation
ĠPer i
Ġecon omy
ast uzumab
ul ing
ĠAn y
Ġ15 8
oy al
PF C
he art
Ġorgan isation
Ġ14 9
ĠAss ociations
Ġreg i
Ġrepro gram
S ocial
syn uclein
Ġmoun tain
Ġcoch lea
Ġencompass ing
ĠB asal
W M
Ġr anking
Ġwell s
ys tic
Ġincons ist
Ġamphiph ilic
Ġprob abilistic
Ġpair ing
CT A
triglycer id
Ġo ro
ym b
Ġsuperv ised
Ġobsc ure
26 4
exper imental
Ġpen is
m embered
am oeba
electroly te
Ġdiscus sing
Ġcle ared
Ġpent obarbital
Ġincomplete ly
Ġal ve
ĠEx pl
ĠF etal
Ġbiom olecules
ĠST EMI
Ġsulf hydryl
Ġw ires
ĠPG I
nat ural
Ġwork up
Ġglut amatergic
ĠN atural
oly sin
Ġstaphyl ococcal
Ġsyn ergy
comp ulsive
Ġcrow ns
ĠH H
Inter leukin
nitros o
Ġdiscl osure
Ġhem i
Ġun em
Ġom eprazole
ine urin
Ġdepr ived
Ġelectro chem
Ġhum or
C e
Ġbill ion
Ġhypother mic
13 8
Ġblot s
p rac
Ġgingival is
Ġthi op
Ġprob ed
Ġbi ocompatible
C er
Ġsp ines
E l
Ġan abolic
ostig mine
d ried
carb onyl
ĠAch illes
Ġenal april
ys titis
Ġne arby
flu enza
ĠA LA
activ ator
Ġcong estion
ĠC ritical
Ġarg on
0 32
ĠSch istosoma
pop ulation
hep atitis
Ġcontinu ation
Ġpred ator
os pecific
Ġdis tilled
ĠT CDD
ĠK S
. ;
Ġabor tions
13 9
Character istics
ti form
ĠA cinetobacter
ĠG lasgow
Ġhem ip
tif icial
Ġrun off
Ġmaneu ver
ĠArgent ina
Ġr isperidone
Ġautoanti body
r ists
ĠF luor
Ġmotiv ational
Di etary
ĠElec troph
Ġpos ter
ĠElec tronic
ĠM MC
Ph ysical
ax ation
ospor idium
ĠK u
Ġne oin
ĠT RI
ard less
Ġoverw hel
P y
Ġst ance
Ġcoun ties
Ġatt ach
T a
P seud
ch olate
Ġobser ving
oph yt
U LT
Ġoxygen ase
Â· Â·
Ġchondro itin
Ġc ogn
PD T
p ol
Ġdis abling
ĠSI RT
Ġhol istic
Ġre actors
ĠR U
Ġthous ands
ur is
B AL
Ġcorrec tions
Ġap omorphine
Ġgraph ite
ati de
or tium
Ġqu artz
Ġstar ts
inc t
Ġ7 50
ĠS ulf
di one
ĠT echni
Ġad riamycin
Ġpi eces
Ġassess es
le ad
ph os
Ġmeet ings
V itamin
Ġre jected
T g
Ġequ ilibr
Ġclos est
hem isp
ĠHy brid
ĠDH EA
ĠPak istan
DO PA
Ġsl opes
Differen t
P rol
az oline
ak ia
Ġphosph atases
ĠSci ences
ĠT X
Ġpersist ently
utroph il
iol itis
Ġscler osing
Ġre pressed
tr actant
G nRH
Ġcombin atorial
Ġder ang
ou x
T RA
Ġgranul omas
id ines
19 99
Ġw anted
we ed
Ġthromb i
Ã¶ gren
ĠD SA
Ġab and
Ġun il
ĠC NT
ag ue
c reat
Ġnucle ase
15 3
NA C
ĠThe ory
ĠG PI
Ġc iti
ex ercise
Ġmutagen icity
ĠM icrob
Ġrepresent atives
op per
ĠSam ple
ĠTox oplasma
ip enem
t ailed
ĠAm b
chem ia
Ġneuro protection
anth us
C i
Ġd izziness
MT S
w ire
Ġsoci etal
se ed
ĠH ome
Ġsati va
ĠDR G
Ġsurviv in
Ġlab ile
Ġthreat ening
Ġactu arial
ymp t
Ġrender ing
Ġho ok
trac tor
Ġdur ability
Ġs ized
S equ
Ġcol lic
udi ed
sensi tized
ĠG as
Ġcontr asts
H Cl
Ġoff icial
d onor
Ġintr ig
sub ject
at ous
or hab
Ġapproach ing
ig an
ĠS u
Ġoligos accharide
ĠE H
ari us
Ġth reonine
Ġamy otrophic
ĠW C
Ġen cl
Ġhom od
ogl ut
et ence
Ġregression s
F r
z ens
Ġgover ned
Ġnons ignificant
p rimary
Ġun recognized
Ġep ic
Ġtri ad
dis charge
off s
Ġgeneral ization
Ġurg ently
ĠEx tensive
Ġbio informatics
Ġtransl ocations
H CO
ĠE PI
act yl
ĠAc ademic
Ġbic eps
Ġclos ing
Ġtrem end
il a
medi ation
ĠEn zyme
Ġconcl udes
Ġincis or
Ġc enti
Ġref uge
Ġmicros urgical
Ġout standing
Ġprolif erate
Ġcomplex ed
Ġcommunic ating
Met abolic
Ġhind limb
ĠHO MA
Ġill icit
ĠRem oval
Ġcod ons
Ġan nexin
Ġann ulus
c ultural
ick etts
Ġdisadvant age
ĠPT C
test osterone
Ġmanus cript
Ġcompet e
arch itect
Ġquin one
it ations
Ġpsychiat rists
f ram
Inc idence
Ġimp ing
Ġrainf all
Ġchondro cyte
Ġvers a
st en
Ġunpredict able
Ġmo tile
Ġinfarc ts
Ġre position
Ġnanor ods
sal t
ĠX RD
CK D
ĠW ol
Ġg ather
G VHD
o om
Ġprior iti
t ac
Ġc ric
Ġcomp ute
ww w
ĠP BL
ĠIn duction
amb da
Ġre aring
Ġser oconversion
Ġlip olysis
lig o
il oride
ond yl
Ġdil ute
Ġcholecyst okinin
ĠGAB AA
Ġintral uminal
Ġcat as
Ġgl ab
Ġaph asia
ĠC LA
S ex
Ġwave forms
g old
Ġcry o
tum our
Ġingredi ent
Ġproton ated
ser in
aw a
Ġcandid iasis
Ġb idirectional
ran ch
Ġser ogroup
Ġclo ud
[...]
