{"!":0,"\"":1,"#":2,"$":3,"%":4,"&":5,"'":6,"(":7,")":8,"*":9,"+":10,",":11,"-":12,".":13,"/":14,"0":15,"1":16,"2":17,"3":18,"4":19,"5":20,"6":21,"7":22,"8":23,"9":24,":":25,";":26,"<":27,"=":28,">":29,"?":30,"@":31,"A":32,"B":33,"C":34,"D":35,"E":36,"F":37,"G":38,"H":39,"I":40,"J":41,"K":42,"L":43,"M":44,"N":45,"O":46,"P":47,"Q":48,"R":49,"S":50,"T":51,"U":52,"V":53,"W":54,"X":55,"Y":56,"Z":57,"[":58,"\\":59,"]":60,"^":61,"_":62,"`":63,"a":64,"b":65,"c":66,"d":67,"e":68,"f":69,"g":70,"h":71,"i":72,"j":73,"k":74,"l":75,"m":76,"n":77,"o":78,"p":79,"q":80,"r":81,"s":82,"t":83,"u":84,"v":85,"w":86,"x":87,"y":88,"z":89,"{":90,"|":91,"}":92,"~":93,"¡":94,"¢":95,"£":96,"¤":97,"¥":98,"¦":99,"§":100,"¨":101,"©":102,"ª":103,"«":104,"¬":105,"®":106,"¯":107,"°":108,"±":109,"²":110,"³":111,"´":112,"µ":113,"¶":114,"·":115,"¸":116,"¹":117,"º":118,"»":119,"¼":120,"½":121,"¾":122,"¿":123,"À":124,"Á":125,"Â":126,"Ã":127,"Ä":128,"Å":129,"Æ":130,"Ç":131,"È":132,"É":133,"Ê":134,"Ë":135,"Ì":136,"Í":137,"Î":138,"Ï":139,"Ð":140,"Ñ":141,"Ò":142,"Ó":143,"Ô":144,"Õ":145,"Ö":146,"×":147,"Ø":148,"Ù":149,"Ú":150,"Û":151,"Ü":152,"Ý":153,"Þ":154,"ß":155,"à":156,"á":157,"â":158,"ã":159,"ä":160,"å":161,"æ":162,"ç":163,"è":164,"é":165,"ê":166,"ë":167,"ì":168,"í":169,"î":170,"ï":171,"ð":172,"ñ":173,"ò":174,"ó":175,"ô":176,"õ":177,"ö":178,"÷":179,"ø":180,"ù":181,"ú":182,"û":183,"ü":184,"ý":185,"þ":186,"ÿ":187,"Ā":188,"ā":189,"Ă":190,"ă":191,"Ą":192,"ą":193,"Ć":194,"ć":195,"Ĉ":196,"ĉ":197,"Ċ":198,"ċ":199,"Č":200,"č":201,"Ď":202,"ď":203,"Đ":204,"đ":205,"Ē":206,"ē":207,"Ĕ":208,"ĕ":209,"Ė":210,"ė":211,"Ę":212,"ę":213,"Ě":214,"ě":215,"Ĝ":216,"ĝ":217,"Ğ":218,"ğ":219,"Ġ":220,"ġ":221,"Ģ":222,"ģ":223,"Ĥ":224,"ĥ":225,"Ħ":226,"ħ":227,"Ĩ":228,"ĩ":229,"Ī":230,"ī":231,"Ĭ":232,"ĭ":233,"Į":234,"į":235,"İ":236,"ı":237,"Ĳ":238,"ĳ":239,"Ĵ":240,"ĵ":241,"Ķ":242,"ķ":243,"ĸ":244,"Ĺ":245,"ĺ":246,"Ļ":247,"ļ":248,"Ľ":249,"ľ":250,"Ŀ":251,"ŀ":252,"Ł":253,"ł":254,"Ń":255,"in":256,"Ġa":257,"Ġt":258,"re":259,"on":260,"ti":261,"he":262,"en":263,"Ġo":264,"er":265,"Ġs":266,"Ġc":267,"al":268,"ed":269,"Ġthe":270,"Ġp":271,"Ġin":272,"Ġof":273,"Ġan":274,"at":275,"Ġw":276,"es":277,"or":278,"ro":279,"an":280,"tion":281,"is":282,"it":283,"Ġm":284,"Ġand":285,"Ġd":286,"as":287,"ic":288,"Ġf":289,"Ġb":290,"ar":291,"ent":292,"ing":293,"Ġre":294,"le":295,"ation":296,"Ġe":297,"ve":298,"Ġto":299,"ec":300,"om":301,"ul":302,"Ġ(":303,"us":304,"ly":305,"ac":306,"os":307,"Ġh":308,"ol":309,"Ġn":310,"et":311,"id":312,"ur":313,"Ġth":314,"ĠT":315,"ith":316,"Ġl":317,"im":318,"Ġwith":319,"ere":320,"el":321,"ter":322,"ati":323,"un":324,"Ġg":325,"tr":326,"ig":327,"ce":328,"Ġfor":329,"Ġpro":330,"Ġcon":331,"ot":332,"il":333,"res":334,"uc":335,"if":336,"ra":337,"Ġwas":338,"ated":339,"ut":340,"um":341,"ĠThe":342,"Ġv":343,"od":344,"Ġst":345,"op":346,"oc":347,"ow":348,"tic":349,"Ġas":350,"ts":351,"Ġwere":352,"am":353,"ity":354,"Ġis":355,"Ġex":356,"ents":357,"Ġ1":358,"ĠA":359,"ate":360,"em":361,"si":362,"og":363,"Ġon":364,"ĠC":365,"Ġres":366,"ĠI":367,"di":368,"Ġcom":369,"Ġac":370,"ag":371,"ir":372,"ys":373,"ab":374,"Ġbe":375,"rom":376,"Ġby":377,"ell":378,"ical":379,"Ġthat":380,"Ġr":381,"up":382,"ine":383,"ver":384,"ant":385,"ph":386,"qu":387,"th":388,"ment":389,"Ġal":390,"ase":391,"Ġpati":392,"ure":393,"ĠP":394,"Ġch":395,"ff":396,"ĠS":397,"ted":398,"se":399,"ain":400,"Ġde":401,"Ġ2":402,"Ġor":403,"tive":404,"ud":405,"her":406,"Ġcomp":407,"Ġdis":408,"ib":409,"Ġim":410,"ess":411,"Ġpatients":412,"ad":413,"pec":414,"Ġat":415,"pl":416,"te":417,"duc":418,"Ġus":419,"Ġinc":420,"Ġfrom":421,"und":422,"per":423,"ĠM":424,"Ġper":425,"Ġare":426,"iz":427,"Ġad":428,"ĠH":429,"Ġcell":430,"ub":431,"ign":432,"red":433,"ations":434,"ific":435,"vel":436,"igh":437,"ran":438,"ug":439,"ial":440,"ay":441,"Ġhe":442,"Ġse":443,"orm":444,"ous":445,"sion":446,"Ġne":447,"Ġen":448,"Ġwh":449,"ore":450,"ip":451,"Ġle":452,"ffec":453,"por":454,"tiv":455,"ence":456,").":457,"st":458,"ion":459,"Ġsh":460,"tor":461,"ch":462,"ĠD":463,"est":464,"ĠIn":465,"ary":466,"ular":467,"tro":468,"ers":469,"ge":470,"ia":471,"lec":472,"Ġass":473,"Ġgro":474,"Ġdi":475,"Ġ3":476,"Ġpre":477,"olog":478,"reat":479,"00":480,"ĠB":481,"),":482,"reas":483,"iff":484,"ĠN":485,"ative":486,"ren":487,"Ġsign":488,"ĠE":489,"Ġinf":490,"Ġ0":491,"iv":492,"ĠF":493,"yl":494,"Ġcl":495,"yp":496,"eren":497,"Ġdiff":498,"ies":499,"Ġap":500,"Ġmet":501,"Ġgen":502,"and":503,"ĠR":504,"Ġstud":505,"Ġeffec":506,"Ġbet":507,"Ġthis":508,"ap":509,"pres":510,"ear":511,"ĠW":512,"anc":513,"ost":514,"ist":515,"ance":516,"Ġnot":517,"Ġstudy":518,"Ġco":519,"Ġpres":520,"tions":521,"enti":522,"pro":523,"ose":524,"Ġph":525,"Ġev":526,"Ġha":527,"Ġpl":528,"Ġwe":529,"Ġinter":530,"we":531,"Ġtran":532,"ich":533,"ther":534,"Ġob":535,"Ġsur":536,"Ġsignific":537,"Ġpar":538,"Ġgroup":539,"ep":540,"Ġrec":541,"Ġsub":542,"ide":543,"ons":544,"Ġab":545,"Ġdifferen":546,"ong":547,"ĠO":548,"Ġcells":549,"ding":550,"fter":551,"Ġanal":552,"Ġdet":553,"Ġsignificant":554,"Ġk":555,"one":556,"age":557,"vi":558,"low":559,"ĠL":560,"Ġme":561,"Ġ4":562,"min":563,"Ġresul":564,"ved":565,"ally":566,"Ġmod":567,"ween":568,"unc":569,"Ġtrans":570,"Ġstr":571,"Ġ5":572,"able":573,"ĠG":574,"Ġactiv":575,"ast":576,"iti":577,"Ġbetween":578,"ath":579,"yn":580,"Ġtreat":581,"Ġspec":582,"all":583,"alu":584,"Ġit":585,"Ġreg":586,"rap":587,"Ġhave":588,"end":589,"ari":590,"yst":591,"Ġwhich":592,"Ġshow":593,"ound":594,"oci":595,"Ġy":596,"tein":597,"enc":598,"Ġthan":599,"Ġcor":600,"ox":601,"Ġafter":602,"ĠTh":603,"Ġmic":604,"tim":605,"Ġinv":606,"port":607,"Ġrel":608,"hen":609,"Ġint":610,"Ġcons":611,"Ġsc":612,"form":613,"Ġind":614,"ight":615,"Ġcar":616,"ates":617,"ech":618,"tal":619,"oth":620,"duced":621,"ri":622,"Ġca":623,"entr":624,"Ġtreatment":625,"ym":626,"Ġ=":627,"our":628,"Ġlevel":629,"Ġanti":630,"Ġfac":631,"osis":632,"ros":633,"ory":634,"ak":635,"ill":636,"ens":637,"pon":638,"tain":639,"Ġar":640,"ility":641,"ulation":642,"trol":643,"wo":644,"cl":645,"ection":646,"ood":647,"Ġun":648,"Ġhigh":649,"reased":650,"uring":651,"lu":652,"Ġund":653,"cep":654,"act":655,"ome":656,"ass":657,"ree":658,"yt":659,"ases":660,"Ġ6":661,"Ġag":662,"mun":663,"Ġprotein":664,"udi":665,"Ġbeen":666,"velop":667,"Ġthese":668,"NA":669,"ater":670,"ach":671,"ang":672,"Ġusing":673,"Ġro":674,"Ġhas":675,"Ġpo":676,"Ġdise":677,"Ġbut":678,"Ġcan":679,"pression":680,"hib":681,"Ġpos":682,"Ġunder":683,"ugh":684,"ual":685,"Ġam":686,"ied":687,"ue":688,"Ġno":689,"ysis":690,"ating":691,"Ġbl":692,"ob":693,"Ġassoci":694,"Ġhy":695,"Ġlow":696,"Ġresults":697,"acter":698,"ms":699,"Ġmeth":700,"agn":701,"Ġcontrol":702,"unction":703,"ew":704,"Ġstudi":705,"ared":706,"ple":707,"ystem":708,"Ġdevelop":709,"inical":710,"out":711,"so":712,"Ġdec":713,"The":714,"Ġqu":715,"gen":716,"ures":717,"der":718,"ors":719,"hem":720,"ological":721,"Ġmon":722,"ĠWe":723,"Ġbi":724,"Ġmay":725,"atic":726,"pos":727,"Ġmed":728,"Ġhad":729,"Ġtwo":730,"ven":731,"ized":732,"Ġall":733,"Ġtheir":734,"ogen":735,"ting":736,"Ġpr":737,"ĠThis":738,"Ġser":739,"ser":740,"Ġused":741,"ten":742,"Ġconc":743,"amin":744,"Ġsystem":745,"Ġduring":746,"cess":747,"Ġvari":748,"Ġcol":749,"Ġalso":750,"Ġfol":751,"uld":752,"Ġra":753,"Ġdes":754,"Ġfactor":755,"Ġsp":756,"Ġsup":757,"Ġtim":758,"cr":759,"Ġboth":760,"ata":761,"Ġmore":762,"Ġtr":763,"Ġman":764,"Ġmeas":765,"ization":766,"pective":767,"Ġclinical":768,"ium":769,"Ġout":770,"ult":771,"Ġpresent":772,"ogra":773,"Ġdisease":774,"de":775,"vid":776,"jec":777,"rel":778,"Ġ9":779,"Ġactivity":780,"ild":781,"Ġ7":782,"Ġyear":783,"Ġsyn":784,"alth":785,"hibit":786,"Ġincl":787,"Ġmo":788,"Ġmethod":789,"ĠU":790,"Ġsug":791,"Ġanalysis":792,"ition":793,"inding":794,"mon":795,"Ġbas":796,"uct":797,"Ġsam":798,"Ġnon":799,"Ġsignificantly":800,"Ġuse":801,"tin":802,"ans":803,"Ġfollow":804,"Ġacc":805,"Ġsuc":806,"Ġdeter":807,"ite":808,"ici":809,"Ġother":810,"ever":811,"ace":812,"Ġsugg":813,"oid":814,"action":815,"Ġfunction":816,"Ġmodel":817,"ays":818,"isk":819,"Ġsim":820,"ard":821,"Ġincreased":822,"ne":823,"Ġlevels":824,"rapy":825,"Ġid":826,"Ġinclud":827,"ke":828,"Ġcomple":829,"Ġevalu":830,"Ġend":831,"Ġobser":832,"tig":833,"dition":834,"Ġrespon":835,"ble":836,"Ġem":837,"Ġassociated":838,"Ġfound":839,"Ġhum":840,"Ġperform":841,"ype":842,"tom":843,"duction":844,"ution":845,"Ġ8":846,"Ġ10":847,"Ġcompared":848,"Ġdata":849,"Ġgl":850,"Ġeffects":851,"ile":852,"Ġeffect":853,"entif":854,"rec":855,"ail":856,"ancer":857,"Ġrat":858,"Ġexpression":859,"atory":860,"ments":861,"Ġover":862,"tern":863,"ond":864,"Ġgene":865,"ograph":866,"inal":867,"ered":868,"lym":869,"ma":870,"als":871,"ric":872,"Ġdifferent":873,"Ġform":874,"Ġhig":875,"Ġli":876,"Ġconcentr":877,"Ġexper":878,"Ġpot":879,"Ġtum":880,"ery":881,"ency":882,"Ġhealth":883,"Ġtime":884,"Ġimmun":885,"Ġshowed":886,"ants":887,"Ġchar":888,"rease":889,"sive":890,"ron":891,"estig":892,"Ġits":893,"Ġindic":894,"01":895,"Ġacid":896,"Ġoc":897,"Ġdiagn":898,"Ġrisk":899,"Ġstudies":900,"ormal":901,"Ġwhe":902,"Ġmeasure":903,"oma":904,"ĠV":905,"Ġop":906,"par":907,"Ġdem":908,"Ġyears":909,"Ġinvestig":910,"Ġdr":911,"Ġone":912,"tical":913,"usion":914,"Ġappro":915,"hed":916,"ability":917,"lic":918,"emb":919,"onstr":920,"Ġidentif":921,"ute":922,"cop":923,"Ġprog":924,"Ġcancer":925,"Ġpath":926,"Ġassess":927,"ology":928,"iss":929,"ities":930,"erg":931,"Ġins":932,"owever":933,"Ġmicro":934,"oph":935,"ces":936,"ni":937,"Ġhuman":938,"/-":939,"urren":940,"hes":941,"les":942,"ism":943,"dro":944,"Ġcontr":945,"Ġintr":946,"Ġrem":947,"Ġup":948,"idence":949,"ature":950,"'s":951,"Ġinto":952,"ential":953,"Ġwho":954,"Ġinhibit":955,"%)":956,"rain":957,"Ġage":958,"ceptor":959,"ale":960,"Ġ+":961,"Ġcases":962,"ive":963,"cin":964,"Ġsurg":965,"echan":966,"Ġhigher":967,"ork":968,"Ġsec":969,"Ġcharacter":970,"Ġwell":971,"Ġelec":972,"arg":973,"bin":974,"ĠThese":975,"pit":976,"umb":977,"Ġdef":978,"plic":979,"Ġmost":980,"uro":981,"til":982,"Ġma":983,"ord":984,"ov":985,"pectively":986,"Ġmin":987,"view":988,"ement":989,"Ġchild":990,"Ġobserved":991,"Ġpred":992,"ĠAl":993,"Ġpartic":994,"sed":995,"Ġgroups":996,"Ġrate":997,"Ġimpro":998,"Ġpatient":999,"tit":1000,"ix":1001,"Ġmul":1002,"ural":1003,"Ġblood":1004,"ark":1005,"Ġonly":1006,"ange":1007,"Ġ<":1008,"Ġpost":1009,"use":1010,"ex":1011,"Ġnew":1012,"tained":1013,"nal":1014,"Ġes":1015,"Ġstruct":1016,"Ġmor":1017,"Ġmechan":1018,"Ġocc":1019,"osph":1020,"irst":1021,"av":1022,"ung":1023,"Ġsm":1024,"endent":1025,"med":1026,"hy":1027,"Ġchang":1028,"reated":1029,"led":1030,"Ġvalu":1031,"Ġgener":1032,"ok":1033,"ry":1034,"Ġtiss":1035,"Ġloc":1036,"ane":1037,"Ġ19":1038,"Ġox":1039,"Ġtech":1040,"Ġthree":1041,"Ġreceptor":1042,"eth":1043,"Ġimport":1044,"ĠK":1045,"ucle":1046,"ensi":1047,"asc":1048,"Ġdemonstr":1049,"ack":1050,"iod":1051,"Ġgrow":1052,"fer":1053,"ort":1054,"Ġthere":1055,"rough":1056,"pa":1057,"sy":1058,"Ġresponse":1059,"Ġcal":1060,"Ġwhen":1061,"Ġtest":1062,"Ġprocess":1063,"ful":1064,"ions":1065,"Ġrespectively":1066,"Ġfirst":1067,"old":1068,"omen":1069,"Ġeff":1070,"Ġsuch":1071,"othe":1072,"tics":1073,"Ġdrug":1074,"erative":1075,"ulated":1076,"itive":1077,"arly":1078,"ines":1079,"ental":1080,"Ġdevelopment":1081,"Ġthose":1082,"tivity":1083,"fore":1084,"Ġexamin":1085,"Ġfactors":1086,"ress":1087,"Ġtherapy":1088,"now":1089,"Ġ12":1090,"Ġ+/-":1091,"Ġsol":1092,"Ġdisc":1093,"ores":1094,"Ġcare":1095,"Ġsuggest":1096,"ected":1097,"ational":1098,"urther":1099,"Ġrole":1100,"Ġhyper":1101,"ough":1102,"ene":1103,"Ġnumb":1104,"requ":1105,"Ġincrease":1106,"xim":1107,"Ġpa":1108,"ft":1109,"ise":1110,"Ġdetermin":1111,"Ġchanges":1112,"Ġcyt":1113,"Ġinvol":1114,"Ġrepor":1115,"Ġconf":1116,"ould":1117,"ymp":1118,"Ġtotal":1119,"Ġcorrel":1120,"10":1121,"ram":1122,"ths":1123,"Ġmus":1124,"ived":1125,"Ġnormal":1126,"zed":1127,"Ġmolec":1128,"Ġprim":1129,"ody":1130,"ĠHowever":1131,"Ġperformed":1132,"Ġradi":1133,"ependent":1134,"Ġhyp":1135,"gan":1136,"ie":1137,"Ġpop":1138,"pha":1139,"amm":1140,"Ġ[":1141,"Ġlong":1142,"Ġthrough":1143,"Ġplas":1144,"val":1145,"Ġreview":1146,"Ġspecific":1147,"ek":1148,"crib":1149,"its":1150,"Ġchildren":1151,"Ġfe":1152,"ased":1153,"Ġaut":1154,"que":1155,"Ġinj":1156,"Ġpredic":1157,"ize":1158,"ha":1159,"Ġaddition":1160,"urrent":1161,"Ġcould":1162,"Ġsubjec":1163,"las":1164,"II":1165,"are":1166,"Ġexperim":1167,"qui":1168,"Ġmy":1169,"Ġlower":1170,"art":1171,"Ġextr":1172,"ilar":1173,"ascular":1174,"ently":1175,"Ġgrowth":1176,"Ġmulti":1177,"istr":1178,"Ġperiod":1179,"Ġfib":1180,"Ġpotential":1181,"zym":1182,"Ġmg":1183,"Ġantib":1184,"Ġgra":1185,"Ġoutc":1186,"ardi":1187,"Ġless":1188,"Ġcr":1189,"Ġvit":1190,"Ġnumber":1191,"ues":1192,"Ġfrequ":1193,"Ġmain":1194,"ography":1195,"ival":1196,"ymptom":1197,"ock":1198,"Ġcont":1199,"Ġamong":1200,"Ġtumor":1201,"Ġcardi":1202,"sible":1203,"Ġmemb":1204,"Ġstim":1205,"Ġimportant":1206,"ĠThere":1207,"ian":1208,"atal":1209,"olic":1210,"ages":1211,"Ġfinding":1212,"ties":1213,"vention":1214,"Ġflu":1215,"over":1216,"omes":1217,"Ġrats":1218,"Ġcomplex":1219,"cle":1220,"Ġcase":1221,"Ġmonths":1222,"Ġwomen":1223,"Ġcombin":1224,"Ġwithin":1225,"operative":1226,"Ġwithout":1227,"ior":1228,"Ġapp":1229,"arge":1230,"Ġdeg":1231,"Ġj":1232,"iel":1233,"ality":1234,"Ġmut":1235,"ospit":1236,"Ġchem":1237,"Ġcalc":1238,"iter":1239,"Ġselec":1240,"Ġmean":1241,"Ġtype":1242,"Ġneuro":1243,"In":1244,"ocyt":1245,"Ġdid":1246,"Ġtechni":1247,"ily":1248,"ind":1249,"].":1250,"Ġdays":1251,"Ġpat":1252,"Ġdo":1253,"ins":1254,"05":1255,"ested":1256,"ness":1257,"li":1258,"plant":1259,"Ġhem":1260,"erv":1261,"Ġep":1262,"Ġindi":1263,"vious":1264,"Ġvir":1265,"Ġsequ":1266,"Ġarter":1267,"ty":1268,"amet":1269,"Ġdescrib":1270,"ced":1271,"Ġsurf":1272,"lymph":1273,"ĠDNA":1274,"Ġsimilar":1275,"Ġoccur":1276,"ake":1277,"Ġaffec":1278,"ains":1279,"ingle":1280,"Ġreve":1281,"erc":1282,"ples":1283,"ĠIt":1284,"Ġdel":1285,"Ġcap":1286,"Ġmal":1287,"amine":1288,"Ġtissue":1289,"etic":1290,"ield":1291,"br":1292,"Ġknow":1293,"Ġconsid":1294,"Ġexpos":1295,"ice":1296,"Ġwork":1297,"Ġeach":1298,"50":1299,"ann":1300,"itis":1301,"int":1302,"co":1303,"Ġreported":1304,"Ġlim":1305,"Ġgreat":1306,"acy":1307,"ified":1308,"induced":1309,"Ġisol":1310,"hesis":1311,"ically":1312,"rect":1313,"jor":1314,"Ġprot":1315,"Ġref":1316,"Ġdep":1317,"%,":1318,"Ġcy":1319,"Ġneed":1320,"rop":1321,"Ġincluding":1322,"Ġmetab":1323,"omet":1324,"Ġcaus":1325,"havi":1326,"ish":1327,"Ġsurv":1328,"Ġphosph":1329,"hip":1330,"tis":1331,"ety":1332,"Ġhydro":1333,"Ġrequi":1334,"Ġresp":1335,"Ġinflu":1336,"ĠJ":1337,"atis":1338,"Ġobtained":1339,"Ġtreated":1340,"Ġsome":1341,"Ġbased":1342,"Ġrele":1343,"Ġfr":1344,"ited":1345,"Ġpresence":1346,"ĠSt":1347,"Ġcommon":1348,"Ġdiagnosis":1349,"Ġsymptom":1350,"Ġter":1351,"otic":1352,"Ġcompar":1353,"12":1354,"Ġlymph":1355,"Ġso":1356,")-":1357,"Ġtem":1358,"Ġour":1359,"reg":1360,"Ġmajor":1361,"Ġsurgery":1362,"eng":1363,"Ġsingle":1364,"Ġweek":1365,"Ġ20":1366,"vidual":1367,"amic":1368,"Ġnucle":1369,"Ġreveal":1370,"Ġfindings":1371,"Ġvol":1372,"Ġmice":1373,"ĠAn":1374,"Ġpositive":1375,"Ġanaly":1376,"Ġidentified":1377,"iron":1378,"arget":1379,"Ġ200":1380,"Ġconcentration":1381,"ication":1382,"Ġincreas":1383,"Ġ-":1384,"Ġdifferences":1385,"Ġbec":1386,"Ġmark":1387,"Ġenzym":1388,"con":1389,"Ġabs":1390,"Ġsensi":1391,"GF":1392,"Ġprovid":1393,"Ġvis":1394,"aneous":1395,"Ġsynt":1396,"Ġconcentrations":1397,"Ġsecond":1398,"Ġstudied":1399,"Ġel":1400,"ites":1401,"ospital":1402,"Ġlip":1403,"RNA":1404,"trib":1405,"Ġsever":1406,"ditions":1407,"Ġpoly":1408,"Ġsmall":1409,"isms":1410,"Ġserum":1411,"Ġcult":1412,"Ġbehavi":1413,"af":1414,"ulin":1415,"Ġreduced":1416,"eration":1417,"Ġorgan":1418,"Ġadmin":1419,"Ġpress":1420,"Ġdecreased":1421,"aging":1422,"ves":1423,"Ġwhile":1424,"cent":1425,"kin":1426,"of":1427,"arm":1428,"sych":1429,"Ġmeasured":1430,"ately":1431,"Ġprimary":1432,"Ġdose":1433,"Ġrece":1434,"Ġearly":1435,"ronic":1436,"Ġconditions":1437,"Ġprom":1438,"ross":1439,"crip":1440,"Ġrelated":1441,"onal":1442,"epti":1443,"Ġshould":1444,"Ġdue":1445,"Ġfem":1446,"ither":1447,"Ġbrain":1448,"Ġtra":1449,"Ġdiagnos":1450,"Ġ15":1451,"Ġindividual":1452,"Ġiniti":1453,"Ġrati":1454,"ink":1455,"though":1456,"tric":1457,"Ġclass":1458,"och":1459,"Ġliver":1460,"Ġplasma":1461,"actions":1462,"Ġpopulation":1463,"Ġlarge":1464,"rome":1465,"Ġmembran":1466,"ving":1467,"hel":1468,"Ġol":1469,"vere":1470,"lamm":1471,"Ġpers":1472,"vement":1473,"Ġabout":1474,"str":1475,"ished":1476,"ĠCh":1477,"Ġspecies":1478,"ateg":1479,"Ġeffective":1480,"Ġpattern":1481,"Ġmat":1482,"Ġprevious":1483,"Ġevidence":1484,"ression":1485,"oun":1486,"ect":1487,"Ġsubjects":1488,"Ġproteins":1489,"uce":1490,"Ġinvestigated":1491,"Ġreport":1492,"Ġacute":1493,"Ġexpl":1494,"CT":1495,"Ġles":1496,"Ġfollowing":1497,"anti":1498,"Ġinfection":1499,"Ġtarget":1500,"ests":1501,"Â±":1502,"ick":1503,"ission":1504,"Ġdeveloped":1505,"Ġproced":1506,"Ġder":1507,"iver":1508,"Ġav":1509,"earch":1510,"Ġenh":1511,"Ġaim":1512,"Ġ\"":1513,"ypes":1514,"Ġproper":1515,"Ġsamples":1516,"Ġprol":1517,"ening":1518,"Ġinduced":1519,"omy":1520,"Ġele":1521,"medi":1522,"Ġbone":1523,"based":1524,"ensity":1525,"ife":1526,"CR":1527,"Ġlead":1528,"ationship":1529,"ax":1530,"sing":1531,"Ġ30":1532,"Ġimp":1533,"lyc":1534,"Ġsurface":1535,"Ġbinding":1536,"gative":1537,"Ġcharacteris":1538,"Ġinform":1539,"Ġsurvival":1540,"Ġul":1541,"Ġcomplic":1542,"Ġphys":1543,"Ġrevealed":1544,"Ġgas":1545,"Ġdemonstrated":1546,"verse":1547,"ĠCD":1548,"Ġthey":1549,"CA":1550,"Ġhep":1551,"Ġpressure":1552,"Ġchrom":1553,"ade":1554,"Ġvalues":1555,"ause":1556,"Ġchronic":1557,"anced":1558,"oles":1559,"Ġagain":1560,"Ġdifferenti":1561,"ification":1562,"Ġprov":1563,"mine":1564,"Ġevaluated":1565,"eu":1566,"Ġnec":1567,"ption":1568,"Ġanim":1569,"Ġpain":1570,"Ġvs":1571,"Ġinjur":1572,"Ġfour":1573,"Ġ14":1574,"Ġprac":1575,"Ġelectro":1576,"Ġcurrent":1577,"Ġpul":1578,"Ġ11":1579,"Ġpur":1580,"Ġpolym":1581,"Ġstructure":1582,"roph":1583,"term":1584,"oss":1585,"Ġstand":1586,"ator":1587,"MP":1588,"001":1589,"Ġdetermined":1590,"Ġproduc":1591,"agement":1592,"Ġvitro":1593,"Ġest":1594,"Ġprof":1595,"Ġadv":1596,"pe":1597,"Ġrelationship":1598,"ocytes":1599,"Ġpe":1600,"ethyl":1601,"SA":1602,"Ġfam":1603,"Ġfl":1604,"Ġcarcin":1605,"Ġexamined":1606,"Ġsynd":1607,"Ġ24":1608,"ateral":1609,"tory":1610,"esis":1611,"ĠTo":1612,"Ġcoun":1613,"me":1614,"Ġapproach":1615,"Ġlocal":1616,"Ġur":1617,"Ġrates":1618,"Ġincluded":1619,"Ġdetermine":1620,"Ġapplic":1621,"Ġstress":1622,"Ġang":1623,"roscop":1624,"Ġbefore":1625,"Ġresist":1626,"sequ":1627,"Ġext":1628,"Ġphen":1629,"icity":1630,"Ġwater":1631,"elf":1632,"Ġdiscus":1633,"Ġfail":1634,"ole":1635,"Ġlab":1636,"ials":1637,"ynamic":1638,"Ġmolecular":1639,"Ġbeta":1640,"ocy":1641,"onic":1642,"Ġmater":1643,"Ġagainst":1644,"ĠAs":1645,"andom":1646,"Ġmethods":1647,"Ġfurther":1648,"Ġoper":1649,"(-":1650,"Ġdiab":1651,"ences":1652,"Ġcle":1653,"Ġparamet":1654,"Ġregion":1655,"Ġneur":1656,"ellular":1657,"Ġresearch":1658,"Ġgenes":1659,"Ġequ":1660,"Ġeither":1661,"olar":1662,"Ġalpha":1663,"Ġ13":1664,"Ġval":1665,"omic":1666,"Ġfunctional":1667,"icient":1668,"Ġtherap":1669,"Ġsame":1670,"pressed":1671,"vent":1672,"ologic":1673,"Ġrelative":1674,"Ġnan":1675,"Ġsus":1676,"Ġline":1677,"Ġos":1678,"related":1679,"taining":1680,"Ġdesign":1681,"iat":1682,"Ġbody":1683,"Ġ18":1684,"11":1685,"Ġestim":1686,"Ġactivation":1687,"ĠCI":1688,"Ġsymptoms":1689,"PA":1690,"opath":1691,"ults":1692,"Ġexc":1693,"uted":1694,"Ġpathw":1695,"otherapy":1696,"omp":1697,"Ġintra":1698,"ĠÎ":1699,"ists":1700,"abl":1701,"tomy":1702,"Ġproduction":1703,"ulations":1704,"Ġgreater":1705,"Ġdistrib":1706,"Ġratio":1707,"Ġformation":1708,"viron":1709,"Ġflow":1710,"went":1711,"Ġsu":1712,"Ġquality":1713,"ules":1714,"ochem":1715,"ning":1716,"Ġset":1717,"Ġweight":1718,"Ġ16":1719,"year":1720,"Ġpsych":1721,"Ġgluc":1722,"arc":1723,"Ġrandom":1724,"az":1725,"Ġinformation":1726,"yr":1727,"Ġhist":1728,"Ġvarious":1729,"Ġshown":1730,"atus":1731,"uration":1732,"Ġmm":1733,"Ġproperties":1734,"spec":1735,"Ġmuscle":1736,"Ġhospital":1737,"Ġdetected":1738,"Ġphase":1739,"Ġexperi":1740,"Ġcir":1741,"Ġsyndrome":1742,"Ġrange":1743,"Ġelectr":1744,"Ġmass":1745,"Ġwhether":1746,"ĠII":1747,"lor":1748,"tality":1749,"hydro":1750,"dependent":1751,"Ġcompound":1752,"istration":1753,"Ġexposure":1754,"Ġweeks":1755,"emia":1756,"ension":1757,"Ġpossible":1758,"Ġdys":1759,"ae":1760,"to":1761,"ude":1762,"Ġcontrib":1763,"Ġdifference":1764,"Ġlung":1765,"Ġprob":1766,"tically":1767,"Ġsignal":1768,"Ġmanagement":1769,"Ġparticip":1770,"ision":1771,"IV":1772,"orph":1773,"active":1774,"Ġwill":1775,"Ġlife":1776,"Ġu":1777,"Ġmembrane":1778,"Ġmetabol":1779,"Ġloss":1780,"oly":1781,"Ġbacter":1782,"Ġvirus":1783,"Ġreduction":1784,"Ġprovide":1785,"ographic":1786,"Ġ95":1787,"iciency":1788,"kg":1789,"Ġcat":1790,"Ġany":1791,"tros":1792,"line":1793,"Ġheart":1794,"Ġsevere":1795,"ĠOur":1796,"Ġve":1797,"Ġhis":1798,"Ġchange":1799,"Ġtox":1800,"Ġcarb":1801,"Ġwhereas":1802,"Ġconcl":1803,"onses":1804,"inc":1805,"gl":1806,"Ġrecom":1807,"imin":1808,"Ġ201":1809,"roup":1810,"atin":1811,"Ġdom":1812,"Ġmultiple":1813,"Ġdirect":1814,"Ġred":1815,"Ġseveral":1816,"Ġinvolved":1817,"Ġmortality":1818,"Ġ50":1819,"Ġanalys":1820,"Ġconduc":1821,"ison":1822,"Ġsupport":1823,"Ġsurgical":1824,"ĠIL":1825,"Ġrepres":1826,"Ġrenal":1827,"ides":1828,"Ġsize":1829,"13":1830,"Ġtechnique":1831,"Ġinflamm":1832,"Ġnovel":1833,"ĠX":1834,"stand":1835,"Ġmedical":1836,"entric":1837,"19":1838,"Ġconfir":1839,"Cs":1840,"Ġcontrols":1841,"atures":1842,"ĠÂ±":1843,"Ġcompon":1844,"Ġnegative":1845,"Ġgu":1846,"ĠAll":1847,"ocardi":1848,"ling":1849,"Ġreaction":1850,"Ġresponses":1851,"To":1852,"inf":1853,"ysi":1854,"Ġ100":1855,"Ġpart":1856,"20":1857,"15":1858,"gn":1859,"Ġresid":1860,"Ġculture":1861,"ording":1862,"Ġmuc":1863,"utr":1864,"Ġtemper":1865,"Ġassessed":1866,"ergy":1867,"Ġenviron":1868,"Ġstrong":1869,"hibition":1870,"Ġcycl":1871,"Ġimaging":1872,"odies":1873,"Ġdiet":1874,"Ġsex":1875,"Ġappear":1876,"mit":1877,"TP":1878,"iven":1879,"Ġoxid":1880,"olution":1881,"iving":1882,"Ġparameters":1883,"Ġed":1884,"Ġgeneral":1885,"Ġperformance":1886,"ances":1887,"ivo":1888,"Ġmechanisms":1889,"Ġdetection":1890,"pair":1891,"Ġdeath":1892,"Ġday":1893,"Ġsuccess":1894,"14":1895,"Ġcontin":1896,"ward":1897,"Ġproble":1898,"Ġknown":1899,"row":1900,"Ġavail":1901,"Ġstrateg":1902,"ode":1903,"Ġscre":1904,"ancy":1905,"Ġactive":1906,"enter":1907,"Ġach":1908,"Ġisolated":1909,"MS":1910,"Ġmechanism":1911,"ised":1912,"Ġmagn":1913,"reast":1914,"cept":1915,"ĠFurther":1916,"ained":1917,"Ġinjury":1918,"Ġcollec":1919,"Ġanalyzed":1920,"Ġevaluate":1921,"ĠQ":1922,"Ġpresented":1923,"Ġphot":1924,"adi":1925,"trans":1926,"eutic":1927,"Ġmen":1928,"Ġvolum":1929,"Ġarea":1930,"25":1931,"ined":1932,"gr":1933,"Ġstandard":1934,"Ġdecrease":1935,"ters":1936,"Ġvivo":1937,"Ġvalue":1938,"Ġsal":1939,"AP":1940,"asis":1941,"Ġlesions":1942,"Ġparticular":1943,"Ġestabl":1944,"Ġcharacteristics":1945,"monary":1946,"Ġz":1947,"18":1948,"Ġenzyme":1949,"verage":1950,"Ġachie":1951,"95":1952,"des":1953,"ĠAm":1954,"Ġcere":1955,"terior":1956,"Ġcontrast":1957,"oplas":1958,"Ġoutcomes":1959,"Ġcommun":1960,"Ġver":1961,"Ġoutcome":1962,"Ġpregn":1963,"Ġlike":1964,"ove":1965,"OR":1966,"ended":1967,"let":1968,"Ġ.":1969,"Ġ25":1970,"Ġpepti":1971,"Ġbehavior":1972,"ulf":1973,"ogenesis":1974,"gra":1975,"like":1976,"Ġassociation":1977,"pose":1978,"Ġvi":1979,"chem":1980,"ule":1981,"Ġresistance":1982,"ds":1983,"Ġmodels":1984,"entral":1985,"ĠRes":1986,"ler":1987,"Ġleft":1988,"cription":1989,"Ġmorph":1990,"CC":1991,"Ġfield":1992,"Ġmit":1993,"Ġmany":1994,"sis":1995,"Ġ17":1996,"ĠRe":1997,"ygen":1998,"Ġstatis":1999,"Ġcirc":2000,"Ġcomplete":2001,"Ġincreasing":2002,"Ġallow":2003,"orb":2004,"Ġvery":2005,"ust":2006,"plement":2007,"Ġbreast":2008,"Ġrap":2009,"itation":2010,"Ġresult":2011,"Ġpreval":2012,"Ġprost":2013,"Ġevaluation":2014,"estion":2015,"Ġsystems":2016,"ital":2017,"ĠFor":2018,"specific":2019,"opt":2020,"Ġorder":2021,"ĠOn":2022,"other":2023,"Ġadministration":2024,"mic":2025,"opro":2026,"ogn":2027,"ĠCa":2028,"Ġincidence":2029,"Ġself":2030,"Ġadj":2031,"Ġpub":2032,"Ġidentify":2033,"eta":2034,"Ġindicate":2035,"normal":2036,"yro":2037,"Ġdos":2038,"Ġdiseases":2039,"ĠAt":2040,"Ġfollowed":2041,"Ġfrequency":2042,"Ġassay":2043,"oad":2044,"Ġfoc":2045,"uk":2046,"eding":2047,"Ġconsidered":2048,"posed":2049,"ually":2050,"Ġinhibition":2051,"atients":2052,"respon":2053,"ture":2054,"Ġfat":2055,"Ġcomplications":2056,"Ġx":2057,"Ġhealthy":2058,"Ġstatus":2059,"Ġenvironment":2060,"Ġsaf":2061,"ull":2062,"ably":2063,"Ġdescribed":2064,"ours":2065,"Ġconsist":2066,"Ġcompos":2067,"16":2068,"ouse":2069,"Ġultr":2070,"ogenic":2071,"etes":2072,"Ġexperimental":2073,"itu":2074,"icacy":2075,"ĠEx":2076,"Ġemb":2077,"ocial":2078,"Ġmale":2079,"enef":2080,"AD":2081,"Ġcorrelation":2082,"bility":2083,"Ġbeing":2084,"Ġhel":2085,"Ġbecause":2086,"Ġextrac":2087,"Ġcardiac":2088,"oring":2089,"Ġcaused":2090,"order":2091,"Ġfil":2092,"Ġte":2093,"Ġinfluence":2094,"Ġsuper":2095,"ĠCon":2096,"Ġtumors":2097,"ĠmRNA":2098,"vic":2099,"tice":2100,"Ġsite":2101,"Ġregul":2102,"ĠAd":2103,"Ġblock":2104,"Ġvia":2105,"ques":2106,"plantation":2107,"Th":2108,"uble":2109,"arb":2110,"tegr":2111,"Ġstate":2112,"Ġhowever":2113,"Ġanimals":2114,"RI":2115,"Ġtested":2116,"rees":2117,"Ġhom":2118,"Ġdistribution":2119,"ands":2120,"enz":2121,"Ġsensitivity":2122,"Ġoptim":2123,"Ġpercent":2124,"Ġcarcinoma":2125,"amp":2126,"Ġaccur":2127,"ner":2128,"orption":2129,"mal":2130,"Ġamin":2131,"Ġreceived":2132,"%),":2133,"ĠPro":2134,"Ġtub":2135,"tex":2136,"Ġskin":2137,"oy":2138,"We":2139,"Ġimprove":2140,"els":2141,"AS":2142,"Ġdist":2143,"Ġ>":2144,"otox":2145,"Ġexhibit":2146,"Ġmetast":2147,"Ġrelease":2148,"Ġmac":2149,"Ġdrugs":2150,"Ġprolif":2151,"ĠAc":2152,"Ġfree":2153,"Ġrapid":2154,"Ġatt":2155,"erence":2156,"ĠAfter":2157,"Ġinvestigate":2158,"Ġunderstand":2159,"Ġpharm":2160,"Ġhighly":2161,"ible":2162,"Ġkin":2163,"Ġbenef":2164,"mission":2165,"Ġindependent":2166,"vers":2167,"Ġimproved":2168,"Ġstimul":2169,"CD":2170,"Ġrequired":2171,"cence":2172,"ones":2173,"Ġartery":2174,".,":2175,"Ġindex":2176,"ylation":2177,"ength":2178,"Ġtherapeutic":2179,"antit":2180,"abil":2181,"Ġnit":2182,"Ġinsulin":2183,"000":2184,"Ġassessment":2185,"Ġsynthesis":2186,"Ġglucose":2187,"onary":2188,"last":2189,"Ġatten":2190,"Ġgenetic":2191,"rag":2192,"ĠNo":2193,"Ġcombination":2194,"Ġfailure":2195,"ially":2196,"Ġepit":2197,"lex":2198,"Ġrecord":2199,"Ġavailable":2200,"Ġbetter":2201,"plied":2202,"iatric":2203,"Ġir":2204,"Ġfamily":2205,"ses":2206,"eric":2207,"Ġtypes":2208,"tors":2209,"Ġsecre":2210,"Ġmonit":2211,"%).":2212,"17":2213,"orders":2214,"Ġartic":2215,"Ġmaxim":2216,"ount":2217,"Ġpreviously":2218,"Ġvac":2219,"Ġvers":2220,"ĠCl":2221,"Ġsites":2222,"Ġliter":2223,"Ġcross":2224,"round":2225,"otype":2226,"Ġcontent":2227,"omas":2228,"Ġinfec":2229,"Ġcoll":2230,"rogen":2231,"Ġuseful":2232,"%.":2233,"Ġproduced":2234,"go":2235,"Ġvolume":2236,"ai":2237,"Ġif":2238,"PS":2239,"Ġtemperature":2240,"--":2241,"oung":2242,"tension":2243,"ient":2244,"rob":2245,"Ġoste":2246,"Ġimpact":2247,"uction":2248,"Ġshort":2249,"sc":2250,"inary":2251,"hesi":2252,"rol":2253,"Ġcompounds":2254,"romb":2255,"ĠAlthough":2256,"Ġsample":2257,"Ġfeatures":2258,"eline":2259,"DS":2260,"Ġprec":2261,"Ġprocedure":2262,"Ġabnormal":2263,"Ġoral":2264,"Ġlig":2265,"Ġenergy":2266,"Ġer":2267,"hetic":2268,"Ġreceptors":2269,"own":2270,"Ġhorm":2271,"Ġlight":2272,"Ġcarri":2273,"rent":2274,"Ġadult":2275,"ochemical":2276,"entricular":2277,"ols":2278,"Ġvascular":2279,"Ġtransi":2280,"tial":2281,"Ġrepresent":2282,"Ġindicated":2283,"Ġcause":2284,"Ġfive":2285,"ration":2286,"Ġadd":2287,"Ġefficacy":2288,"Ġreduc":2289,"Ġ40":2290,"Ġstage":2291,"Ġdiabetes":2292,"vant":2293,"Ġprevalence":2294,"ored":2295,"Ġactivities":2296,"Ġmedi":2297,"erve":2298,"urrence":2299,"Ġsubst":2300,"Ġdam":2301,"urn":2302,"ocyte":2303,"Ġsequence":2304,"ct":2305,"ĠUn":2306,"aining":2307,"oxid":2308,"idity":2309,"ince":2310,"omal":2311,"Ġunderwent":2312,"Ġdegrees":2313,"Ġ199":2314,"Ġability":2315,"CI":2316,"Ġaden":2317,"Ġdisorders":2318,"Ġpostoperative":2319,"Ġunc":2320,"Ġwhere":2321,"Ġpaper":2322,"Ġtrain":2323,"Ġcontinu":2324,"Ġthen":2325,"ĠCT":2326,"Ġliterature":2327,"Ġangi":2328,"Ġconducted":2329,"Ġbel":2330,"reatment":2331,"ST":2332,"Ġsepar":2333,"alpha":2334,"bral":2335,"Ġapopt":2336,"set":2337,"Ġthem":2338,"ĠpH":2339,"Ġcur":2340,"Ġoverall":2341,"hest":2342,"Ġcorrelated":2343,"othel":2344,"30":2345,"Ġapplied":2346,"izing":2347,"ising":2348,"Ġvisual":2349,"Ġinteraction":2350,"Ġelev":2351,"Ġnur":2352,"Ġpulmonary":2353,"Ġcoronary":2354,"Ġphysical":2355,"istic":2356,"ray":2357,"Ġtechniques":2358,"Ġorig":2359,"Ġgood":2360,"ĠZ":2361,"Ġinitial":2362,"Ġeth":2363,"oscop":2364,"Ġstimulation":2365,"rh":2366,"beta":2367,"NF":2368,"Ġintrac":2369,"Ġill":2370,"Ġlipid":2371,"ales":2372,"Ġsl":2373,"Cl":2374,"Ġyoung":2375,"Ġexpressed":2376,"Ġspectr":2377,"Ġheter":2378,"Ġsurve":2379,"Ġsch":2380,"dom":2381,"OS":2382,"Ġmix":2383,"Ġversus":2384,"Ġmade":2385,"Ġprogram":2386,"Ġleast":2387,"ustr":2388,"imension":2389,"Ġoccurred":2390,"Ġintegr":2391,"Ġindividuals":2392,"Ġfocus":2393,"Ġaverage":2394,"emic":2395,"Ġsour":2396,"fusion":2397,"Ġprogn":2398,"Ġmicroscop":2399,"Ġoften":2400,"Ġtissues":2401,"overy":2402,"Ġoxygen":2403,"ave":2404,"tle":2405,"Ġdiscussed":2406,"ipher":2407,"ĠHe":2408,"Ġgiven":2409,"ovascular":2410,"ĠPatients":2411,"Ġmight":2412,"more":2413,"Ġ60":2414,"Ġcombined":2415,"etal":2416,"CS":2417,"Ġobjec":2418,"Ġrecogn":2419,"enced":2420,"Ġtimes":2421,"Ġion":2422,"type":2423,"Ġamino":2424,"Ġtransfer":2425,"ables":2426,"treated":2427,"Ġepid":2428,"Ġda":2429,"Ġcent":2430,"Ġsix":2431,"cell":2432,"Ġcondition":2433,"Ġfemale":2434,"Ġplay":2435,"Ġlikely":2436,"Ġhow":2437,"yroid":2438,"Ġdiagnostic":2439,"Ġapproxim":2440,"Ġcomparison":2441,"+)":2442,"uture":2443,"AT":2444,"Ġsuccessful":2445,"Ġcharacterized":2446,"ledge":2447,"Ġbiological":2448,"Ġprevent":2449,"rosis":2450,"ring":2451,"Ġantibodies":2452,"Ġdiss":2453,"ĠHIV":2454,"AB":2455,"Ġimmune":2456,"Ġminim":2457,"Ġmalign":2458,"Ġtests":2459,"Ġcentral":2460,"day":2461,"Ġoff":2462,"MI":2463,"Ġobserv":2464,"Ġdynamic":2465,"otor":2466,"Ġareas":2467,"Ġleuk":2468,"Ġey":2469,"ĠCom":2470,"Ġpathway":2471,"ĠIm":2472,"Ġutil":2473,"Ġmeasurements":2474,"oint":2475,"ĠCO":2476,"Ġevents":2477,"Ġair":2478,"Ġintervention":2479,"iratory":2480,"io":2481,"agon":2482,"activ":2483,"40":2484,"idne":2485,"Ġquantit":2486,"Ġchall":2487,"occ":2488,"Ġpractice":2489,"ĠIg":2490,"Ġdensity":2491,"Ġcellular":2492,"ask":2493,"ĠHere":2494,"Ġaffected":2495,"ogene":2496,"Ġright":2497,"Ġapplication":2498,"Ġscore":2499,"Ġnat":2500,"Ġcontaining":2501,"ortic":2502,"coh":2503,"Ġpoor":2504,"Ġpatterns":2505,"Ġcriter":2506,"ering":2507,"Ġseen":2508,"Ġthromb":2509,"ators":2510,"Ġantibody":2511,"tif":2512,"Ġdeliver":2513,"Ġpharmac":2514,"rior":2515,"Ġmoder":2516,"utions":2517,"ĠMore":2518,"dr":2519,"Ġplate":2520,"Ġfood":2521,"ey":2522,"Ġplace":2523,"Ġanalyses":2524,"utes":2525,"estinal":2526,"Ġcri":2527,"till":2528,"Ġagents":2529,"Ġeven":2530,"Ġwould":2531,"Ġresulted":2532,"man":2533,"function":2534,"Ġenc":2535,"umin":2536,"Ġultras":2537,"aken":2538,"ergic":2539,"Ġinhibitor":2540,"Ġprocesses":2541,"Ġcollected":2542,"Ġepithel":2543,"Ġov":2544,"istered":2545,"Ġquestion":2546,"Ġdemonstrate":2547,"ectomy":2548,"Ġfluores":2549,"Ġperipher":2550,"Ġendothel":2551,"Ġneurons":2552,"lying":2553,"ession":2554,"Ġantigen":2555,"Ġemerg":2556,"MA":2557,"artic":2558,"Ġaction":2559,"LA":2560,"Ġwide":2561,"Ġexerc":2562,"Ġsuggested":2563,"Ġplac":2564,"aking":2565,"Ġpotenti":2566,"NP":2567,"Ġtrials":2568,"tensive":2569,"ĠRNA":2570,"Ġrepe":2571,"Ġexperiments":2572,"Ġnerve":2573,"Ġrare":2574,"utaneous":2575,"ta":2576,"Ġconfirmed":2577,"terol":2578,"ĠY":2579,"Ġrecent":2580,"ĠFurthermore":2581,"plac":2582,"Ġglyc":2583,"DL":2584,"Ġproposed":2585,"Ġlength":2586,"Ġinteractions":2587,"Ġmid":2588,"Ġduration":2589,"pected":2590,"atitis":2591,"unctions":2592,"ious":2593,"Ġphysi":2594,"work":2595,"Ġstructures":2596,"Ġincreases":2597,"Ġfluid":2598,"23":2599,"Ġcour":2600,"Ġkidne":2601,"Ġknowledge":2602,"Ġtranscription":2603,"24":2604,"Ġalter":2605,"Ġstrains":2606,"rial":2607,"Ġkinase":2608,"amma":2609,"Ġsocial":2610,"Ġher":2611,"Ġadults":2612,"ĠEn":2613,"Ġexp":2614,"Ġregression":2615,"ĠSc":2616,"ET":2617,"rad":2618,"agen":2619,"Ġrecomm":2620,"Ġi":2621,"Ġinhibited":2622,"Ġmouse":2623,"Ġscreening":2624,"ral":2625,"An":2626,"Ġeduc":2627,"pre":2628,"ER":2629,"Ġmyocardi":2630,"Ch":2631,"Ġnet":2632,"Ġauth":2633,"Ġhistory":2634,"oti":2635,"rin":2636,"Ġant":2637,"urg":2638,"Ġpanc":2639,"Ġtechn":2640,"Ġaccording":2641,"Ġexamination":2642,"Ġenhanced":2643,"Ġess":2644,"get":2645,"Ġsubstr":2646,"Ġhead":2647,"Ġlink":2648,"arch":2649,"etry":2650,"Ġpros":2651,"Ġsolution":2652,"Ġchemical":2653,"Ġproliferation":2654,"Ġinjection":2655,"Ġdamage":2656,"ploy":2657,"ochond":2658,"CP":2659,"pri":2660,"60":2661,"ilic":2662,"ĠMed":2663,"ired":2664,"Ġ'":2665,"Ġsens":2666,"Ġaff":2667,"RA":2668,"Ġprior":2669,"pect":2670,"Ġcalcium":2671,"Ġlabor":2672,"Ġbasis":2673,"Ġregions":2674,"Ġsubsequ":2675,"vices":2676,"isted":2677,"Ġcapac":2678,"LC":2679,"Ġsuggests":2680,"Ġfew":2681,"olec":2682,"Ġadhe":2683,"DA":2684,"Ġconstr":2685,"This":2686,"Ġscores":2687,"Ġmeasures":2688,"Ġapoptosis":2689,"fac":2690,"sp":2691,"Ġ21":2692,"Ġcatal":2693,"fold":2694,"hort":2695,"put":2696,"Ġbaseline":2697,"brid":2698,"oster":2699,"Ġbiom":2700,"Ġelectron":2701,"Ġtraining":2702,"Ġax":2703,"Ġperipheral":2704,"Ġhelp":2705,"BP":2706,"22":2707,"take":2708,"Ġimplic":2709,"Ġischem":2710,"Ġphosphor":2711,"Ġseries":2712,"lation":2713,"Ġbir":2714,"Ġaltern":2715,"Ġtoward":2716,"Ġbil":2717,"Ġmel":2718,"Ġdisorder":2719,"Ġexperience":2720,"Ġmedic":2721,"inic":2722,"Ġacids":2723,"Ġselected":2724,"cy":2725,"uter":2726,"Ġpregnancy":2727,"Ġpor":2728,"Ġhypot":2729,"Ġsecondary":2730,"Ġregulation":2731,"Ġdoes":2732,"pecially":2733,"Ġestablished":2734,"fficient":2735,"ze":2736,"oids":2737,"eral":2738,"Ġcolon":2739,"stit":2740,"Ġfract":2741,"Ġpow":2742,"rine":2743,"vice":2744,"Ġcorrespon":2745,"80":2746,"Ġsitu":2747,"odes":2748,"Ġacet":2749,"mat":2750,"Ġagg":2751,"activity":2752,"Ġside":2753,"Ġhand":2754,"Ġcriteria":2755,"MR":2756,"resh":2757,"Ġlimited":2758,"ogni":2759,"ertain":2760,"Ġunderstanding":2761,"Ġapproximately":2762,"Ġretin":2763,"Ġlack":2764,"Ġ22":2765,"lob":2766,"Ġyield":2767,"Ġimprovement":2768,"Ġmetabolism":2769,"Ġtrial":2770,"Ġlay":2771,"Ġinflammatory":2772,"Ġstill":2773,"emi":2774,"ĠThus":2775,"Ġexercise":2776,"Ġsuggesting":2777,"press":2778,"Ġmar":2779,"Ġbiop":2780,"ense":2781,"Ġseg":2782,"Ġhal":2783,"Ġhours":2784,"Ġventricular":2785,"odium":2786,"ĠWith":2787,"Ġnecess":2788,"okine":2789,"orn":2790,"ĠSe":2791,"Ġprovides":2792,"ognitive":2793,"RP":2794,"Ġembry":2795,"Ġcomponents":2796,"tional":2797,"Ġprocedures":2798,"aff":2799,"Ġmolecules":2800,"Ġalone":2801,"ective":2802,"Ġespecially":2803,"ES":2804,"ef":2805,"formation":2806,"Ġdon":2807,"ument":2808,"ulating":2809,"ml":2810,"Ġfer":2811,"Ġretros":2812,"21":2813,"Ġconsum":2814,"omer":2815,"Ġpolymer":2816,"Ġparticipants":2817,"nai":2818,"Ġaccum":2819,"ventional":2820,"Ġundergo":2821,"Ġalcoh":2822,"idine":2823,"utive":2824,"53":2825,"Ġdifferentiation":2826,"phal":2827,"aged":2828,"quid":2829,"ĠRec":2830,"Ġpig":2831,"Ġlat":2832,"ĠPh":2833,"Ġdiffic":2834,"Ġther":2835,"produc":2836,"aw":2837,"mediated":2838,"Ġinvas":2839,"ĠOne":2840,"Ġstrain":2841,"Ġdepend":2842,"Ġpeak":2843,"Ġhip":2844,"anol":2845,"Ġdoses":2846,"Ġadditional":2847,"Ġsw":2848,"Ġrang":2849,"Ġpeptide":2850,"Ġarticle":2851,"Ġachieved":2852,"pite":2853,"Ġinhibitors":2854,"tered":2855,"Ġaffect":2856,"ople":2857,"bo":2858,"Ġconsider":2859,"+/-":2860,"Ġposition":2861,"Ġpropor":2862,"Ġcontrolled":2863,"Ġ23":2864,"ĠTwo":2865,"ĠWhen":2866,"Ġalthough":2867,"Ġmes":2868,"inant":2869,"oh":2870,"eness":2871,"Ġtesting":2872,"100":2873,"Ġlines":2874,"app":2875,"Ġ28":2876,"Ġchain":2877,"Ġmetabolic":2878,"ressive":2879,"hydrox":2880,"Ġinfections":2881,"Ġdaily":2882,"Ġguid":2883,"Ġthus":2884,"Ġdescribe":2885,"erest":2886,"ese":2887,"Ġstep":2888,"Ġprovided":2889,"part":2890,"Ġfrag":2891,"Ġdelivery":2892,"Ġsimple":2893,"Ġclear":2894,"Ġproducts":2895,"irus":2896,"Ġchromat":2897,"Ġinterval":2898,");":2899,"Ġmedium":2900,"Ġmedian":2901,"DNA":2902,"Ġfraction":2903,"osa":2904,"pt":2905,"Ġfunctions":2906,"PD":2907,"ĠOf":2908,"Ġreduce":2909,"ĠAD":2910,"Ġstructural":2911,"Ġmarked":2912,"Ġchromos":2913,"27":2914,"SD":2915,"Ġreflec":2916,"Ġchann":2917,"Ġselective":2918,"SH":2919,"Ġconcer":2920,"Ġproblems":2921,"Ġkey":2922,"Ġcritical":2923,"icial":2924,"Ġcop":2925,"ulate":2926,"Ġkidney":2927,"imens":2928,"Ġstrategies":2929,"Ġcost":2930,"phosph":2931,"Ġback":2932,"Ġantagon":2933,"istry":2934,"Ġparen":2935,"aps":2936,"ints":2937,"Ġreli":2938,"plas":2939,"Ġdiagnosed":2940,"Ġmitochond":2941,"ify":2942,"group":2943,"Ġampl":2944,"Ġhypertension":2945,"Ġessential":2946,"Ġâ":2947,"Ġadverse":2948,"Ġsignaling":2949,"Ġcapacity":2950,"Ġpolymorph":2951,"Ġchemotherapy":2952,"RT":2953,"Ġseem":2954,"Ġcourse":2955,"Ġdistin":2956,"ogenous":2957,"mia":2958,"Ġpurpose":2959,"ayed":2960,"Ġresulting":2961,"Ġrecovery":2962,"Ġuptake":2963,"arding":2964,"Ġexist":2965,"Ġabsence":2966,"Ġload":2967,"atives":2968,"Ġopen":2969,"troph":2970,"oxy":2971,"Ġtransport":2972,"Ġprepar":2973,"Ġmutations":2974,"Ġemploy":2975,"Ġquantitative":2976,"Ġcalculated":2977,"Ġvalid":2978,"olesterol":2979,"Ġfuture":2980,"time":2981,"Ġlas":2982,"Ġdegree":2983,"inity":2984,"ĠMe":2985,"Ġacross":2986,"Ġimportance":2987,"ĠPA":2988,"illary":2989,"Ġreal":2990,"Ġdefined":2991,"reng":2992,"Ġpromot":2993,"70":2994,"anning":2995,"Ġrequire":2996,"Ġhormone":2997,"Ġcarbon":2998,"Ġinduction":2999,"priate":3000,"Ġcm":3001,"Ġrandomized":3002,"Ġdoc":3003,"ĠBoth":3004,"oral":3005,"Ġmig":3006,"Ġtoler":3007,"Ġolder":3008,"Ġdig":3009,"Ġmagnetic":3010,"leep":3011,"Ġintro":3012,"Ġdepression":3013,"icians":3014,"Ġmyocardial":3015,"Ġlimit":3016,"radi":3017,"Ġlarg":3018,"Ġelevated":3019,"Ġrespiratory":3020,"Ġpossi":3021,"Ġdown":3022,"Ġsafety":3023,"Ġchlor":3024,"Ġfacil":3025,"Ġnetwork":3026,"ometric":3027,"free":3028,"tation":3029,"oprotein":3030,"Ġnatural":3031,"log":3032,"Ġcoup":3033,"Ġpopulations":3034,"Ġmarkers":3035,"rix":3036,"Ġcardiovascular":3037,"tid":3038,"oz":3039,"Ġvariables":3040,"Ġinduc":3041,"ges":3042,"aches":3043,"Ġprogression":3044,"Ġstatistically":3045,"oval":3046,"Ġgran":3047,"Ġtop":3048,"Ġprote":3049,"Ġcerebral":3050,"Ġcarried":3051,"ocal":3052,"ĠUsing":3053,"Ġstem":3054,"Effec":3055,"Ġtransplantation":3056,"Ġconventional":3057,"Ġorigin":3058,"Ġenhance":3059,"ococc":3060,"Ġradiation":3061,"Ġsulf":3062,"Ġhepat":3063,"Ġven":3064,"Ġglut":3065,"Ġsmok":3066,"Ġplant":3067,"ame":3068,"Ġadministered":3069,"Ġhighest":3070,"34":3071,"ched":3072,"CO":3073,"Ġcommunity":3074,"Ġremains":3075,"Ġnutr":3076,"Ġsensitive":3077,"Ġstable":3078,"Ġ26":3079,"Ġderived":3080,"Ġadap":3081,"Ġnm":3082,"minal":3083,"Ġdetect":3084,"Ġquanti":3085,"Ġcycle":3086,"35":3087,"26":3088,"28":3089,"Ġrecorded":3090,"Ġarth":3091,"oll":3092,"Ġlit":3093,"amide":3094,"ĠMoreover":3095,"Ġreson":3096,"Ġstreng":3097,"SP":3098,"Ġcryst":3099,"roke":3100,"Ġwor":3101,"Ġtask":3102,"ociated":3103,"Ġinternal":3104,"Ġsum":3105,"Ġclose":3106,"Ġcognitive":3107,"pir":3108,"Ġear":3109,"Ġdirec":3110,"ostic":3111,"neum":3112,"Ġnuclear":3113,"Ġliquid":3114,"Ġmonitoring":3115,"eling":3116,"mediate":3117,"Ġpathways":3118,"Ġaged":3119,"Ġsurvey":3120,"Ġsystemic":3121,"Ġgastric":3122,"38":3123,"Ġauthors":3124,"Ġbio":3125,"Ġanterior":3126,"ird":3127,"ritis":3128,"venous":3129,"Ġarterial":3130,"uded":3131,"oglob":3132,"urb":3133,"Ġmamm":3134,"Ġpoint":3135,"Ġlear":3136,"ometry":3137,"Ġped":3138,"ool":3139,"Ġendothelial":3140,"))":3141,"Ġmeasurement":3142,"Ġ90":3143,"Ġpeople":3144,"CL":3145,"Ġsecretion":3146,"ured":3147,"Ġparticularly":3148,"Ġrepair":3149,"imensional":3150,"Ġderiv":3151,"Ġ35":3152,"Ġtoxicity":3153,"read":3154,"75":3155,"ils":3156,"position":3157,"Ġdysfunction":3158,"90":3159,"Ġtraum":3160,"troscop":3161,"AL":3162,"Ġcohort":3163,"Ġconst":3164,"Ġhybrid":3165,"Ġdouble":3166,"encies":3167,"Ġprotoc":3168,"NS":3169,"As":3170,"Ġonset":3171,"Ġinfants":3172,"Ġexposed":3173,"ina":3174,"ED":3175,"Ġpublic":3176,"cine":3177,"oxide":3178,"Ġsetting":3179,"Ġseverity":3180,"Ġlinear":3181,"truct":3182,"Ġexamine":3183,"ĠIII":3184,"Ġinclude":3185,"Ġmaximum":3186,"opathy":3187,"Ġspon":3188,"Ġnor":3189,"Ġterms":3190,"cepti":3191,"trom":3192,"Ġgo":3193,"Ġneeded":3194,"ĠNa":3195,"Ġtherefore":3196,"Ġpower":3197,"Ġ48":3198,"Ġconsistent":3199,"MD":3200,"cal":3201,"Ġwhole":3202,"Ġestimated":3203,"tiveness":3204,"Ġspecificity":3205,"Ġwall":3206,"'-":3207,"Ġstroke":3208,"Ġtyp":3209,"Ġamount":3210,"elec":3211,"uff":3212,"29":3213,"Ġinjec":3214,"Ġlate":3215,"rac":3216,"Ġupon":3217,"Ġbacterial":3218,"Ġdomain":3219,"uit":3220,"ecutive":3221,"ĠPre":3222,"Ġconver":3223,"Ġvariation":3224,"Ġcomponent":3225,"Ġalcohol":3226,"equ":3227,"Î²":3228,"mod":3229,"Ġregarding":3230,"ĠHealth":3231,"ĠTherefore":3232,"ynt":3233,"Ġmeans":3234,"Ġbest":3235,"Ġstability":3236,"Ġidentification":3237,"Ġiss":3238,"bl":3239,"duce":3240,"Ġproblem":3241,"ported":3242,"Ġtempor":3243,"Ġadoles":3244,"Ġspecial":3245,"ĠPD":3246,"Ġcauses":3247,"Ġmuch":3248,"Ġtreatments":3249,"HR":3250,"Ġquestionnai":3251,"Ġsleep":3252,"Ġreviewed":3253,"Ġshe":3254,"CV":3255,"aph":3256,"encing":3257,"Ġfix":3258,"Ġpancre":3259,"ibr":3260,"EM":3261,"ending":3262,"ĠResults":3263,"Ġmicroscopy":3264,"Ġprep":3265,"Ġimpair":3266,"olip":3267,"immun":3268,"Ġrelatively":3269,"Ġmaterial":3270,"36":3271,"hood":3272,"ld":3273,"Ġalternative":3274,"know":3275,"Ġbro":3276,"Ġcontinuous":3277,"Ġexhibited":3278,"CH":3279,"Ġsodium":3280,"Ġhepatic":3281,"Ġmotor":3282,"Ġster":3283,"Ġintake":3284,"Ġpromo":3285,"Ġsequences":3286,"Ġalle":3287,"Ġspinal":3288,"Ġmutation":3289,"Ġrad":3290,"Ġlaboratory":3291,"Ġdog":3292,"parent":3293,"Ġefficiency":3294,"Ġmodified":3295,"Ġreconstr":3296,"Ġnecessary":3297,"ternal":3298,"rup":3299,"Ġlaser":3300,"ervical":3301,"Ġdispl":3302,"Ġtom":3303,"Ġfrequently":3304,"Ġmatrix":3305,"Ġobjective":3306,"Ġhome":3307,"Ġthick":3308,"land":3309,"Ġinflammation":3310,"Ġcompare":3311,"positive":3312,"Ġhaving":3313,"Ġcomplexes":3314,"Ġmainly":3315,"itude":3316,"Ġbr":3317,"Ġbre":3318,"Ġanimal":3319,"way":3320,"Ġforms":3321,"Ġmyel":3322,"Ġspectroscop":3323,"aring":3324,"aling":3325,"Ġ27":3326,"Ġinvolvement":3327,"CG":3328,"methyl":3329,"Ġ80":3330,"ights":3331,"ĠWh":3332,"CE":3333,"mitted":3334,"versity":3335,"met":3336,"Ġprospective":3337,"Ġreactions":3338,"-(":3339,"Ġurinary":3340,"ĠAp":3341,"Ġprevention":3342,"ultaneous":3343,"clusion":3344,"atient":3345,"Al":3346,"Ġconclusion":3347,"Ġfamil":3348,"Ġsubsequent":3349,"LI":3350,"Ġappropriate":3351,"45":3352,"Ġindicating":3353,"Ġmales":3354,"orpor":3355,"obacter":3356,"Ġcountr":3357,"Ġmem":3358,"CM":3359,"Ġanalog":3360,"Ġimages":3361,"Ġimplement":3362,"ensive":3363,"oding":3364,"Ġmil":3365,"ects":3366,"Ġrespond":3367,"Ġplacebo":3368,"OH":3369,"Ġappears":3370,"be":3371,"Ġmoderate":3372,"Ġable":3373,"orrh":3374,"Ġdegrad":3375,"ariate":3376,"imer":3377,"Ġdistinct":3378,"Ġfemales":3379,"Ġenvironmental":3380,"Ġcholesterol":3381,"Ġaccuracy":3382,"Ġadvanced":3383,"otrop":3384,"iety":3385,"RS":3386,"Ġdifficult":3387,"Ġalong":3388,"Ġextent":3389,"Ġnerv":3390,"Ġlater":3391,"Ġexperiment":3392,"taneous":3393,"Ġrecombin":3394,"Ġcorresponding":3395,"Ġstrategy":3396,"Ġepithelial":3397,"Ġinfarc":3398,"Ġlesion":3399,"Ġresonance":3400,"amb":3401,"Ġmalignant":3402,"Ġcomposition":3403,"raz":3404,"Ġglob":3405,"bb":3406,"Ġphysiological":3407,"den":3408,"Ġsource":3409,"Ġshows":3410,"Ġsper":3411,"ĠIV":3412,"dominal":3413,"Ġchromatography":3414,"Ġstudents":3415,"Ġintracellular":3416,"yg":3417,"inally":3418,"associated":3419,"Ġsuscepti":3420,"thal":3421,"Ġapproaches":3422,"Ġquantif":3423,"Ġcoli":3424,"dimensional":3425,"Ġconsequ":3426,"Ġdeveloping":3427,"outh":3428,"Ġly":3429,"Ġdesigned":3430,"ĠNe":3431,"Ġcontain":3432,"stim":3433,"Ġalg":3434,"Ġmetal":3435,"Ġ45":3436,"flu":3437,"Ġinstr":3438,"acet":3439,"itary":3440,"Ġeducation":3441,"Ġrecently":3442,"Ġinvestigation":3443,"Ġremoval":3444,"Ġlog":3445,"Ġbirth":3446,"ĠGroup":3447,"Ġregard":3448,"acch":3449,"Ġng":3450,"arri":3451,"Ġimm":3452,"99":3453,"EG":3454,"otypes":3455,"Ġresection":3456,"Ġmust":3457,"Ġtrig":3458,"Ġinterest":3459,"Ġ70":3460,"Ġevolution":3461,"gether":3462,"Ġtogether":3463,"Ġintensity":3464,"Ġlast":3465,"Ġgastro":3466,"Ġslow":3467,"ĠPT":3468,"Ġinterf":3469,"Ġbacteria":3470,"ĠST":3471,"Ġview":3472,"iral":3473,"eter":3474,"Ġpneum":3475,"Ġdat":3476,"Ġprop":3477,"Ġconfidence":3478,"Ġdependent":3479,"placement":3480,"MT":3481,"Ġalk":3482,"known":3483,"Ġret":3484,"ination":3485,"Ġthyroid":3486,"Ġenzymes":3487,"PV":3488,"Ġsatis":3489,"Ġrecurrence":3490,"aryn":3491,"ula":3492,"Ġclus":3493,"Ġcos":3494,"Ġroot":3495,"ĠSp":3496,"apa":3497,"Ġtool":3498,"Ġ36":3499,"ĠAmong":3500,"Ġkine":3501,"ii":3502,"Ġdirectly":3503,"33":3504,"itone":3505,"Ġhypothesis":3506,"04":3507,"Ġscale":3508,"Ġremained":3509,"Ġrelevant":3510,"ronch":3511,"ĠÎ¼":3512,"ier":3513,"ics":3514,"Ġlittle":3515,"Ġlateral":3516,"ventions":3517,"Ġapplications":3518,"Ġcontribute":3519,"Ġabove":3520,"Ġsolid":3521,"ella":3522,"Ġsince":3523,"ump":3524,"Ġsumm":3525,"Ġunderlying":3526,"Ġmental":3527,"Ġdetermination":3528,"ns":3529,"Ġinfusion":3530,"Ġspati":3531,"Ġfetal":3532,"Ġsubstanti":3533,"enic":3534,"Ġshif":3535,"Ġfluorescence":3536,"Ġdiabetic":3537,"ason":3538,"less":3539,"Ġhalf":3540,"rit":3541,"Â°":3542,"ings":3543,"Ġrestric":3544,"Ġfatty":3545,"sess":3546,"Ġinhibitory":3547,"Ġprepared":3548,"adder":3549,"Ġneon":3550,"Ġdecreas":3551,"ĠComp":3552,"Ġatr":3553,"ching":3554,"otyp":3555,"Ġsystematic":3556,"range":3557,"Ġerr":3558,"Ġprostate":3559,"ĠAT":3560,"Ġagent":3561,"anal":3562,"Ġpartial":3563,"Ġmacroph":3564,"ĠAr":3565,"ĠDuring":3566,"Ġact":3567,"Ġlarger":3568,"IL":3569,"treatment":3570,"Ġactivated":3571,"Ġure":3572,"iotic":3573,"andid":3574,"Ġ198":3575,"Ġvess":3576,"PC":3577,"Ġtransl":3578,"Ġleading":3579,"Ġconn":3580,"Ġ29":3581,"Ġaortic":3582,"Ġreports":3583,"onucle":3584,"arian":3585,"Ġaccumulation":3586,"Ġpercentage":3587,"Ġmorb":3588,"com":3589,"Ġtet":3590,"Ġble":3591,"Ġmemory":3592,"Ġhost":3593,"Ġcathe":3594,"Ġdiamet":3595,"Ġincorpor":3596,"ĠMS":3597,"cyt":3598,"Ġoperation":3599,"ohist":3600,"Ġtend":3601,"ibility":3602,"umer":3603,"Ġmelan":3604,"rim":3605,"onia":3606,"ĠCA":3607,"ditional":3608,"jection":3609,"Ġsubstrate":3610,"Ġhaem":3611,"Ġrelation":3612,"king":3613,"Ġgel":3614,"Ġprofile":3615,"mean":3616,"derly":3617,"seud":3618,"Ġnanop":3619,"most":3620,"Ġundergoing":3621,"eti":3622,"ifest":3623,"Ġever":3624,"Ġdetail":3625,"Ġantic":3626,"Ġoxidative":3627,"Ġmaterials":3628,"Ġrabb":3629,"Ġold":3630,"wenty":3631,"isc":3632,"ĠNO":3633,"NT":3634,"henyl":3635,"Ġpredicted":3636,"Ġcervical":3637,"Ġanest":3638,"Ġsk":3639,"izes":3640,"Ġclinically":3641,"Ġcortex":3642,"hyth":3643,"ique":3644,"Ġcys":3645,"37":3646,"sh":3647,"Ġspontaneous":3648,"arr":3649,"ape":3650,"Ġmild":3651,"paired":3652,"Ġfacilit":3653,"Ġreproduc":3654,"Ġwild":3655,"erm":3656,"Ġ37":3657,"Ġchalleng":3658,"Ġconsecutive":3659,"ĠBy":3660,"Ġsoft":3661,"control":3662,"asal":3663,"Ġspecimens":3664,"FN":3665,"tility":3666,"III":3667,"Ġbiopsy":3668,"acts":3669,"oline":3670,"32":3671,"Ġstrength":3672,"Ġtw":3673,"Ġselection":3674,"Ġimplant":3675,"Ġcollagen":3676,"ifferen":3677,"Ġprofil":3678,"Ġfull":3679,")(":3680,"Ġapparent":3681,"Ġfram":3682,"obic":3683,"Ġstrongly":3684,"ĠOver":3685,"ocl":3686,"Ġspe":3687,"Ġreference":3688,"Ġaccess":3689,"Ġsimultaneous":3690,"Ġvariety":3691,"Ġtomography":3692,"Ġstages":3693,"Ġthird":3694,"Ġextre":3695,"Ġhemat":3696,"Ġisolates":3697,"PT":3698,"SS":3699,"otide":3700,"tile":3701,"Ġasth":3702,"Ġfast":3703,"Ġiron":3704,"Ġmechanical":3705,"elling":3706,"Ġge":3707,"Ġradical":3708,"Ġproportion":3709,"Ġlonger":3710,"Ġvaccin":3711,"Ġthough":3712,"Ġdefin":3713,"urs":3714,"Ġconj":3715,"Ġprocessing":3716,"PI":3717,"Ġcultures":3718,"HT":3719,"Ġcytotox":3720,"cutaneous":3721,"ident":3722,"Ġinterventions":3723,"Ġinduce":3724,"ception":3725,"estern":3726,"Ġupper":3727,"Ġtract":3728,"ĠCo":3729,"pects":3730,"eryth":3731,"vided":3732,"Ġeight":3733,"olecular":3734,"ophil":3735,"Ġconstit":3736,"Ġretrospective":3737,"Ġet":3738,"tration":3739,"Ġreceiving":3740,"Ġtaken":3741,"renal":3742,"Ġvas":3743,"Ġdynamics":3744,"Î±":3745,"Ġgraft":3746,"Ġresponsible":3747,"Ġoxide":3748,"Ġdop":3749,"Ġunique":3750,"Ġaimed":3751,"osin":3752,"onin":3753,"Ġmicrob":3754,"Ġpref":3755,"raw":3756,"lished":3757,"for":3758,"Ġunit":3759,"ulatory":3760,"Ġattention":3761,"Ġcateg":3762,"Ġvitamin":3763,"44":3764,"Ġseven":3765,"Ġsafe":3766,"used":3767,"ĠThey":3768,"Ġ32":3769,"Ġorganic":3770,"Ġsignificance":3771,"Ġmicros":3772,"ream":3773,"Ġconsumption":3774,"Ġelderly":3775,"Ġkg":3776,"02":3777,"Ġanat":3778,"Ġdil":3779,"mental":3780,"Ġprofession":3781,"Ġfav":3782,"roscopic":3783,"Ġrever":3784,"the":3785,"Ġrather":3786,"HD":3787,"kele":3788,"Ġlact":3789,"arily":3790,"Ġsci":3791,"Ġprognosis":3792,"ĠDi":3793,"Ġposterior":3794,"Ġsupplement":3795,"Ġmitochondrial":3796,"Ġcontex":3797,"ubation":3798,"Ġimage":3799,"ili":3800,"ĠAmeric":3801,"reshold":3802,"uch":3803,"Ġhere":3804,"yc":3805,"Ġclos":3806,"keletal":3807,"orac":3808,"ĠPCR":3809,"Ġsynthesi":3810,"Ġintravenous":3811,"Ġcho":3812,"Ġmediated":3813,"Ġpersist":3814,"Ġtren":3815,"Ġlearning":3816,"Ġirradi":3817,"link":3818,"Ġcoe":3819,"Ġclinic":3820,"Ġproduct":3821,"65":3822,"Ġinfected":3823,"esity":3824,"Ġdegradation":3825,"Ġread":3826,"Ġlo":3827,"Ġabnormalities":3828,"Ġled":3829,"Ġplants":3830,"Ġ31":3831,"Ġintestinal":3832,"Ġadvant":3833,"Ġpreoperative":3834,"Ġproduce":3835,"Ġsuff":3836,"Ġgenerated":3837,"mentation":3838,"hydroxy":3839,"Ġeng":3840,"Ġformed":3841,"Ġestablish":3842,"PE":3843,"Ġefficient":3844,"Ġcontact":3845,"ached":3846,"tra":3847,"Ġpredom":3848,"Ġexcl":3849,"Ġmob":3850,"Ġmajority":3851,"inated":3852,"Ġabsorption":3853,"AA":3854,"ĠER":3855,"Ġprolong":3856,"Ġfrequent":3857,"Ġauto":3858,"eled":3859,"care":3860,"Ġgeneration":3861,"organ":3862,"lammatory":3863,"Ġoptimal":3864,"Ġmorbidity":3865,"Ġcann":3866,"Ġcultured":3867,"Ġeffectiveness":3868,"Ġtransition":3869,"31":3870,"Ġâī":3871,"Ġves":3872,"Ġaggreg":3873,"Ġelectroph":3874,"Ġnanopartic":3875,"Ġviral":3876,"Ġbound":3877,"Ġneurolog":3878,"Ġcertain":3879,"Ġobstr":3880,"ĠData":3881,"Ġmarker":3882,"Ġservices":3883,"Ġaspects":3884,"inine":3885,"xiety":3886,"Ġtransmission":3887,"Ġconstant":3888,"pressive":3889,"PCR":3890,"vity":3891,"Ġbasal":3892,"Ġsubstit":3893,"oot":3894,"Ġpredict":3895,"by":3896,"Ġolig":3897,"Ġana":3898,"ytic":3899,"ged":3900,"Ġsubun":3901,"lasts":3902,"0001":3903,"Ġcord":3904,"sensi":3905,"ache":3906,"IR":3907,"Ġcommonly":3908,"Ex":3909,"ĠSer":3910,"Ġstaining":3911,"Ġiso":3912,"ĠMRI":3913,"Ġassays":3914,"67":3915,"ope":3916,"Ġnature":3917,"Ġwound":3918,"oscopic":3919,"Ġeas":3920,"Ġsuccessfully":3921,"ĠLe":3922,"Ġsmoking":3923,"Ġsexual":3924,"inus":3925,"ĠThree":3926,"Ġpancreatic":3927,"Ġmaternal":3928,"Ġagon":3929,"Ġrout":3930,"ximal":3931,"Ġjoint":3932,"Ps":3933,"Ġmutant":3934,"binding":3935,"Ġeryth":3936,"derived":3937,"Ġpublished":3938,"Ġlayer":3939,"ĠFe":3940,"Ġprinc":3941,"ylated":3942,"Ġagre":3943,"ivers":3944,"Ġspectroscopy":3945,"gens":3946,"Ġinvolving":3947,"Ġdisch":3948,"Ġunknown":3949,"Ġste":3950,"Ġrh":3951,"Ġexam":3952,"Ġultrasound":3953,"ients":3954,"rans":3955,"Ġdivided":3956,"Ġoccurs":3957,"osine":3958,"Ġhepatitis":3959,"Ġprognostic":3960,"Ġplatelet":3961,"Ġnow":3962,"Ġaffinity":3963,"GE":3964,"Ġextracellular":3965,"Ġneurop":3966,"oper":3967,"Ġtoxic":3968,"udy":3969,"Ġexternal":3970,"Ġnorm":3971,"elines":3972,"Ġattenu":3973,"%;":3974,"ĠSub":3975,"Ġmi":3976,"Ġstar":3977,"(+)":3978,"Ġcharacterization":3979,"Ġspectrom":3980,"ĠMR":3981,"Ġtheory":3982,"Ġbond":3983,"Ġimplications":3984,"Ġphosphorylation":3985,"Ġneural":3986,"Ġdeficiency":3987,"HA":3988,"acchar":3989,"CF":3990,"Ġcomm":3991,"Ġdogs":3992,"Ġevent":3993,"Ġmanner":3994,"ĠDes":3995,"omat":3996,"hesia":3997,"Ġslight":3998,"Ġabdominal":3999,"Ġweak":4000,"odynamic":4001,"hal":4002,"ĠDe":4003,"Ġconfirm":4004,"Ac":4005,"Ġavoid":4006,"ats":4007,"Ġparticles":4008,"Ġattrib":4009,"Ġenter":4010,"Ġresidues":4011,"Ġec":4012,"Ġpredictive":4013,"ids":4014,"Ġparas":4015,"gal":4016,"PR":4017,"Ġquestionnaire":4018,"lear":4019,"Ġaer":4020,"Ġads":4021,"mL":4022,"ĠATP":4023,"Ġcompleted":4024,"Ġrecommend":4025,"Ġalb":4026,"Ġdiameter":4027,"Ġgamma":4028,"ĠFour":4029,"Ġbecome":4030,"Ġmarrow":4031,"ferred":4032,"Ġbronch":4033,"48":4034,"Ġtransplant":4035,"Ġdatab":4036,"Ġsep":4037,"Ġlocated":4038,"Ġurine":4039,"ars":4040,"valu":4041,"Ġroutine":4042,"Ġcountries":4043,"Ġdietary":4044,"olved":4045,"gu":4046,"iting":4047,"usc":4048,"Ġparal":4049,"57":4050,"Ġextensive":4051,"ĠPC":4052,"Ġsuperior":4053,"ilep":4054,"erved":4055,"Ġinterpre":4056,"Ġmicrog":4057,"Ġmembranes":4058,"Ġmixed":4059,"arcin":4060,"Ġoptical":4061,"ĠmicroM":4062,"bs":4063,"Ġsoil":4064,"Ġpoints":4065,"orec":4066,"Ġdifferential":4067,"ĠTNF":4068,"uary":4069,"Ġpeptides":4070,"Ġappe":4071,"39":4072,"Ġrecip":4073,"ema":4074,"Ġexpected":4075,"Ġpair":4076,"ened":4077,"Ġbur":4078,"tering":4079,"ologically":4080,"Ġrelationships":4081,"Ġcereb":4082,"vis":4083,"Ġgender":4084,"Ġ%":4085,"osp":4086,"alian":4087,"Ġdevice":4088,"aces":4089,"Ġsmo":4090,"inflammatory":4091,"Ġthreshold":4092,"olytic":4093,"ĠCS":4094,"Ġforce":4095,"IP":4096,"ifically":4097,"Ġnursing":4098,"Ġgly":4099,"Ġpathogenesis":4100,"Ġeye":4101,"Ġpediatric":4102,"dle":4103,"Â·":4104,"Ġantioxid":4105,"Ġneph":4106,"Ġspatial":4107,"Ġconclude":4108,"ĠEuro":4109,"Ġcontext":4110,"IC":4111,"effec":4112,"Ġadi":4113,"okines":4114,"ori":4115,"Ġpotentially":4116,"Ġech":4117,"eptide":4118,"ank":4119,"Ġgest":4120,"Ġcorrec":4121,"orith":4122,"Ġbenefit":4123,"Ġtrauma":4124,"Ġattem":4125,"Ġben":4126,"Ġcomparable":4127,"Ġrespect":4128,"Ġhumans":4129,"Ġinser":4130,"osterone":4131,"ophage":4132,"Ġsqu":4133,"Ġtri":4134,"Ġsed":4135,"lets":4136,"Ġ38":4137,"Ġmother":4138,"usted":4139,"Pro":4140,"Ġflex":4141,"Ġmedicine":4142,"apan":4143,"Ġhypox":4144,"Ġlymphocytes":4145,"Ġalterations":4146,"Ġ75":4147,"NO":4148,"Ġrecurrent":4149,"isation":4150,"ĠCR":4151,"Ġtemporal":4152,"Ġnear":4153,"Ġischemia":4154,"regulated":4155,"200":4156,"Ġml":4157,"Ġhydrox":4158,"crimin":4159,"Ġorth":4160,"Ġgrade":4161,"Ġnucleus":4162,"Ġbehaviour":4163,"Ġ33":4164,"urys":4165,"ialysis":4166,"Ġdocument":4167,"Ġ34":4168,"ĠAnal":4169,"Ġrecombinant":4170,"poc":4171,"itable":4172,"Ġprotocol":4173,"AR":4174,"Ġstates":4175,"ĠClinical":4176,"Ġasthma":4177,"def":4178,"itoneal":4179,"Ġunits":4180,"ĠAg":4181,"Ġmolecule":4182,"itud":4183,"Ġadhesion":4184,"Ġemission":4185,"Ġbarri":4186,"Ġimpairment":4187,"Ġinfarction":4188,"Ġpotent":4189,"Ġhighl":4190,"Ġgenerally":4191,"ester":4192,"Ġvel":4193,"transfer":4194,"change":4195,"Ġlapa":4196,"anth":4197,"tially":4198,"Ġextraction":4199,"Ġmethyl":4200,"Ġnutrition":4201,"Ġane":4202,"Ġsigns":4203,"Ġalgorith":4204,"rich":4205,"Ġneuronal":4206,"akes":4207,"ton":4208,"Ġyet":4209,"Ġleads":4210,"Ġaround":4211,"Ġevery":4212,"Ġinjuries":4213,"enge":4214,"aries":4215,"Ġful":4216,"Ġwidely":4217,"Ġeyes":4218,"Ġwhite":4219,"Ġcore":4220,"Ġway":4221,"Ġstatistical":4222,"ranial":4223,"aching":4224,"ounts":4225,"ĠSim":4226,"Ġmembers":4227,"Com":4228,"Ġinfer":4229,"Ġvenous":4230,"Ġreducing":4231,"Ġappeared":4232,"Ġprogressive":4233,"teen":4234,"Ġsoci":4235,"Ġbo":4236,"Ġplus":4237,"lycer":4238,"zing":4239,"Ġfeed":4240,"itr":4241,"Ġbroad":4242,"cents":4243,"Ġpromoter":4244,"Ġpast":4245,"ogenetic":4246,"Ġovarian":4247,"Ġclassification":4248,"Ġfar":4249,"Ġobesity":4250,"inter":4251,"water":4252,"rams":4253,"Ġpolyp":4254,"Ġminutes":4255,"ĠPer":4256,"Ġaccount":4257,"Ġreplic":4258,"Ġextract":4259,"Ġthickness":4260,"pocamp":4261,"osomal":4262,"Ġcontamin":4263,"Ġinvasive":4264,"Ġneutr":4265,"Ġvariable":4266,"Ġneck":4267,"tives":4268,"Ġdiffer":4269,"Ġsampl":4270,"SC":4271,"Ġoccurrence":4272,"cler":4273,"Ġusually":4274,"Ġligand":4275,"fl":4276,"Ġinterview":4277,"Ġperson":4278,"ories":4279,"Ġkne":4280,"Ġspace":4281,"ophag":4282,"Ġtumour":4283,"bal":4284,"opic":4285,"Ġpurified":4286,"Ġfung":4287,"Ġregulatory":4288,"ervation":4289,"Ġbleeding":4290,"Ġaltered":4291,"Ġulc":4292,"Ġnoted":4293,"Ġmigration":4294,"ĠmM":4295,"Ġdental":4296,"tase":4297,"ancies":4298,"Ġchromosome":4299,"PP":4300,"Ġhydrogen":4301,"03":4302,"OD":4303,"ynthesis":4304,"Ġnumer":4305,"Ca":4306,"Ġfibrob":4307,"Ġemph":4308,"Ġveloc":4309,"Ġepis":4310,"Ġadequ":4311,"ĠEurope":4312,"ologies":4313,"Ġrecr":4314,"ĠSur":4315,"EC":4316,"aves":4317,"Ġresolution":4318,"patient":4319,"ĠJapan":4320,"Ġimmunohist":4321,"lab":4322,"Ġtransform":4323,"Ġneeds":4324,"tivariate":4325,"Ġcanc":4326,"Ġbiochemical":4327,"42":4328,"regulation":4329,"Ġbladder":4330,"Ġconcept":4331,"Ġrecognition":4332,"ercul":4333,"Ġent":4334,"ociation":4335,"Ġpreparation":4336,"hydr":4337,"Ġallows":4338,"Ġelimin":4339,"Ġthroughout":4340,"Ġvary":4341,"Ġliving":4342,"TA":4343,"carb":4344,"resist":4345,"Ġwave":4346,"ĠFrom":4347,"Ġbase":4348,"Ġfluor":4349,"Ġneoplas":4350,"Ġheterogene":4351,"Ġanxiety":4352,"Ġvec":4353,"pressing":4354,"Ġbal":4355,"Ġratios":4356,"Ġelements":4357,"Ġprofiles":4358,"vascular":4359,"49":4360,"ĠMost":4361,"Ġneut":4362,"FA":4363,"Ġphenomen":4364,"Ġguidelines":4365,"oked":4366,"Ġfore":4367,"Ġcharacteristic":4368,"ophageal":4369,"iment":4370,"Ġod":4371,"Ġnecrosis":4372,"usive":4373,"Ġvaccine":4374,"Ġdefects":4375,"Ġty":4376,"Ġsynthesized":4377,"Ġpromising":4378,"Ġgraf":4379,"Ġinst":4380,"Ġdistal":4381,"ologous":4382,"BS":4383,"Ġmorphology":4384,"Ġworld":4385,"Ġillness":4386,"Ġalmost":4387,"Ġvariability":4388,"rotid":4389,"olin":4390,"Ġshor":4391,"EGF":4392,"ĠInc":4393,"ĠIgG":4394,"Ġimpaired":4395,"Ġchallenge":4396,"Ġremain":4397,"BV":4398,"nit":4399,"Ġcompletely":4400,"Ġassign":4401,"Ġmilk":4402,"section":4403,"Im":4404,"iaz":4405,"iform":4406,"Ġbasic":4407,"Ġreconstruction":4408,"Ġdiscrimin":4409,"DM":4410,"Ġsil":4411,"Ġrepeated":4412,"ĠFinally":4413,"Ġaccurate":4414,"Ġfed":4415,"Ġanother":4416,"Ġventi":4417,"Ġoxidation":4418,"Ġdonor":4419,"Ġcandid":4420,"St":4421,"Ġnanoparticles":4422,"Ġprobably":4423,"Ġcosts":4424,"oscopy":4425,"Ġstimulated":4426,"Ġpolar":4427,"Ġrequires":4428,"uman":4429,"rehen":4430,"Ġrecommended":4431,"overed":4432,"ĠÎ²":4433,"Ġsearch":4434,"Ġmedia":4435,"dose":4436,"Ġresour":4437,"Ġroles":4438,"Ġmonth":4439,"Ġcortical":4440,"Ġfracture":4441,"Ġmetastasis":4442,"ĠMul":4443,"Ġcomputed":4444,"gluc":4445,"Ġspl":4446,"aus":4447,"Ġexperienced":4448,"otal":4449,"],":4450,"MC":4451,"Ġ65":4452,"sin":4453,"Ġspectrum":4454,"ococcus":4455,"47":4456,"po":4457,"Ġanalysed":4458,"terminal":4459,"Ġrapidly":4460,"Ġbios":4461,"Ġfinal":4462,"ician":4463,"ded":4464,"imen":4465,"Ġvolun":4466,"apse":4467,"Ġuter":4468,"ĠReg":4469,"Ġsources":4470,"Ġcurrently":4471,"orectal":4472,"ĠRA":4473,"Ġadmission":4474,"Ġturn":4475,"66":4476,"Ġfusion":4477,"any":4478,"Ġchannel":4479,"ĠCH":4480,"tition":4481,"ember":4482,"onomic":4483,"Ġexcell":4484,"oxyl":4485,"urine":4486,"Ġdele":4487,"Ġfit":4488,"ĠNew":4489,"98":4490,"Ġheat":4491,"ione":4492,"Ġinstit":4493,"Ġglobal":4494,"Ġseems":4495,"ucid":4496,"Ġdecision":4497,"Ġagreement":4498,"ocation":4499,"Ġhippocamp":4500,"Ġfractures":4501,"inese":4502,"Ġplays":4503,"ĠTwenty":4504,"Ġcatheter":4505,"ĠSix":4506,"Ġpredominant":4507,"olysis":4508,"Ġcall":4509,"Ġcomplement":4510,"Ġfeas":4511,"Ġprograms":4512,"Ġnumbers":4513,"Ġaddress":4514,"Ġbelie":4515,"Ġnervous":4516,"Ġuntil":4517,"Ġcongen":4518,"Ġphenotype":4519,"Ġmotion":4520,"Ġasc":4521,"Ġemployed":4522,"BC":4523,"Ġindicates":4524,"Ġoil":4525,"Ġderivatives":4526,"Ġtranscrip":4527,"Ġmanifest":4528,"43":4529,"Ġleukemia":4530,"Ġqual":4531,"ilateral":4532,"Ġtolerance":4533,"Ġsatisf":4534,"Ġemo":4535,"cles":4536,"Ġadolescents":4537,"Ġobservations":4538,"otomy":4539,"Ġcenter":4540,"ignific":4541,"dyl":4542,"Ph":4543,"Ġischemic":4544,"Ġmode":4545,"rence":4546,"itions":4547,"ĠMean":4548,"68":4549,"oglobin":4550,"YP":4551,"Ġgenome":4552,"Ġtowards":4553,"oclonal":4554,"Ġblot":4555,"Ġenrol":4556,"intestinal":4557,"ĠBec":4558,"55":4559,"Ġstabil":4560,"78":4561,"ĠWhile":4562,"Ġrib":4563,"rane":4564,"ire":4565,"Ġexcellent":4566,"Da":4567,"ochemistry":4568,"plasia":4569,"Ġmake":4570,"oplast":4571,"PO":4572,"Ġissues":4573,"ĠBi":4574,"Ġaccomp":4575,"Ġschool":4576,"Ġlocation":4577,"Ġhemorrh":4578,"Ġsusceptibility":4579,"Ġreplacement":4580,"Ġschiz":4581,"yle":4582,"Ġprolonged":4583,"omatic":4584,"Ġaneurys":4585,"Ġathe":4586,"ontin":4587,"icrob":4588,"BD":4589,"LD":4590,"verex":4591,"ĠBased":4592,"Ġvein":4593,"ament":4594,"ovine":4595,"Ġker":4596,"Ġconstruc":4597,"month":4598,"aine":4599,"Ġrandomly":4600,"Ġ42":4601,"undred":4602,"trac":4603,"Ġsten":4604,"etric":4605,"ĠNor":4606,"Ġcomplication":4607,"arv":4608,"ĠChinese":4609,"HC":4610,"Ġimmunos":4611,"ĠUV":4612,"Ġpen":4613,"Ġseiz":4614,"Ġoccup":4615,"Ġantim":4616,"Ġatrial":4617,"gamma":4618,"leu":4619,"Ġfund":4620,"Ġscler":4621,"Ġamb":4622,"ĠPR":4623,"Ġpresentation":4624,"Ġfamilies":4625,"Ġpolic":4626,"Ġexplore":4627,"ocrine":4628,"ophren":4629,"Ġendogenous":4630,"ground":4631,"Ġprojec":4632,".)":4633,"Ġsignals":4634,"Ġann":4635,"Ġmacrophages":4636,"Ġbind":4637,"ĠTR":4638,"Ġnurses":4639,"Ġenti":4640,"Ġepilep":4641,"Ġpel":4642,"Ġmiddle":4643,"ime":4644,"mol":4645,"Ġphysicians":4646,"urgical":4647,"Ġcomputer":4648,"Ġcontained":4649,"Ġsilic":4650,"Ġethanol":4651,"off":4652,"Ġminor":4653,"Ġions":4654,"ĠRT":4655,"azole":4656,"oli":4657,"vas":4658,"abor":4659,"Ġcompr":4660,"icle":4661,"ellar":4662,"Ġtechnology":4663,"Ġspectrometry":4664,"Ġdespite":4665,"angi":4666,"56":4667,"ollow":4668,"Ġcreat":4669,"Ġcancers":4670,"ĠAf":4671,"actic":4672,"gg":4673,"DR":4674,"Ġcas":4675,"Ġvag":4676,"leukin":4677,"itative":4678,"here":4679,"ided":4680,"umor":4681,"ME":4682,"Ġpal":4683,"Ġbilateral":4684,"Ġtraditional":4685,"Ġepidemi":4686,"ets":4687,"Ġmovement":4688,"lastic":4689,"ocarcin":4690,"ĠTreatment":4691,"Ġbelow":4692,"Ġintermediate":4693,"ework":4694,"Ġbran":4695,"Ġsinus":4696,"Ġranged":4697,"Ġintact":4698,"Ġdefic":4699,"LP":4700,"aptic":4701,"Ġaw":4702,"Ġinn":4703,"pass":4704,"Ġresistant":4705,"tention":4706,"Ġcortic":4707,"Ġexcre":4708,"Ġow":4709,"Ġemergency":4710,"Ġfish":4711,"Ġcytoplas":4712,"Ġnod":4713,"apping":4714,"Ġbenz":4715,"Ġknee":4716,"Ġnode":4717,"athy":4718,"Ġmetastatic":4719,"Ġdelayed":4720,"Ġterm":4721,"Ġradio":4722,"ĠHospital":4723,"rous":4724,"ospitals":4725,"Ġendomet":4726,"ury":4727,"queous":4728,"77":4729,"resistant":4730,"aster":4731,"Ġband":4732,"Ġsem":4733,"ignificant":4734,"ĠBl":4735,"Ġmicrogra":4736,"alk":4737,"oman":4738,"Ġtheore":4739,"activated":4740,"Ġfibrosis":4741,"46":4742,"ĠStudy":4743,"Ġsuitable":4744,"Ġbenign":4745,"Ġclon":4746,"US":4747,"cytes":4748,"Ġcurve":4749,"Ġgland":4750,"wide":4751,"negative":4752,"zation":4753,"Ġproximal":4754,"Ġprotection":4755,"Ġconcluded":4756,"ams":4757,"Ġobservation":4758,"Ġche":4759,"Ġestimate":4760,"Ġantagonist":4761,"Ġbenefits":4762,"Ġsperm":4763,"activation":4764,"Ġfully":4765,"ĠSD":4766,"ĠMT":4767,"Ġdiscuss":4768,"Ġ39":4769,"back":4770,"oside":4771,"Ġstre":4772,"Ġearli":4773,"Ġvalve":4774,"IT":4775,"Ġprotective":4776,"lel":4777,"Ġpractic":4778,"eds":4779,"risk":4780,"tenance":4781,"Ġbehavioral":4782,"EA":4783,"Ġmeta":4784,"Ġsolutions":4785,"orts":4786,"rosine":4787,"Ġpolymerase":4788,"Ġperi":4789,"Ġcomprehen":4790,"Ġwhose":4791,"Ġtit":4792,"genic":4793,"Ġpathological":4794,"iotics":4795,"anine":4796,"85":4797,"Ġrelax":4798,"Ġhundred":4799,"-,":4800,"Ġpossibility":4801,"gans":4802,"phase":4803,"Ġ72":4804,"Ġspectra":4805,"LT":4806,"Ġ55":4807,"ĠDec":4808,"Ġthorac":4809,"Ġsmaller":4810,"generation":4811,"Ġreliable":4812,"Ġserious":4813,"Ġlinked":4814,"Ġtargets":4815,"Ġmusc":4816,"Ġdomains":4817,"Ġfind":4818,"irty":4819,"Ġsynthetic":4820,"Ġpossib":4821,"Ġirradiation":4822,"Ġspecifically":4823,"erated":4824,"Ġinterv":4825,"Ġshowing":4826,"ensin":4827,"ĠCu":4828,"Ġabund":4829,"itus":4830,"ĠOverall":4831,"Ġchick":4832,"orage":4833,"Ġmetabolites":4834,"Ġdeep":4835,"acr":4836,"ceived":4837,"Ġmedication":4838,"quired":4839,"Ġadded":4840,"Ġmetastases":4841,"sectional":4842,"ills":4843,"ĠIs":4844,"Ġregen":4845,"Ġelucid":4846,"BA":4847,"Re":4848,"eli":4849,"Ġschizophren":4850,"ecting":4851,"Ġprecurs":4852,"Ġstimuli":4853,"appa":4854,"rium":4855,"Ġmonoclonal":4856,"Ġneonatal":4857,"reen":4858,"natal":4859,"sub":4860,"iring":4861,"erculosis":4862,"Ġtermin":4863,"ressed":4864,"Ġcruc":4865,"hing":4866,"Ġfollic":4867,"FT":4868,"idal":4869,"rest":4870,"habil":4871,"aemia":4872,"ĠIFN":4873,"Ġtypical":4874,"Ġvaried":4875,"Ġtransient":4876,"axis":4877,"Ġtransf":4878,"Ġperfusion":4879,"ĠJan":4880,"En":4881,"Ġorient":4882,"Ġbiomark":4883,"Ġchoice":4884,"Ġput":4885,"Ġgradi":4886,"Ġrest":4887,"osal":4888,"atase":4889,"Ġcorrect":4890,"Ġlocalization":4891,"opo":4892,"79":4893,"ped":4894,"Ġlymphoma":4895,"osomes":4896,"ĠInter":4897,"ichia":4898,"Ġfeeding":4899,"econd":4900,"Ġdied":4901,"73":4902,"chlor":4903,"ĠIndi":4904,"Ġplasm":4905,"Ġnine":4906,"AMP":4907,"Ġmarkedly":4908,"bular":4909,"plants":4910,"ycin":4911,"Is":4912,"Ġfailed":4913,"Ġcytokines":4914,"Ġaccel":4915,"Ġshock":4916,"Ġclassified":4917,"ĠAfric":4918,"64":4919,"Ġseparation":4920,"isp":4921,"but":4922,"Ġren":4923,"Ġintensive":4924,"ĠSpec":4925,"born":4926,"Ġreactive":4927,"Ġframework":4928,"Ġbovine":4929,"ĠUnited":4930,"ĠBecause":4931,"Ġantigens":4932,"Ġinterfer":4933,"Ġneutral":4934,"Ġdisturb":4935,"Ġcolum":4936,"Ġperiods":4937,"Ġhypoth":4938,"Ġrob":4939,"Ġassociations":4940,"Ġsmooth":4941,"avage":4942,"ĠSince":4943,"ĠUni":4944,"Ġtherapies":4945,"ĠTr":4946,"ĠIC":4947,"Ġdistance":4948,"IN":4949,"Ġvelocity":4950,"Ġhospitals":4951,"Ġdevelopmental":4952,"Ġsusp":4953,"Ġdevices":4954,"Ġchannels":4955,"au":4956,"Ġantioxidant":4957,"Ġcommerc":4958,"Ġproviding":4959,"ches":4960,"Ġfiber":4961,"Ġaccept":4962,"ID":4963,"Ġamounts":4964,"Ġcoord":4965,"gin":4966,"Ġretinal":4967,"Ġachieve":4968,"Ġwhat":4969,"ots":4970,"Ġleg":4971,"Ġthermal":4972,"chym":4973,"Ġeti":4974,"Ġgain":4975,"Ġperme":4976,"Ġarteries":4977,"Ġfibers":4978,"Ġnons":4979,"ĠÎ±":4980,"ĠOnly":4981,"LR":4982,"ises":4983,"Effect":4984,"Ġthym":4985,"week":4986,"ives":4987,"Ġminimal":4988,"ĠAmerican":4989,"Ġprem":4990,"Ġmarg":4991,"Ġcis":4992,"88":4993,"Ġcontrac":4994,"ĠNF":4995,"Ġlatter":4996,"Ġintervals":4997,"Ġmaintenance":4998,"Ġphosphate":4999,"Ġverte":5000,"Ġskeletal":5001,"oic":5002,"Ġgon":5003,"ĠWestern":5004,"ĠAcc":5005,"Ġhydroph":5006,"Ġregional":5007,"Ġmaintained":5008,"Ġalkal":5009,"ways":5010,"EP":5011,"cephal":5012,"Ġgastrointestinal":5013,"zard":5014,"ovirus":5015,"Ġexchange":5016,"ste":5017,"Ġsurfaces":5018,"ypt":5019,"vasive":5020,"ĠCol":5021,"Ġgr":5022,"lip":5023,"ozyg":5024,"Ġsurge":5025,"Ġothers":5026,"Ġaqueous":5027,"Ġworking":5028,"dehy":5029,"41":5030,"Ġhydroly":5031,"Ġpneumonia":5032,"atur":5033,"Ġide":5034,"icin":5035,"63":5036,"factory":5037,"Ġfron":5038,"Ġindustr":5039,"point":5040,"Ġexcept":5041,"Ġrhe":5042,"pr":5043,"Ġmuscles":5044,"69":5045,"acin":5046,"Ġerythro":5047,"Ġvessels":5048,"IS":5049,"Ġnitrogen":5050,"Ġgranul":5051,"Ġextreme":5052,"Ġneutroph":5053,"grade":5054,"ber":5055,"estic":5056,"Ġdy":5057,"Ġchildhood":5058,"Ġpolymorphism":5059,"enes":5060,"uctive":5061,"ayer":5062,"ĠHR":5063,"Ġhistological":5064,"transferase":5065,"ditionally":5066,"Ġlipoprotein":5067,"hers":5068,"Ġprobe":5069,"Ġcolorectal":5070,"Ġinfil":5071,"ĠBe":5072,"Ġdecreases":5073,"habilitation":5074,"Ġgenotype":5075,"entical":5076,"Ġpathology":5077,"Ġten":5078,"ports":5079,"Ġvariations":5080,"GA":5081,"Ġpsychological":5082,"roscler":5083,"Ġmaximal":5084,"ĠDespite":5085,"linked":5086,"oidal":5087,"estions":5088,"everal":5089,"Ġinfluenced":5090,"Ġaspir":5091,"Ġantibiotic":5092,"Ġcut":5093,"assive":5094,"Ġfall":5095,"Ġdischarge":5096,"Me":5097,"ystolic":5098,"72":5099,"Ġinduces":5100,"illus":5101,"Ġmatter":5102,"Ġpersons":5103,"angu":5104,"ows":5105,"tious":5106,"Ġelectronic":5107,"Ġwa":5108,"Ġmicrograms":5109,"Ġpartially":5110,"Ġbul":5111,"Ġpseud":5112,"Ġdors":5113,"Ġarch":5114,"aren":5115,"Ġdiffusion":5116,"Ġenhancement":5117,"ik":5118,"ĠUS":5119,"Ġremaining":5120,"Ġcongenital":5121,"Ġprimarily":5122,"Ġscanning":5123,"ĠHg":5124,"Ġinjected":5125,"uvant":5126,"lective":5127,"ĠJanuary":5128,"Ġoverl":5129,"Ġcomparing":5130,"itudinal":5131,"ck":5132,"weight":5133,"Ġartif":5134,")/":5135,"Ġradiotherapy":5136,"Ġlob":5137,"Ġecon":5138,"glut":5139,"ophosph":5140,"scher":5141,"phyl":5142,"Ġcaps":5143,"Ġpap":5144,"Ġobtain":5145,"Ġrecognized":5146,"Ġconjug":5147,"Ġshape":5148,"Ġextended":5149,"tingu":5150,"Effects":5151,"Ġairway":5152,"Ġdone":5153,"OC":5154,"Ġoccurring":5155,"Ġslightly":5156,"Ġkinetics":5157,"Ġstorage":5158,"scherichia":5159,"Ġequal":5160,"amate":5161,"inking":5162,"Ġcyst":5163,"Ġdescribes":5164,"containing":5165,"Ġhealing":5166,"ighted":5167,"Ġdimension":5168,"Ġshift":5169,"hydrogen":5170,"Ġdisrup":5171,"VA":5172,"illed":5173,"Ġsubgroup":5174,"Ġrise":5175,"oblast":5176,"Ġcer":5177,"ĠED":5178,"Ġlimb":5179,"Ġarthritis":5180,"stream":5181,"aria":5182,"Ġinvasion":5183,"ĠIGF":5184,"Ġgang":5185,"76":5186,"Ġenrolled":5187,"Ġwhom":5188,"IF":5189,"Ġplan":5190,"oin":5191,"Ġreverse":5192,"ĠNational":5193,"ectin":5194,"owel":5195,"Ġpsychiatric":5196,"Ġcommunication":5197,"Ġrequ":5198,"cor":5199,"ologists":5200,")]":5201,"ycl":5202,"Ġcorne":5203,"Ġclearly":5204,"Ġâī¥":5205,"Ġpresenting":5206,"LS":5207,"Ġdefect":5208,"Ġparallel":5209,"uting":5210,"Ġoutput":5211,"gi":5212,"Ġparents":5213,"Ġstenosis":5214,"Ġcontribution":5215,"HS":5216,"Ġlocalized":5217,"ĠScale":5218,"Ġearlier":5219,"icrobial":5220,"Ġconsisted":5221,"Ġreason":5222,"Ġdistingu":5223,"Ġ43":5224,"Ġcytos":5225,"imethyl":5226,"Ġworkers":5227,"ĠPl":5228,"Ġonc":5229,"rog":5230,"mg":5231,"Ġprediction":5232,"LE":5233,"Ġmeasuring":5234,"Ġanalyze":5235,"ĠAF":5236,"ĠOR":5237,"ivalent":5238,"ogens":5239,"vision":5240,"Ġmorphological":5241,"Ġsuppression":5242,"max":5243,"Ġens":5244,"udes":5245,"Ġindependently":5246,"ÃĹ":5247,"ymmet":5248,"Ġrecords":5249,"Ġbreak":5250,"Ġrisks":5251,"Ġfibr":5252,"Ġcarotid":5253,"ping":5254,"ocytic":5255,"ĠcDNA":5256,"Ġreturn":5257,"Ġclosely":5258,"state":5259,"Ġ(-":5260,"Ġoverex":5261,"Ġneu":5262,"Ġ44":5263,"Ġocclusion":5264,"Ġmicrom":5265,"portun":5266,"ĠLV":5267,"ĠStates":5268,"Ġentire":5269,"ochrome":5270,"ĠHLA":5271,"Ġpredictors":5272,"analysis":5273,"otropic":5274,"ĠExper":5275,"Ġresidual":5276,"BL":5277,"Ġ46":5278,"Ġegg":5279,"Ġimplantation":5280,"Ġsubject":5281,"Ġinterleukin":5282,"infected":5283,"Ġgrowing":5284,"arcoma":5285,"ulum":5286,"96":5287,"ĠTrans":5288,"OP":5289,"Ġ41":5290,"ĠZn":5291,"Ġorganization":5292,"Ġregular":5293,"Ġextracts":5294,"Ġretro":5295,"tox":5296,"Ġextracted":5297,"Co":5298,"ĠPM":5299,"ĠEscherichia":5300,"Ġaccompan":5301,"Pre":5302,"Ġdevi":5303,"Ġdopamine":5304,"ict":5305,"ĠAnalysis":5306,"Ġmultivariate":5307,"Ġcircum":5308,"ply":5309,"amino":5310,"Ġfin":5311,"Ġye":5312,"Ġidentical":5313,"Ġservice":5314,"Ġappearance":5315,"Ġsaline":5316,"illin":5317,"HP":5318,"Ġalgorithm":5319,"Ġple":5320,"Ġfragment":5321,"Ġspin":5322,"Ġalbumin":5323,"geal":5324,"ĠCompared":5325,"Ġtrigg":5326,"Ġrepresents":5327,"Ġallowed":5328,"ipl":5329,"AC":5330,"rotein":5331,"Ġsegment":5332,"Ġneurological":5333,"Ġsufficient":5334,"Ġprincip":5335,"phosphate":5336,"ĠCr":5337,"Ġheight":5338,"LISA":5339,"Ġcomprehensive":5340,"air":5341,"Ġbypass":5342,"Ġbalance":5343,"Ġlys":5344,"Ġconversion":5345,"Ġthi":5346,"ĠImmun":5347,"immune":5348,"Ġnasal":5349,"Ġangle":5350,"74":5351,"iminary":5352,"ades":5353,"chang":5354,"Ġpropose":5355,"hythm":5356,"Ġmodification":5357,"rief":5358,"Ġadequate":5359,"Ġvolunte":5360,"Ġadjust":5361,"lux":5362,"Ġgenomic":5363,"FS":5364,"Ġgrad":5365,"Ġcompeti":5366,"otr":5367,"Ġdependence":5368,"Ġacetyl":5369,"oplasty":5370,"perfusion":5371,"Ġpy":5372,"ifications":5373,"oresis":5374,"Ġrot":5375,"Ġelic":5376,"ulmonary":5377,"Ġsampling":5378,"Ġqualitative":5379,"Ġsensory":5380,"Ġnative":5381,"Ġpregnant":5382,"Ġmagnitude":5383,"Ġmineral":5384,"Ġdepart":5385,"oe":5386,"Ġbeneficial":5387,"Ġdisper":5388,"ria":5389,"86":5390,"Ġexer":5391,"Ġvariants":5392,"Ġstent":5393,"Ġcoupled":5394,"ĠUniversity":5395,"Ġassigned":5396,"Ġcannot":5397,"avy":5398,"Ġopportun":5399,"Ġaffecting":5400,"ophysi":5401,"Ġperoxid":5402,"UN":5403,"cribed":5404,"Ġassemb":5405,"Ġassum":5406,"Ġdominant":5407,"Ġorgans":5408,"ls":5409,"Ġinclusion":5410,"aryngeal":5411,"Ġpositively":5412,"Ġcre":5413,"Ġplaced":5414,"enal":5415,"Ġnewly":5416,"zyme":5417,"Ġadsorption":5418,"enop":5419,"enia":5420,"Ġeffectively":5421,"Ġmelanoma":5422,"Ġpractices":5423,"Ġatheroscler":5424,"71":5425,"cycl":5426,"gue":5427,"Ġestrogen":5428,"Ġsubunit":5429,"ĠAb":5430,"acer":5431,"Ġmaking":5432,"Ġillustr":5433,"itant":5434,"ĠHP":5435,"Ġsubstantial":5436,"ermal":5437,"Ġbehaviors":5438,"Ġprogress":5439,"Ġphospholip":5440,"Ġaccompanied":5441,"ĠCell":5442,"Ġtuberculosis":5443,"Ġbu":5444,"OL":5445,"oved":5446,"ĠmL":5447,"BI":5448,"ĠmiR":5449,"stage":5450,"coprotein":5451,"Ġcytokine":5452,"Ġcounter":5453,"DP":5454,"ĠAR":5455,"mediately":5456,"Ġbackground":5457,"oon":5458,"Ġerror":5459,"Ġexample":5460,"sia":5461,"Ġclearance":5462,"Ġcorrelations":5463,"Ġrabbit":5464,"Ġsoluble":5465,"Ġsubstrates":5466,"ging":5467,"Ġcoefficient":5468,"otensin":5469,"Ġtools":5470,"ĠCons":5471,"ĠAustr":5472,"62":5473,"Ġdatabase":5474,"ĠAss":5475,"Ġsustained":5476,"udit":5477,"level":5478,"ips":5479,"Ġunclear":5480,"ocarcinoma":5481,"Ġpresents":5482,"89":5483,"aphyl":5484,"Ġtheoretical":5485,"Ġpharmacokine":5486,"Ġpossess":5487,"Ġexplain":5488,"Ġpla":5489,"ĠCd":5490,"Ġconsequences":5491,"Ġrehabilitation":5492,"Ġdiversity":5493,"Ġpyr":5494,"Ġimproving":5495,"ĠOr":5496,"alc":5497,"Ġcomparative":5498,"Ġechocardi":5499,"Hg":5500,"entia":5501,"valuation":5502,"Ġpromote":5503,"Ġrun":5504,"pler":5505,"ĠCYP":5506,"side":5507,"Ġtun":5508,"ash":5509,"Ġindirect":5510,"icles":5511,"Ġ52":5512,"pyr":5513,"Ġinitiation":5514,"Ġantibiotics":5515,"Ġnational":5516,"Ġmell":5517,"coun":5518,"Ġden":5519,"sies":5520,"Ġelement":5521,"ĠNMR":5522,"Ġopi":5523,"obil":5524,"Ġintroduced":5525,"ĠHigh":5526,"UC":5527,"Ġpersistent":5528,"Ġwaste":5529,"Ġ250":5530,"uria":5531,"Ġmurine":5532,"acting":5533,"Ġnucleotide":5534,"odon":5535,"Ġfemoral":5536,"Ġvul":5537,"Ġimplementation":5538,"Ġpan":5539,"Ġcount":5540,"Ġperceived":5541,"Ġconform":5542,"ĠCor":5543,"Ġchest":5544,"Ġvalidity":5545,"Ġremoved":5546,"BM":5547,"Ġhab":5548,"dehyde":5549,"Ġfixation":5550,"Ġtransformation":5551,"Ġcolor":5552,"Ġretention":5553,"Ġfavor":5554,"Ġsatisfaction":5555,"Ġanalges":5556,"Ġreproductive":5557,"sensitive":5558,"Ġstandardi":5559,"Ġyounger":5560,"Ġtyrosine":5561,"Ġpulse":5562,"Ġcoupling":5563,"ept":5564,"ĠPK":5565,"Ġchallenges":5566,"Ġanesthesia":5567,"Ġamplitude":5568,"raction":5569,"Ġmodulation":5570,"Ġregulated":5571,"58":5572,"Ġhypothe":5573,"Ġfractions":5574,"Con":5575,"agulation":5576,"ĠSome":5577,"97":5578,"ĠGen":5579,"benz":5580,"Ġreached":5581,"Ġreliability":5582,"Ġdry":5583,"anded":5584,"ĠSch":5585,"Ġglomer":5586,"Ġencoding":5587,"Ġnic":5588,"assi":5589,"MG":5590,"rs":5591,"athione":5592,"Ġimmunore":5593,"Ġsummar":5594,"ban":5595,"Ġthin":5596,"Ġprophyl":5597,"Ġhealthcare":5598,"Ġexcretion":5599,"Ġpac":5600,"Ġelectrical":5601,"ias":5602,"ĠTGF":5603,"Ġinvestigations":5604,"mm":5605,"agnetic":5606,"Ġacquired":5607,"Ġlens":5608,"Ġdecline":5609,"Ġfrequencies":5610,"lue":5611,"Ġtargeted":5612,"Ġuro":5613,"Ġschizophrenia":5614,"Ġstay":5615,"Ġstimulus":5616,"Ġcrystall":5617,"accharide":5618,"Ġdisplayed":5619,"Ġtargeting":5620,"ĠFollow":5621,"Ġsequencing":5622,"Ġmove":5623,"otypic":5624,"achment":5625,"Ġcrucial":5626,"Ġfresh":5627,"asons":5628,"Ġring":5629,"ulus":5630,"Ġdual":5631,"Ġestimates":5632,"Ġagonist":5633,"ĠGH":5634,"ML":5635,"Ġaffects":5636,"flow":5637,"Ġgoal":5638,"CN":5639,"ymptomatic":5640,"Ġadrenal":5641,"ĠChina":5642,"teine":5643,"Ġrecommendations":5644,"Ġmill":5645,"quit":5646,"Ġhearing":5647,"Ġmis":5648,"Ġcatalytic":5649,"quin":5650,"urally":5651,"Ġmatched":5652,"Ġamyl":5653,"Ġcompet":5654,"Ġincubation":5655,"antum":5656,"ĠSystem":5657,"Ġnitric":5658,"Ġfixed":5659,"Ġquestions":5660,"Ġintern":5661,"ontal":5662,"Ġdetermining":5663,"Ġranging":5664,"trophy":5665,"Ġ47":5666,"Ġsuppressed":5667,"Ġstaff":5668,"wh":5669,"201":5670,"ders":5671,"Ġlargely":5672,"omycin":5673,"parison":5674,"Ġsections":5675,"invasive":5676,"94":5677,"Ġmellitus":5678,"Ġtrend":5679,"Ġlaparoscopic":5680,"ĠBP":5681,"dis":5682,"ĠPI":5683,"54":5684,"ril":5685,"52":5686,"Ġfocused":5687,"92":5688,"Ġdehydrogen":5689,"+)-":5690,"Ġdelay":5691,"amous":5692,"ĠAI":5693,"93":5694,"Ġspread":5695,"ĠCP":5696,"Ġbile":5697,"Ġatom":5698,"Ġ56":5699,"Ġmammalian":5700,"Ġattit":5701,"Ġepithelium":5702,"protein":5703,"Rec":5704,"SM":5705,"ada":5706,"Ġcharge":5707,"Ġparticle":5708,"Ġembryos":5709,"Ġexisting":5710,"Ġclar":5711,"Ġcrystal":5712,"Ġmixture":5713,"plete":5714,"Ġhypoxia":5715,"Ġobese":5716,"Ġbowel":5717,"ĠEuropean":5718,"Ġground":5719,"Ġclin":5720,"Ġsession":5721,"luores":5722,"arth":5723,"Ġvector":5724,"Ġlogistic":5725,"ogram":5726,"Ġallele":5727,"Ġyeast":5728,"Ġproved":5729,"Ġsynth":5730,"Ġchol":5731,"Ġadmitted":5732,"Ġrheum":5733,"Ġmultic":5734,"Ġpass":5735,"acetyl":5736,"ilib":5737,"Ġsymptomatic":5738,"adiol":5739,"Ġcolumn":5740,"Ġpossibly":5741,"Ġsystolic":5742,"Ġfibroblasts":5743,"Ġendoscopic":5744,"Ġcontains":5745,"Ġimmediately":5746,"ĠHy":5747,"Ġmothers":5748,"Ġitem":5749,"Ġlongitudinal":5750,"Ġunderst":5751,"ĠPartic":5752,"Ġfibrin":5753,"udies":5754,"Ġprel":5755,"etus":5756,"Ġpersonal":5757,"izations":5758,"Ġactin":5759,"Ġdocumented":5760,"Ġattemp":5761,"Ġsubjected":5762,"Ġgir":5763,"hex":5764,"Ġsupported":5765,"Ġdetailed":5766,"Ġzinc":5767,"olute":5768,"Ġthought":5769,"Ġfact":5770,"ĠChild":5771,"wise":5772,"Ġhybridization":5773,"Ġpigs":5774,"Ġhair":5775,"Ġreflect":5776,"ĠMod":5777,"Ġhistopath":5778,"Ġcycles":5779,"sized":5780,"Ġsteroid":5781,"Ġoperative":5782,"87":5783,"Ġdeaths":5784,"Ġsalt":5785,"Ġlowest":5786,"Ġgradient":5787,"Ġrecording":5788,"opathic":5789,"Ġsimultaneously":5790,"rose":5791,"Ġplanning":5792,"ATP":5793,"Ġmetall":5794,"Ġpoll":5795,"Ġcartil":5796,"artment":5797,"chemical":5798,"bor":5799,"ĠES":5800,"omers":5801,"umbar":5802,"Ġchanged":5803,"Ġdemographic":5804,"Ġgold":5805,"Ġwid":5806,"Ġconsiderable":5807,"Ġligands":5808,"ĠSS":5809,"ituitary":5810,"Ġinput":5811,"Ġlum":5812,"82":5813,"Ġmutants":5814,"Ġheavy":5815,"Ġexplored":5816,"adren":5817,"Ġrecipients":5818,"Ġconcerning":5819,"version":5820,"Ġaging":5821,"astic":5822,"Ġing":5823,"ospor":5824,"83":5825,"illing":5826,"Ġtherm":5827,"Ġvalidated":5828,"Ġcluster":5829,"Ġnewborn":5830,"ĠBMI":5831,"test":5832,"Ġtube":5833,"Ġsuspected":5834,"Ġexplained":5835,"Ġ85":5836,"Ġsection":5837,"Ġretrospectively":5838,"Ġmature":5839,"Ġsimulation":5840,"Ġoriginal":5841,"Ġinhibits":5842,"Ġangiography":5843,"Ġcapable":5844,"ancing":5845,"Ġfluorescent":5846,"gent":5847,"Ġown":5848,"84":5849,"Ġreceive":5850,"ohydr":5851,"Ġcytotoxic":5852,"Ġdate":5853,"ĠThirty":5854,"illance":5855,"Ġfunctioning":5856,"Ġdemonstrates":5857,"Ġscat":5858,"anguage":5859,"insic":5860,"):":5861,"Ġdex":5862,"Ġseparate":5863,"Ġobstruction":5864,"Ġnitr":5865,"ilities":5866,"Ġstere":5867,"uous":5868,"cessive":5869,"Ġsubset":5870,"veness":5871,"forms":5872,"Ġconcern":5873,"Ġinfluenz":5874,"unctional":5875,"Ġnodes":5876,"Ġpolymorphisms":5877,"acent":5878,"onate":5879,"Ġmedial":5880,"icular":5881,"Ġfragments":5882,"CAT":5883,"Ġphases":5884,"Ġpil":5885,"Ġ54":5886,"Ġsuic":5887,"Ġ51":5888,"Ġwoman":5889,"51":5890,"Bs":5891,"ĠUnder":5892,"ĠMedical":5893,"Ġmucosa":5894,"61":5895,"Ġhepar":5896,"Ġvolunteers":5897,"Ġpotentials":5898,"Ġsubstance":5899,"ĠAdditionally":5900,"ĠHS":5901,"astolic":5902,"Ġfeature":5903,"ĠEm":5904,"ĠCF":5905,"EF":5906,"rang":5907,"Ġtreating":5908,"ĠSeveral":5909,"ĠSh":5910,"Ġaudit":5911,"actin":5912,"Ġ2000":5913,"Ġengine":5914,"Ġtemperatures":5915,"Ġ64":5916,"choline":5917,"Ġfields":5918,"Ġisolation":5919,"Ġcomposite":5920,"tage":5921,"Ġpoorly":5922,"aden":5923,"pid":5924,"Ġarm":5925,"atch":5926,"Ġroom":5927,"Ġinstrument":5928,"scale":5929,"Ġmonitored":5930,"Ġreduces":5931,"ocaine":5932,"91":5933,"Ġdiverse":5934,"Ġphenomenon":5935,"clinical":5936,"veolar":5937,"Ġaggregation":5938,"ĠMedic":5939,"Ġoffer":5940,"Ġcirculating":5941,"ABA":5942,"ostasis":5943,"Ġcyclic":5944,"AF":5945,"ĠLPS":5946,"ylate":5947,"omon":5948,"omical":5949,"Ġbuff":5950,"Ġassessing":5951,"phrine":5952,"olism":5953,"AG":5954,"Ġsynthase":5955,"Ġanomal":5956,"Ġtumours":5957,"abric":5958,"Ġsurround":5959,"iciently":5960,"athe":5961,"Ġunderstood":5962,"Ġunivers":5963,"Ġdementia":5964,"Ġhemorrhage":5965,"Ġaug":5966,"etr":5967,"Ġexperiences":5968,"Ġminimum":5969,"Ġdorsal":5970,"Ġfacilitate":5971,"ĠDifferen":5972,"Ġdend":5973,"Ġsegments":5974,"ĠPlas":5975,"meth":5976,"Ġfoot":5977,"Ġventilation":5978,"ĠSal":5979,"ansion":5980,"Ġpathophysi":5981,"Ġintegrated":5982,"Ġelectrophoresis":5983,"Ġphyl":5984,"Ġcontrolling":5985,"Ġbarrier":5986,"stimulated":5987,"Ġadvantages":5988,"Ġskills":5989,"uod":5990,"isions":5991,"Ġtail":5992,"Ġdirection":5993,"ionic":5994,"Ġvariant":5995,"Ġreplication":5996,"abilities":5997,"Ġhypothal":5998,"acc":5999,"Ġimplants":6000,"ĠPS":6001,"Ġepilepsy":6002,"aracter":6003,"Ġcharacterize":6004,"Ġdonors":6005,"requency":6006,"tub":6007,"Ġresources":6008,"Ġvisc":6009,"inson":6010,"NPs":6011,"ĠCV":6012,"Ġuntreated":6013,"Ġprobability":6014,"astom":6015,"Ġcarcinomas":6016,"Ġonce":6017,"ilarly":6018,"osyl":6019,"ĠSP":6020,"Ġglutathione":6021,"Ġdrain":6022,"Ġgli":6023,"Ġsulfate":6024,"Ġnuclei":6025,"assium":6026,"Ġphysician":6027,"chron":6028,"Ġaort":6029,"De":6030,"Ġhazard":6031,"Ġpure":6032,"ilibrium":6033,"ĠMon":6034,"ĠGer":6035,"LV":6036,"Ġvarying":6037,"Ġnoise":6038,"59":6039,"Ab":6040,"Ġextension":6041,"Ġdehydrogenase":6042,"Ġ53":6043,"elta":6044,"ingly":6045,"Ġpractical":6046,"opor":6047,"Ġodds":6048,"Ġcytochrome":6049,"Ġmaintain":6050,"tized":6051,"ĠDis":6052,"Ġfacial":6053,"urance":6054,"Ġepisodes":6055,"Ġassist":6056,"Ġcavity":6057,"Ġreactivity":6058,"Ġcenters":6059,"urgery":6060,"ĠMMP":6061,"Ġsubsequently":6062,"Ġnone":6063,"Ġemotional":6064,"Ġimmediate":6065,"oxygen":6066,"Ġshorter":6067,"Ġ99":6068,"Ġdepending":6069,"Ġconcom":6070,"Ġdisplay":6071,"Ġaxis":6072,"Ġviability":6073,"Ġantimicrobial":6074,"Ġprevented":6075,"Ad":6076,"Ġ58":6077,"Ġdeposition":6078,"Ġprecise":6079,"Ġpituitary":6080,"Ġsuppress":6081,"Ġsaliv":6082,"inger":6083,"Ġzone":6084,"OX":6085,"Se":6086,"mark":6087,"Ġcytotoxicity":6088,"Ġinvolves":6089,"Ġactions":6090,"Ġequivalent":6091,"down":6092,"ĠEGF":6093,"two":6094,"heimer":6095,"Ġthrombosis":6096,"Ġarr":6097,"Ġlimits":6098,"ocytosis":6099,"Ġface":6100,"Ġbecame":6101,"Ġregimen":6102,"Ġnetworks":6103,"pine":6104,"Ġbreat":6105,"ecal":6106,"tradiol":6107,"Ġinoc":6108,"Ġorganisms":6109,"ĠSw":6110,"Ġinterface":6111,"traction":6112,"Ġ49":6113,"Ġplastic":6114,"450":6115,"Ġpool":6116,"tron":6117,"Ġsimulations":6118,"Ġdisability":6119,"Ġcopper":6120,"Ġcurves":6121,"body":6122,"Ġanth":6123,"ĠInt":6124,"Ġpack":6125,"Ġrabbits":6126,"Ġmicrobial":6127,"ensus":6128,"Ġinitially":6129,"olds":6130,"Ġcomposed":6131,"ĠET":6132,"Ġgive":6133,"draw":6134,"Ġkn":6135,"Ġresponsi":6136,"Ġpreferen":6137,"Ġsettings":6138,"Di":6139,"Ġconcomitant":6140,"81":6141,"Ġincludes":6142,"dial":6143,"sm":6144,"illation":6145,"Ġvaccination":6146,"NK":6147,"fluor":6148,"Ġdeple":6149,"Ġurban":6150,"Ġgangl":6151,"Ġpreparations":6152,"Ġrelaxation":6153,"Ġcalculations":6154,"unt":6155,"Ġpretreatment":6156,"Ġseed":6157,"Ġ96":6158,"ements":6159,"Ġinfectious":6160,"Ġdri":6161,"Ġutilization":6162,"Ġrepeat":6163,"empor":6164,"ensis":6165,"Ġdialysis":6166,"Ġextra":6167,"Ġmening":6168,"matic":6169,"Ġreleased":6170,"Ġdecl":6171,"Ġmodeling":6172,"Ġbelong":6173,"Ġmmol":6174,"lim":6175,"bre":6176,"ley":6177,"ĠAP":6178,"Ġtaking":6179,"oses":6180,"Ġger":6181,"Ġparameter":6182,"Ġsple":6183,"Ġbrief":6184,"Ġnumerous":6185,"Ġremission":6186,"zheimer":6187,"Ġconsisting":6188,"ections":6189,"Ġloading":6190,"ĠCB":6191,"romatic":6192,"avi":6193,"itol":6194,"Ġcartilage":6195,"Ġsquamous":6196,"Ġsubt":6197,"oppler":6198,"Ġinfant":6199,"Ġevaluating":6200,"oglyc":6201,"Ġconstructed":6202,"Ġattributed":6203,"nic":6204,"06":6205,"Ġscan":6206,"lymer":6207,"ĠME":6208,"Ġserve":6209,"Ġsteps":6210,"Ġburden":6211,"âĢ":6212,"ĠRh":6213,"Ġperception":6214,"Ġtrip":6215,"Ġteeth":6216,"ĠPE":6217,"Ġadvantage":6218,"Ġterminal":6219,"Ġspectral":6220,"ifying":6221,"Ġlimitations":6222,"assay":6223,"etermin":6224,"entific":6225,"Ġinstitution":6226,"Ġbegin":6227,"Ġventric":6228,"ĠSA":6229,"ĠSignificant":6230,"Ġpharmacological":6231,"lo":6232,"Ġsensor":6233,"Ġsurviv":6234,"rombin":6235,"ĠPost":6236,"osity":6237,"Ġ57":6238,"Ġabuse":6239,"Ġdip":6240,"Ġdent":6241,"Ġspeed":6242,"Ġdiscre":6243,"Ġrestor":6244,"Ġtwice":6245,"Ġsubcutaneous":6246,"Ġcul":6247,"Ġdepends":6248,"Ġdimin":6249,"hene":6250,"Ġju":6251,"Ġaccoun":6252,"Ġadop":6253,"ady":6254,"MB":6255,"Ġexpansion":6256,"Ġrural":6257,"Ġfever":6258,"Ġvariance":6259,"Ġserot":6260,"Ġcorrection":6261,"uth":6262,"ĠOut":6263,"plate":6264,"ifer":6265,"Ġalways":6266,"linear":6267,"enetic":6268,"Ġdepth":6269,"tructural":6270,"MV":6271,"Ġelevation":6272,"rospective":6273,"idase":6274,"Ġswit":6275,"IA":6276,"iO":6277,"Ġcommercial":6278,"Ġchloride":6279,"Ġretic":6280,"Ġpump":6281,"uron":6282,"ĠFive":6283,"olum":6284,"Ġpairs":6285,"ware":6286,"Ġcutaneous":6287,"Ġautoimmune":6288,"Ġpredictor":6289,"Ġgreen":6290,"Ġconserved":6291,"pase":6292,"ĠMic":6293,"ĠkDa":6294,"ister":6295,"Ġdraw":6296,"Ġinjections":6297,"Ġrobust":6298,"Ġquantum":6299,"dex":6300,"Ġ62":6301,"ĠEach":6302,"rene":6303,"ĠAccording":6304,"Ġblocked":6305,"Ġacqu":6306,"Ġrup":6307,"Ġester":6308,"bi":6309,"Ġabsolute":6310,"heres":6311,"come":6312,"Ġkind":6313,"ps":6314,"Ġtransfusion":6315,"life":6316,"arin":6317,"Ġtranscriptional":6318,"Ġtex":6319,"Ġdelta":6320,"Ġcarry":6321,"inea":6322,"Ġuterine":6323,"Rs":6324,"Ġunus":6325,"idin":6326,"dibular":6327,"chymal":6328,"Ġavailability":6329,"HO":6330,"ĠPET":6331,"ĠIf":6332,"Ġspine":6333,"ĠBr":6334,"ĠLDL":6335,"Ġ120":6336,"aturation":6337,"Ġadjusted":6338,"Ġleaf":6339,"Ġdistributed":6340,"ĠJapanese":6341,"ĠSuch":6342,"Ġembryonic":6343,"ĠInf":6344,"Ġadjacent":6345,"Ġhypertensive":6346,"Ġhemodynamic":6347,"Ġplacement":6348,"ĠIntern":6349,"Ġsupplementation":6350,"ĠPar":6351,"Ġreferred":6352,"Ġeconomic":6353,"Ġmanip":6354,"Ġinverse":6355,"Ġproton":6356,"ono":6357,"Ġname":6358,"Ġindices":6359,"Ġuns":6360,"ritic":6361,"Ġtranspor":6362,"Ġbias":6363,"Ġcounts":6364,"Ġimmunosup":6365,"ĠDecember":6366,"Ġfist":6367,"Ġundert":6368,"Ġexcess":6369,"Ġerrors":6370,"Ġinsertion":6371,"aric":6372,"Ġoperating":6373,"Ġprofessional":6374,"acted":6375,"Ġattenuated":6376,"aceu":6377,"Ġcirrh":6378,"Ġrecovered":6379,"Ġduct":6380,"Ġflav":6381,"Ġthoracic":6382,"Ġfilm":6383,"blind":6384,"Ġadvances":6385,"ĠÂ":6386,"Ġpolicy":6387,"prot":6388,"Ġpelvic":6389,"Ġsymp":6390,"py":6391,"ausal":6392,"Ġ63":6393,"sian":6394,"Ġenzymatic":6395,"phenyl":6396,"Ġexaminations":6397,"Ġpredominantly":6398,"Ġseparated":6399,"ĠMD":6400,"oul":6401,"Ġfilms":6402,"Ne":6403,"Ġasymptomatic":6404,"ND":6405,"ĠCancer":6406,"titis":6407,"Ġpreliminary":6408,"Ġmim":6409,"irc":6410,"Ġ67":6411,"tumor":6412,"Ag":6413,"Ġfetus":6414,"tivation":6415,"Ġcomorb":6416,"ĠFif":6417,"Ġkinetic":6418,"',":6419,"uscular":6420,"RNAs":6421,"atigue":6422,"ocular":6423,"ners":6424,"ĠVEGF":6425,"Ġcontents":6426,"Ġaz":6427,"ĠDep":6428,"Ġeasily":6429,"nia":6430,"Ġtake":6431,"Ġpall":6432,"Ġtasks":6433,"Ġdepressive":6434,"ypical":6435,"grad":6436,"NH":6437,"Ġsubstances":6438,"ĠMg":6439,"ĠELISA":6440,"ĠEnd":6441,"MRI":6442,"cm":6443,"Ġpyl":6444,"Ġpotassium":6445,"Ġencoun":6446,"atif":6447,"Ġviruses":6448,"rimary":6449,"ĠAlzheimer":6450,"ĠHCV":6451,"Ġnegatively":6452,"Ġextremely":6453,"Ġ66":6454,"Ġresidents":6455,"Ġflap":6456,"Ġanaest":6457,"Ġspleen":6458,"Ġfocal":6459,"ĠAS":6460,"Ġrecru":6461,"ureus":6462,"Ġgonad":6463,"uf":6464,"edic":6465,"Ġrefer":6466,"Ġimmobil":6467,"ĠNK":6468,"Ġsera":6469,"ĠNAD":6470,"Ġrequirements":6471,"Ġdetectable":6472,"Ġsolvent":6473,"tructure":6474,"Ġintram":6475,"Ġlayers":6476,"Ġissue":6477,"Ġstandardized":6478,"arrow":6479,"ĠAnti":6480,"ector":6481,"GT":6482,"Ġpercutaneous":6483,"Ġesophageal":6484,"Ġmanifestations":6485,"ofil":6486,"Ġstrom":6487,"four":6488,"ĠCan":6489,"Ġarg":6490,"Ġidentifying":6491,"RR":6492,"Ġdiver":6493,"Ġmitochondria":6494,"Ġsclerosis":6495,"ubated":6496,"Ġinhal":6497,"ophilic":6498,"Fe":6499,"ĠMet":6500,"igible":6501,"ĠMAP":6502,"Ġimplicated":6503,"Ġcorneal":6504,"Ġadenocarcinoma":6505,"ietic":6506,"Ġthereby":6507,"Ġtrache":6508,"uments":6509,"Ġphosphatase":6510,"Ġlumbar":6511,"erate":6512,"ocomp":6513,"acco":6514,"Ġmol":6515,"Ġphoto":6516,"Ġgrafts":6517,"osome":6518,"Ġmeet":6519,"Ġmax":6520,"Ġdecreasing":6521,"ether":6522,"Ġexpect":6523,"ulsion":6524,"Ġanalytical":6525,"nel":6526,"Ġcapillary":6527,"EV":6528,"Ġparad":6529,"Ġtib":6530,"Ġcontinued":6531,"Ġadjuvant":6532,"ĠDoppler":6533,"vents":6534,"ramatic":6535,"rab":6536,"Ġloop":6537,"PH":6538,"Ġputative":6539,"ulative":6540,"Ġefforts":6541,"Ġinfluenza":6542,"Ġdefine":6543,"Ġmaturation":6544,"ocys":6545,"ocortic":6546,"CSF":6547,"Ġveh":6548,"Ġbiomarkers":6549,"lyce":6550,"Ġmethodology":6551,"oyl":6552,"ĠSerum":6553,"ĠÎ¼g":6554,"Ġ68":6555,"ĠSouth":6556,"Ġrequiring":6557,"Ġusers":6558,"Ġaims":6559,"ĠSm":6560,"uding":6561,"Ġpol":6562,"Ġprecursor":6563,"Ġcardiomy":6564,"ĠTheir":6565,"Ġablation":6566,"Ġnutritional":6567,"vance":6568,"Ġsuperf":6569,"Ġcollection":6570,"Ġastro":6571,"Ġseizures":6572,"ĠHA":6573,"iness":6574,"Ġinfluences":6575,"Ġuncertain":6576,"ĠEight":6577,"Ġvaluable":6578,"Ġ59":6579,"ocon":6580,"ĠRecent":6581,"tures":6582,"ĠMI":6583,"dep":6584,"rowth":6585,"thel":6586,"Ġinferior":6587,"Ġantagonists":6588,"Ġaureus":6589,"Ġintroduction":6590,"Ġheparin":6591,"Ġdrinking":6592,"onography":6593,"Ġdrop":6594,"Ġinterferon":6595,"Ġfabric":6596,"Ġhex":6597,"Ġcausing":6598,"Ġimmunity":6599,"Ġperf":6600,"ameth":6601,"Ġket":6602,"Ġms":6603,"ĠÃĹ":6604,"Ġemphas":6605,"umab":6606,"Ġclusters":6607,"ĠDM":6608,"etin":6609,"tral":6610,"Ġ61":6611,"actor":6612,"Ġiod":6613,"Ġaggressive":6614,"Ġnearly":6615,"acillus":6616,"Ġrelapse":6617,"Ġrestriction":6618,"Ġdeficits":6619,"athetic":6620,"ĠHist":6621,"ocellular":6622,"agland":6623,"Ġreasons":6624,"Ġhard":6625,"tisol":6626,"onuclear":6627,"Ġdramatic":6628,"otroph":6629,"Ġpredicting":6630,"Ġcold":6631,"Ġcompression":6632,"formance":6633,"phy":6634,"Ġmovements":6635,"ĠOther":6636,"002":6637,"Ġlanguage":6638,"Ġmucosal":6639,"load":6640,"Ġcry":6641,"Ġregeneration":6642,"trover":6643,"oxin":6644,"igen":6645,"Ġimprovements":6646,"Ġlipids":6647,"isons":6648,"Ġdistress":6649,"metry":6650,"ĠDise":6651,"Ġincorporation":6652,"Ġbip":6653,"TR":6654,"ready":6655,"Ar":6656,"HF":6657,"Ġcompli":6658,"orty":6659,"Ġsurveillance":6660,"oor":6661,"Ġ(>":6662,"Ġversion":6663,"Ġadherence":6664,"Ġvessel":6665,"Ġperitoneal":6666,"Ġexce":6667,"Ġdiffuse":6668,"ĠPV":6669,"Ġ500":6670,"oglobulin":6671,"ana":6672,"Ġestimation":6673,"Ġundertaken":6674,"Ġbiopsies":6675,"Ġgestation":6676,"Ġtoxin":6677,"Ġincreasingly":6678,"Ġcompens":6679,"Ġprogen":6680,"Ġregulate":6681,"otoxin":6682,"kappa":6683,"Ġcategories":6684,"Ġadenosine":6685,"fe":6686,"Ġmostly":6687,"Ġarticles":6688,"aturated":6689,"Ġexcit":6690,"Ġwithdraw":6691,"ĠPG":6692,"platin":6693,"adian":6694,"rared":6695,"Ġpermeability":6696,"ĠParticip":6697,"mented":6698,"ĠIR":6699,"Ġlymphocyte":6700,"Ġoptions":6701,"Ġadaptation":6702,"Ġrod":6703,"Ġangiotensin":6704,"Ġcation":6705,"Ġbeam":6706,"oded":6707,"Ġgave":6708,"ĠmmHg":6709,"ĠGl":6710,"pi":6711,"changed":6712,"Ġelectrode":6713,"Ġdifferentiated":6714,"Ġconfig":6715,"fort":6716,"atidyl":6717,"rele":6718,"Ġcleavage":6719,"Ġtestosterone":6720,"Ġarrest":6721,"Ġglutamate":6722,"Ġrupture":6723,"drug":6724,"pecific":6725,"adj":6726,"yzed":6727,"ĠHF":6728,"Ġorb":6729,"Ġchains":6730,"ĠQu":6731,"Ġanastom":6732,"Ġjud":6733,"Ġexistence":6734,"Ġinters":6735,"ĠAlso":6736,"omonas":6737,"iasis":6738,"Ġlamin":6739,"xt":6740,"Ġexpressing":6741,"Ġhighlight":6742,"Ġremark":6743,"ĠnM":6744,"Ġcorrelate":6745,"Ġburn":6746,"aro":6747,"Ġinner":6748,"07":6749,"Ġcirculation":6750,"Ġ2010":6751,"Ġrheumat":6752,"Ġheterogeneity":6753,"Ġintraoperative":6754,"Ġrestricted":6755,"uity":6756,"ĠControl":6757,"Ġosc":6758,"ceptions":6759,"Ġcontraction":6760,"Ġglass":6761,"ĠOb":6762,"asty":6763,"ozo":6764,"Ġcarbohydr":6765,"tet":6766,"opoietic":6767,"Ġmast":6768,"Ġtrends":6769,"Ġreporting":6770,"Ġsets":6771,"Ġevoked":6772,"Ġperspective":6773,"appro":6774,"RD":6775,"Ġutility":6776,"Ġrecruited":6777,"ĠLC":6778,"assisted":6779,"ears":6780,"Ġgall":6781,"08":6782,"ubi":6783,"Res":6784,"Ġevident":6785,"ou":6786,"Ġlive":6787,"Ġbodies":6788,"alities":6789,"err":6790,"Ġgreatly":6791,"Ġdepartment":6792,"Ġorientation":6793,"Ġscientific":6794,"OM":6795,"Ġalready":6796,"Ġgenerate":6797,"razil":6798,"Ġreversed":6799,"anges":6800,"ĠGerman":6801,"Ġcytoplasmic":6802,"Ġlocus":6803,"Ġallergic":6804,"ĠElec":6805,"ĠMA":6806,"Ġcomput":6807,"ience":6808,"Ġyielded":6809,"sessment":6810,"ON":6811,"Ġauditory":6812,"Ġtraits":6813,"Ġages":6814,"une":6815,"ĠHPV":6816,"luorescence":6817,"ograft":6818,"Ġmiss":6819,"posite":6820,"heses":6821,"ofl":6822,"Ġhemoglobin":6823,"face":6824,"Ġretr":6825,"Ġpathogen":6826,"Ġmobility":6827,"Ġchond":6828,"Ġtob":6829,"Ġ150":6830,"alse":6831,"Ġaneurysm":6832,"Ġnov":6833,"Ġfeedback":6834,"Ġprotocols":6835,"ĠNH":6836,"ont":6837,"sup":6838,"Ġetiology":6839,"Ġdissection":6840,"aints":6841,"Ġunusual":6842,"earing":6843,"controlled":6844,"Ġreviews":6845,"Ġeosin":6846,"Ġsubjective":6847,"auc":6848,"Ġstom":6849,"hanced":6850,"Ġattack":6851,"Ġglycoprotein":6852,"Ġdeletion":6853,"pm":6854,"ractory":6855,"aped":6856,"armac":6857,"cyte":6858,"Ġidi":6859,"agul":6860,"Ġlabeled":6861,"isition":6862,"ivered":6863,"Ġuncom":6864,"Ġschem":6865,"LL":6866,"osed":6867,"azine":6868,"Ġnicot":6869,"ĠLH":6870,"Ġsemi":6871,"Ġvesicles":6872,"Ġartificial":6873,"Ġocular":6874,"Ġhormones":6875,"iae":6876,"Ġtro":6877,"adic":6878,"Ġblack":6879,"elled":6880,"Ġparts":6881,"tiple":6882,"pers":6883,"Ġtel":6884,"Ġnanos":6885,"Ġmono":6886,"ffici":6887,"Ġmedications":6888,"ibration":6889,"Ġacetate":6890,"Ġdescrip":6891,"Ġ300":6892,"Ġdiffered":6893,"Ġfewer":6894,"Ġdecom":6895,"Ġpathogens":6896,"Ġps":6897,"Ġtrue":6898,"Ġword":6899,"ĠAfrican":6900,"Ġhor":6901,"Ġleak":6902,"Ġidenti":6903,"atile":6904,"deficient":6905,"Ġscaff":6906,"OF":6907,"Ġutilized":6908,"with":6909,"asic":6910,"Ġbiology":6911,"Ġunilateral":6912,"Ġsched":6913,"Ġveget":6914,"ote":6915,"Ġsti":6916,"Ġcandidate":6917,"Ġadjustment":6918,"Ġhydrolysis":6919,"Ġvide":6920,"uation":6921,"Ġhr":6922,"Ġcontrover":6923,"areness":6924,"embrane":6925,"Ġspermat":6926,"PG":6927,"Ġsocio":6928,"Ġimproves":6929,"thern":6930,"pin":6931,"Ġrepro":6932,"TS":6933,"DH":6934,"bound":6935,"ĠTB":6936,"Ġfeasibility":6937,"Ġcompl":6938,"Ġammon":6939,"Ġprofessionals":6940,"Ġarthro":6941,"Ġwar":6942,"rapeutic":6943,"fficients":6944,"Ġatroph":6945,"ymmetric":6946,"ĠBrazil":6947,"Es":6948,"ĠcAMP":6949,"velopment":6950,"Ġcomplicated":6951,"rown":6952,"Ġindicators":6953,"Ġdetecting":6954,"virus":6955,"Ġmapping":6956,"Ġdistinguish":6957,"itor":6958,"amental":6959,"ĠAA":6960,"igm":6961,"ras":6962,"ĠAMP":6963,"NOS":6964,"ĠPark":6965,"saccharide":6966,"+,":6967,"Ġball":6968,"005":6969,"Ġfatigue":6970,"tes":6971,"Ġremod":6972,"Ġindications":6973,"Ġformal":6974,"Ġitems":6975,"CB":6976,"Ġpractition":6977,"Ġviol":6978,"unced":6979,"plasty":6980,"Ġintest":6981,"Ġ71":6982,"orbed":6983,"hyper":6984,"Ġtax":6985,"Ġrelie":6986,"Ġdiastolic":6987,"Ġintrinsic":6988,"acterial":6989,"ulties":6990,"rected":6991,"Ġpert":6992,"isting":6993,"Ġattitudes":6994,"ĠMa":6995,"Ġvaginal":6996,"Ġexpress":6997,"Ġstri":6998,"Ġtension":6999,"Ġblue":7000,"DG":7001,"Ġhistor":7002,"Ġparticipation":7003,"Ġdiets":7004,"Ġclosure":7005,"sw":7006,"ĠBet":7007,"five":7008,"Ġgover":7009,"Ġdegeneration":7010,"CAM":7011,"ĠNon":7012,"ĠForty":7013,"ying":7014,"Ġrejection":7015,"Ġhippocampus":7016,"Ġcystic":7017,"Ġmalignancy":7018,"Ġauthor":7019,"Ġrelevance":7020,"Ġgap":7021,"Ġclasses":7022,"Ġlactate":7023,"Ġvalidation":7024,"Ġneither":7025,"Ġtransgenic":7026,"ĠFollowing":7027,"Ġsimulated":7028,"esterone":7029,"Ġitself":7030,"Ġeducational":7031,"athyroid":7032,"Ġmethylation":7033,"Ġtele":7034,"Ġinsights":7035,"Ġmonke":7036,"Ġtooth":7037,"ĠGABA":7038,"Ġedema":7039,"Ġexogenous":7040,"Ġsteady":7041,"Ġsepsis":7042,"Ġsheep":7043,"Ġoverexpression":7044,"Ġcum":7045,"Ġamyloid":7046,"Ġbey":7047,"Ġmicroscopic":7048,"Ġamplification":7049,"dentif":7050,"atings":7051,"Ġprogesterone":7052,"Ġcoefficients":7053,"Ġbeyond":7054,"Ġsym":7055,"UV":7056,"EN":7057,"Ġ78":7058,"Ġcompliance":7059,"ĠTA":7060,"idae":7061,"Ġdimensions":7062,"Ġintegration":7063,"Ġgenotypes":7064,"Ġfrontal":7065,"Ġmonol":7066,"Ġinterpretation":7067,"oes":7068,"na":7069,"ozygous":7070,"Ġdelivered":7071,"Ġdiscussion":7072,"ĠCare":7073,"Ġgestational":7074,"Ġunchanged":7075,"Ġcaspase":7076,"Ġpositions":7077,"Ġheterogeneous":7078,"iples":7079,"Ġimmuno":7080,"ulates":7081,"ĠAV":7082,"ediatric":7083,"Ġclassical":7084,"Am":7085,"Ġparent":7086,"urity":7087,"Ġcheck":7088,"ming":7089,"Ġexcluded":7090,"Ġinsight":7091,"reported":7092,"ervative":7093,"Ġisot":7094,"iction":7095,"ysical":7096,"inate":7097,"generative":7098,"odil":7099,"Ġcortisol":7100,"Ġsituation":7101,"Ġ2009":7102,"oprot":7103,"electric":7104,"nat":7105,"rug":7106,"Ġoxidase":7107,"eal":7108,"Ġprecip":7109,"Ġoccupational":7110,"Ġsul":7111,"actant":7112,"romes":7113,"Ġmyc":7114,"09":7115,"Ġgrown":7116,"Ġdosage":7117,"going":7118,"peritoneal":7119,"Ġteam":7120,"poses":7121,"wave":7122,"Ġoffers":7123,"Ġtryp":7124,"Ġleaves":7125,"MDA":7126,"Ġtechnical":7127,"nea":7128,"Ġquantification":7129,"otides":7130,"ĠMy":7131,"Ġcond":7132,"ademic":7133,"amil":7134,"educ":7135,"Ġplasmid":7136,"Ġpilot":7137,"ĠParticipants":7138,"ĠCSF":7139,"lution":7140,"Ġpylori":7141,"Ġscales":7142,"ensities":7143,"lif":7144,"Ġacquisition":7145,"Ig":7146,"Ġdigital":7147,"ulose":7148,"Ġsynaptic":7149,"adily":7150,"Ġchamb":7151,"ethylene":7152,"Ġmorphine":7153,"Ġcreatinine":7154,"odef":7155,"Ġextrem":7156,"antitative":7157,"Ġdeform":7158,"Ġstart":7159,"Ġ86":7160,"tual":7161,"Ġtrap":7162,"Ġ69":7163,"entry":7164,"Ġsn":7165,"Ġplat":7166,"Ġalign":7167,"Ġpreventing":7168,"Ġlik":7169,"ĠMP":7170,"Ġ&":7171,"Ġplatelets":7172,"Ġresear":7173,"Ġprono":7174,"Ġhyd":7175,"ĠPF":7176,"ĠSup":7177,"RACT":7178,"affec":7179,"Ġconduct":7180,"ĠCK":7181,"Ġserotonin":7182,"Ġresidue":7183,"Ġdirected":7184,"Ġpreterm":7185,"Ġbon":7186,"Ġlost":7187,"Ġbiosynthesis":7188,"trophic":7189,"Ġpronounced":7190,"ascul":7191,"Ġaccom":7192,"Ġexcision":7193,"cardi":7194,"Ġ73":7195,"Ġ76":7196,"EL":7197,"Ġce":7198,"ĠRet":7199,"regn":7200,"Ġdiscontin":7201,"ĠNS":7202,"acial":7203,"herent":7204,"Ġhypothesized":7205,"Ġgerm":7206,"ventive":7207,"Ġplaque":7208,"Ġsusceptible":7209,"prop":7210,"Ġgirls":7211,"Ġdup":7212,"Ġprotease":7213,"fish":7214,"ĠResearch":7215,"Ġtobacco":7216,"glyc":7217,"ĠBlood":7218,"ĠMeth":7219,"Ġdeviation":7220,"Ġbeginning":7221,"Ġprospectively":7222,"Ġpostm":7223,"Ġcombinations":7224,"Ġapoptotic":7225,"Ġperman":7226,"Ġmicrobi":7227,"encephal":7228,"ometer":7229,"ĠCC":7230,"titial":7231,"Ġ(<":7232,"Ġmodifications":7233,"Ġsoftware":7234,"Ġencephal":7235,"phthal":7236,"ylase":7237,"Ġinterviews":7238,"Ġregulating":7239,"Ġoption":7240,"ĠHb":7241,"Ġguinea":7242,"Ġstratif":7243,"Ġproducing":7244,"iol":7245,"]-":7246,"Ġones":7247,"Ġembryo":7248,"Ġatherosclerosis":7249,"Ġarray":7250,"cellular":7251,"Ġpi":7252,"Ġcareful":7253,"Ġphyt":7254,"ought":7255,"Ġperfor":7256,"ads":7257,"Ġaorta":7258,"ĠSR":7259,"Ġfalse":7260,"ods":7261,"ush":7262,"Ġsizes":7263,"labeled":7264,"Ġrig":7265,"Ġphotos":7266,"factor":7267,"Ġemerging":7268,"Ġsubunits":7269,"Ġlith":7270,"Ġtriglycer":7271,"Ġintracranial":7272,"Ġuniform":7273,"Ġscar":7274,"hern":7275,"Ġmotif":7276,"Clinical":7277,"rectomy":7278,"Ġclones":7279,"amily":7280,"abs":7281,"Ġ77":7282,"ĠIts":7283,"ĠHep":7284,"matched":7285,"ĠDR":7286,"hea":7287,"Ġ83":7288,"orp":7289,"istent":7290,"Ġunex":7291,"Ġretrie":7292,"Ġvoltage":7293,"ional":7294,"asing":7295,"vidence":7296,"Ġyields":7297,"Ġoperations":7298,"ĠLow":7299,"independent":7300,"Ġcommunities":7301,"olol":7302,"AI":7303,"gram":7304,"Ġ92":7305,"Ġabol":7306,"Ġcontamination":7307,"Ġland":7308,")].":7309,"Ġ2005":7310,"Ġconsensus":7311,"rays":7312,"Ġsurrounding":7313,"ĠHCC":7314,"Ġdiscovery":7315,"asone":7316,"Ġhippocampal":7317,"Ġfeasible":7318,"Ġcapture":7319,"Ġ74":7320,"brain":7321,"Ġconsists":7322,"tiary":7323,"osus":7324,"Ġhospitalization":7325,"Ġselectivity":7326,"Ġnever":7327,"ensor":7328,"Ġguide":7329,"Ġrectal":7330,"ĠStudies":7331,"Ġhomogene":7332,"Ġraised":7333,"Ã©":7334,"ĠMin":7335,"GS":7336,"Ġbuil":7337,"olid":7338,"Ġrotation":7339,"Ġportion":7340,"Ġ2008":7341,"Ġbis":7342,"Ġ84":7343,"disc":7344,"Ġhydrophobic":7345,"Ġ88":7346,"tent":7347,"Ġfavorable":7348,"Ġregimens":7349,"Ġclinicians":7350,"Ġequilibrium":7351,"Ġalkaline":7352,"pread":7353,"three":7354,"STRACT":7355,"Ġlep":7356,"Ġscans":7357,"Ġdifficulties":7358,"kle":7359,"Ġreflex":7360,"Ġreperfusion":7361,"Ġstarting":7362,"Ġnext":7363,"elen":7364,"Ġsubstantially":7365,"Ġ400":7366,"effective":7367,"Ġpromin":7368,"omorph":7369,"odialysis":7370,"Ġfundamental":7371,"TE":7372,"uli":7373,"Ġfine":7374,"Ġonto":7375,"Ġpg":7376,"ministration":7377,"Ġ98":7378,"Ġsupports":7379,"Ġcreated":7380,"Ġ82":7381,"median":7382,"anic":7383,"ABSTRACT":7384,"Ġabsent":7385,"Ġimmunohistochemical":7386,"Ġsurvivors":7387,"iary":7388,"receptor":7389,"uz":7390,"ĠChildren":7391,"enopausal":7392,"Ġmetabolite":7393,"Ġanatomical":7394,"Ġexists":7395,"Ġspeech":7396,"Ġantico":7397,"Ġtraumatic":7398,"Ġimmunodef":7399,"lit":7400,"Ġsought":7401,"itect":7402,"Ġcows":7403,"Ġbarriers":7404,"Ġexplor":7405,"Ġcareg":7406,"hell":7407,"Ġtypically":7408,"Ġhomeostasis":7409,"Ġglycos":7410,"Ġubi":7411,"Ġintestine":7412,"ĠEEG":7413,"estive":7414,"Ġautom":7415,"Ġmolar":7416,"Ġallowing":7417,"hospital":7418,"da":7419,"uclear":7420,"ĠHT":7421,"Ġobstructive":7422,"Ġidentity":7423,"Ġinternational":7424,"ĠRadi":7425,"ĠMan":7426,"Ġclim":7427,"ks":7428,"Ġgrap":7429,"Ġtrack":7430,"Ġadaptive":7431,"Ġbic":7432,"asure":7433,"Ġpent":7434,"Ġcorrelates":7435,"Ġexclusive":7436,"Med":7437,"Ġcalled":7438,"RH":7439,"Ġtach":7440,"ĠNP":7441,"Ġfa":7442,"Ġhistologic":7443,"Ġsimilarity":7444,"Ġdepletion":7445,"ĠMn":7446,"Ġdeb":7447,"amed":7448,"oct":7449,"apor":7450,"Ġlabeling":7451,"Ġknock":7452,"Ġreveals":7453,"Ġimmunohistochemistry":7454,"Two":7455,"ference":7456,"Ġvolumes":7457,"Ġnurse":7458,"Ġ2007":7459,"Ġparticipated":7460,"Ġaid":7461,"Ġulcer":7462,"Ġdepos":7463,"Ġechocardiography":7464,"osocial":7465,"lig":7466,"Ġinactivation":7467,"ardia":7468,"ĠAB":7469,"Ġportal":7470,"Ġvic":7471,"Ġsuspension":7472,"elihood":7473,"Ġexact":7474,"Ms":7475,"Ġrecruit":7476,"xin":7477,"ĠStr":7478,"Ġprostagland":7479,"eptides":7480,"ĠWOR":7481,"tization":7482,"Ġ2011":7483,"DI":7484,"Ġsuffering":7485,"Ġrheumatoid":7486,"Ġtable":7487,"Ġinstability":7488,"Ġcirrhosis":7489,"Ġ2012":7490,"ĠGu":7491,"Ġconcerns":7492,"entially":7493,"plastic":7494,"Ġreplac":7495,"Ġfollows":7496,"Ġteaching":7497,"Ġanemia":7498,"ĠSoci":7499,"Ġelimination":7500,"Ġ2006":7501,"ices":7502,"otoxicity":7503,"itting":7504,"Ġproviders":7505,"Ġtransm":7506,"Ġnarrow":7507,"ĠPos":7508,"ophyl":7509,"Ġionic":7510,"Ġindicator":7511,"ĠSecond":7512,"Ġaver":7513,"Ġepidermal":7514,"Ġcoding":7515,"Ġpathogenic":7516,"uncture":7517,"economic":7518,"Ġtranslocation":7519,"Ġproven":7520,"Ġhouse":7521,"Ġquad":7522,"Ġsynerg":7523,"luor":7524,"CATED":7525,"Ġinterference":7526,"Ġderm":7527,"ĠEngl":7528,"ĠTRUN":7529,"Ġsupply":7530,"uality":7531,"ĠLi":7532,"Ġpic":7533,"Ġattachment":7534,"ĠTRUNCATED":7535,"Ġunf":7536,"Ġhapl":7537,"Ġpremature":7538,"ero":7539,"ĠDA":7540,"Ġloci":7541,"Ġenvironments":7542,"ĠWORDS":7543,"Gl":7544,"osan":7545,"acycl":7546,"gia":7547,"Ġmetals":7548,"Ġcontributes":7549,"Ġgenus":7550,"Ġpreced":7551,"rotic":7552,"Ġequation":7553,"Ġattr":7554,"ĠOS":7555,"Ġoptic":7556,"ographs":7557,"adjusted":7558,"Ġinfiltration":7559,"Ġalveolar":7560,"Ġcorticoster":7561,"Ġscreened":7562,"Ġouter":7563,"Ġvehicle":7564,"Ġmitral":7565,"Ġlacking":7566,"Ġ97":7567,"Ġreversible":7568,"Ġendometrial":7569,"Ġmonitor":7570,"Ġopioid":7571,"hep":7572,"Ġmodes":7573,"olone":7574,"omotor":7575,"Ġflux":7576,"Ġfinger":7577,"Ġoscill":7578,"Ġidiopathic":7579,"obacterium":7580,"Ġattempt":7581,"Ġactual":7582,"Ġsomat":7583,"Ġendocrine":7584,"Ġprevalent":7585,"ĠMany":7586,"Ġagonists":7587,"Ġsubtypes":7588,"Ġprobes":7589,"standing":7590,"Ġblind":7591,"Ġcarriers":7592,"Ġempir":7593,"Ġlibr":7594,"ĠHz":7595,"Ġnanoc":7596,"Ġcanal":7597,"Ġdye":7598,"Ġoutpatient":7599,"Ġglands":7600,"SO":7601,"Ġimplemented":7602,"Ġcarrier":7603,"uv":7604,"Ġstandards":7605,"opl":7606,"Ġacceptable":7607,"Ġ94":7608,"Ġassembly":7609,"Ġgreatest":7610,"ophen":7611,"Per":7612,"lact":7613,"Ġobvious":7614,"-[":7615,"ĠType":7616,"Ġect":7617,"orbent":7618,"iments":7619,"Ġcoverage":7620,"Ġchanging":7621,"Ġcytometry":7622,"ĠÂ°":7623,"ares":7624,"Ġscattering":7625,"Ġroute":7626,"Ġfibrillation":7627,"oxic":7628,"Ġpassive":7629,"density":7630,"Ġdiagnoses":7631,"Ġ81":7632,"aemic":7633,"Ġconsistently":7634,"ĠFirst":7635,"Ġ93":7636,"Ġreach":7637,"utrition":7638,"ĠParkinson":7639,"outhern":7640,"Ġworldwide":7641,"Ġsound":7642,"Ġincubated":7643,"emat":7644,"Ġconcurrent":7645,"alking":7646,"Ġxen":7647,"iplinary":7648,"Ġepidemiological":7649,"ĠSurve":7650,"Ġparental":7651,"field":7652,"Ġresting":7653,"Ġ87":7654,"Ġhepatocytes":7655,"chain":7656,"pinal":7657,"DT":7658,"Ġcla":7659,"Ġpancreas":7660,"Ġoperated":7661,"amus":7662,"Ġpregnancies":7663,"Ġdeterminants":7664,"phen":7665,"teral":7666,"Ġconsequence":7667,"Ġfluct":7668,"gel":7669,"Ġsolub":7670,"Ġinitiated":7671,"Ġawareness":7672,"Ġmakes":7673,"Ġrefractory":7674,"ss":7675,"ked":7676,"Ġfasting":7677,"Ġchor":7678,"psych":7679,"Ġquantified":7680,"Ġuses":7681,"ograms":7682,"umatic":7683,"times":7684,"mut":7685,"Ġregardless":7686,"Ġile":7687,"Ġnamely":7688,"inase":7689,"Ġvisits":7690,"Ġfungal":7691,"uly":7692,"Ġdescription":7693,"Ġproject":7694,"patients":7695,"Ġsupporting":7696,"Ġdecisions":7697,"Ġways":7698,"Ġclosed":7699,"six":7700,"OT":7701,"Ġrarely":7702,"Ġsympathetic":7703,"Ġfatal":7704,"Ġadolescent":7705,"Ġderivative":7706,"ĠNi":7707,"PL":7708,"ait":7709,"Ġcisplatin":7710,"ĠFA":7711,"Ġatypical":7712,"ocin":7713,"ĠCurrent":7714,"anned":7715,"Ġdrainage":7716,"Ġsediment":7717,"roc":7718,"Ġlarv":7719,"Ġannual":7720,"Ns":7721,"Ġfiltration":7722,"Ġduod":7723,"Ġinhibiting":7724,"avail":7725,"Ġinvolve":7726,"vit":7727,"ĠPub":7728,"Ġath":7729,"Ġdistributions":7730,"Ġforces":7731,"actors":7732,"Ġrs":7733,"Ġobservational":7734,"oustic":7735,"Ġchallenging":7736,"arged":7737,"ĠEffec":7738,"ĠGC":7739,"bra":7740,"Ġdeterior":7741,"Ġmess":7742,"Ġethyl":7743,"Ġbiliary":7744,"chers":7745,"no":7746,"Ġactivator":7747,"Ġbrom":7748,"ĠDisease":7749,"Ġformulation":7750,"Ġexperimentally":7751,"Ġaromatic":7752,"affected":7753,"Ġquin":7754,"Ġtor":7755,"ĠGy":7756,"Ġneedle":7757,"ĠItal":7758,"Ġsuperoxide":7759,"ĠTest":7760,"Ġboys":7761,"ĠHPLC":7762,"Ġsubstitution":7763,"Ġincom":7764,"idespread":7765,"Ġpostoperatively":7766,"PF":7767,"Ġwet":7768,"Ġgal":7769,"echn":7770,"Ġprinciples":7771,"Ġoverview":7772,"Ġdiscrimination":7773,"atum":7774,"Ġneurode":7775,"Ġinsuff":7776,"Ġadipose":7777,"timal":7778,"Ġfaster":7779,"Ġmach":7780,"Ġlute":7781,"TNF":7782,"openia":7783,"Ġalleles":7784,"Ġ79":7785,"Ġlikelihood":7786,"Ġ2013":7787,"amycin":7788,"Ġtrim":7789,"Ġreading":7790,"Ġduc":7791,"Ġdecades":7792,"riched":7793,"ophila":7794,"oxacin":7795,"Ġequip":7796,"anted":7797,"Ġsearc":7798,"Ġobst":7799,"ococcal":7800,"Ġ2004":7801,"hyd":7802,"ĠPr":7803,"Ġesophag":7804,"ĠPlasma":7805,"Ġcolony":7806,"Ġmotility":7807,"Ġnmol":7808,"oulder":7809,"MF":7810,"Ġabundant":7811,".(":7812,"Ġoptimized":7813,"ĠInterest":7814,"ĠLong":7815,"Ġsole":7816,"omeric":7817,"echanical":7818,"Ġporcine":7819,"Ġstiff":7820,"enchymal":7821,"Ġcloned":7822,"imental":7823,"Ġvertical":7824,"Ġentry":7825,"Ġcattle":7826,"ĠVari":7827,"VI":7828,"Ġprophylaxis":7829,"Ġbot":7830,"Ġmutagen":7831,"+-":7832,"organic":7833,"Ġimplanted":7834,"Ġcover":7835,"era":7836,"opoly":7837,"Ġvaccines":7838,"sequently":7839,"atible":7840,"ĠStaphyl":7841,"ll":7842,"ĠCNS":7843,"ĠLT":7844,"Ġhepatocellular":7845,"opy":7846,"aste":7847,"Ġaberr":7848,"Ġdatabases":7849,"Ġau":7850,"Ġquestionnaires":7851,"%-":7852,"Ġcomplexity":7853,"opes":7854,"pes":7855,"ĠOp":7856,"Ġpermanent":7857,"Ġconstruct":7858,"rile":7859,"Ġwithdrawal":7860,"Ġadren":7861,"ĠTen":7862,"Ġimmunoglobulin":7863,"Ġcumulative":7864,"ued":7865,"Ġhour":7866,"Ġconflic":7867,"Ġreductase":7868,"aving":7869,"ota":7870,"Ġfertil":7871,"Ġsuicide":7872,"ĠInstit":7873,"Ġosteopor":7874,"Ġbulk":7875,"Ġ91":7876,"Hy":7877,"Ġcats":7878,"Ġligament":7879,"agic":7880,"Ġpostnatal":7881,"ĠHDL":7882,"aret":7883,"Ġconformation":7884,"ĠHD":7885,"Ġpharmaceu":7886,"Ġtiming":7887,"Ġ125":7888,"Ġexpressions":7889,"alling":7890,"atibility":7891,"ĠEC":7892,"Ġsmokers":7893,"ĠPseud":7894,"Ġexplan":7895,"Ġaccep":7896,"ĠTotal":7897,"Ġmanaged":7898,"Ġsequential":7899,"RF":7900,"Although":7901,"GC":7902,"Ġemp":7903,"Ġabundance":7904,"oking":7905,"rig":7906,"nis":7907,"Ġhypertrophy":7908,"Ġaqu":7909,"Ġrepresented":7910,"Ġimmunodeficiency":7911,"ĠIndex":7912,"Ġpreferred":7913,"Ġtertiary":7914,"Ġcouns":7915,"Ġaccurately":7916,"Ġpathologic":7917,"erobic":7918,"ĠCal":7919,"alled":7920,"Ġstomach":7921,"theless":7922,"Ġgut":7923,"Ġrear":7924,"Ġconsideration":7925,"Ġreag":7926,"va":7927,"Ġthal":7928,"dic":7929,"Ġlocations":7930,"Ġgeneralized":7931,"monella":7932,"osing":7933,"otoxic":7934,"Ġdissociation":7935,"Ġselectively":7936,"break":7937,"ĠNot":7938,"ĠRel":7939,"Ġsent":7940,"ned":7941,"ĠSF":7942,"Ġoccas":7943,"oradi":7944,"BB":7945,"place":7946,"Ġ89":7947,"Ġphag":7948,"Ġdim":7949,"Ġmember":7950,"Ġrepresentative":7951,"It":7952,"sil":7953,"Ġcam":7954,"Ġbiofil":7955,"Ġmacrophage":7956,"Ġwidespread":7957,"Ġconsiderably":7958,"Ġproduces":7959,"iph":7960,"piratory":7961,"olus":7962,"spring":7963,"Ġelucidate":7964,"Ġelicited":7965,"arp":7966,"125":7967,"cious":7968,"PAR":7969,"Ġtransduction":7970,"Ġcategor":7971,"comp":7972,"ĠNorth":7973,"Ġformer":7974,"Ġsituations":7975,"response":7976,"Ġoocytes":7977,"ufact":7978,"Ġenl":7979,"imetry":7980,"Ġeffort":7981,"ducing":7982,"ĠInternational":7983,"ĠPrevious":7984,"ordance":7985,"Ġmacro":7986,"ltr":7987,"Ġnerves":7988,"Ġsyndromes":7989,"ĠGra":7990,"Ġtendon":7991,"Ġcomparisons":7992,"ga":7993,"Ġbrid":7994,"Ġdev":7995,"ura":7996,"Ġencour":7997,"Ġtopical":7998,"Ġpressures":7999,"Hz":8000,"Ġlobe":8001,"amethasone":8002,"Ġvisible":8003,"mes":8004,"depress":8005,"fil":8006,"ffe":8007,"Inter":8008,"Ġrespective":8009,"mosp":8010,"Ġvision":8011,"itic":8012,"Ġtechnologies":8013,"Ġconsult":8014,"Ġpup":8015,"oemb":8016,"Ġatrophy":8017,"esticular":8018,"fts":8019,"Ġreinf":8020,"Ġbat":8021,"Ġsurgeons":8022,"Ġoutside":8023,"Ġsynchron":8024,"igaret":8025,"Ġneutrophils":8026,"Ġ1000":8027,"Ġreadily":8028,"andem":8029,"Ġspi":8030,"ĠSI":8031,"ynthetic":8032,"Ġprecision":8033,"ĠPb":8034,"Ġbed":8035,"Ġconservative":8036,"Ġintrav":8037,"ivariate":8038,"Ġcompetitive":8039,"Ġbuffer":8040,"Ġtranslation":8041,"Ġ2003":8042,"Ġincre":8043,"Ġmammary":8044,"plication":8045,"Ġacidic":8046,"Ġhabit":8047,"Ġperforming":8048,"Ġjust":8049,"oxygenase":8050,"echol":8051,"Ġretard":8052,"Ġresponded":8053,"Ġchromosomal":8054,"Ġsomatic":8055,"ĠIgE":8056,"orld":8057,"Ġ2014":8058,"Ġprincipal":8059,"plex":8060,"Ġinteract":8061,"arter":8062,"âĤ":8063,"ĠBD":8064,"Ġvulner":8065,"Ġrespondents":8066,"Ġeating":8067,"ĠSE":8068,"Ġdemand":8069,"reactive":8070,"azol":8071,"ĠJune":8072,"Ġcollabor":8073,"Ġmaintaining":8074,"Ġstop":8075,"ĠHBV":8076,"Ġcontral":8077,"ĠStre":8078,"ctomy":8079,"Ġcoagulation":8080,"ofluorescence":8081,"opulmonary":8082,"Ġmalignancies":8083,"herence":8084,"Ds":8085,"Ġlargest":8086,"ynaptic":8087,"Ġblockade":8088,"Ġsatisfactory":8089,"udden":8090,"Ġefficiently":8091,"sulf":8092,"Ġprominent":8093,"Ġradiographic":8094,"Ġhyperplasia":8095,"ositol":8096,"abolic":8097,"disciplinary":8098,"plications":8099,"Ġongoing":8100,"Ġlungs":8101,"Ġsph":8102,"ĠStaphylococcus":8103,"oluble":8104,"Ġbands":8105,"Ġacademic":8106,"zen":8107,"Ġinterstitial":8108,"ĠInterestingly":8109,"Wh":8110,"Ġensure":8111,"Ġphenotypes":8112,"Ġincorporated":8113,"ycardia":8114,"Ġcarbohydrate":8115,"Ġglauc":8116,"ĠRecently":8117,"Ġlist":8118,"High":8119,"dl":8120,"Ġubiquit":8121,"He":8122,"Ġchromosomes":8123,"rem":8124,"Ġnonlinear":8125,"Ġemerged":8126,"Ġsessions":8127,"Ġaddi":8128,"Ġdemonstrating":8129,"Ġangiogenesis":8130,"adequ":8131,"Ġtolerated":8132,"Ġassessments":8133,"Ġaccounted":8134,"Ġaddressed":8135,"MO":8136,"Îº":8137,"ometh":8138,"opa":8139,"Ġmodulate":8140,"Ġintegrity":8141,"sial":8142,"Ġshorten":8143,"lands":8144,"Ġfo":8145,"Ġstimulate":8146,"esium":8147,"Ġspp":8148,"ĠQues":8149,"Ġ2015":8150,"Ġphylogenetic":8151,"Ġneurom":8152,"Ġreductions":8153,"ĠPa":8154,"ĠGF":8155,"Ġlec":8156,"Ġmodalities":8157,"Ġlarvae":8158,"Ġhistamine":8159,"valence":8160,"inin":8161,"Ser":8162,"rical":8163,"ĠChem":8164,"sensitivity":8165,"poly":8166,"Ġseizure":8167,"tol":8168,"Ġvascul":8169,"otes":8170,"Ġandrogen":8171,"Ġadip":8172,"Ġphosphatidyl":8173,"NC":8174,"iant":8175,"elve":8176,"Ġinducing":8177,"Ġmodern":8178,"Ġtranscripts":8179,"Ġdiminished":8180,"eight":8181,"Ġborn":8182,"Ġmedull":8183,"jun":8184,"hour":8185,"Ġworse":8186,"Ġkeratin":8187,"Ġ2002":8188,"eptive":8189,"Ġcomprised":8190,"rox":8191,"Ġstudying":8192,"ĠSubjec":8193,"idium":8194,"amination":8195,"Ġmom":8196,"kappaB":8197,"Ġtended":8198,"Ġextend":8199,"fib":8200,"Ġrhythm":8201,"step":8202,"Ġhams":8203,"Ġventricle":8204,"ĠAustral":8205,"Ġquantify":8206,"Ġcontralateral":8207,"Ġdefinition":8208,"Ġexhibits":8209,"Ġfores":8210,"partum":8211,"cepts":8212,"ĠIU":8213,"Ġendothelium":8214,"Ġeasy":8215,"Ġ2001":8216,"Ġslic":8217,"rangement":8218,"ira":8219,"ards":8220,"Ġstromal":8221,"Ġcoordination":8222,"Ġpotency":8223,"Ġredox":8224,"oarth":8225,"Ġparasite":8226,"Ġprenatal":8227,"ĠBetween":8228,"then":8229,"heric":8230,"BT":8231,"Ġureth":8232,"catal":8233,"ĠFifty":8234,"Met":8235,"Ġenhances":8236,"Ġacuity":8237,"ĠSC":8238,"cat":8239,"ĠMo":8240,"Ġdiffraction":8241,"astatin":8242,"SI":8243,"ectom":8244,"apt":8245,"Ġradial":8246,"Ġglomerular":8247,"Ġhors":8248,"Ġdermat":8249,"ĠSociety":8250,"zer":8251,"Ġglucocortic":8252,"Ġencountered":8253,"Ġstarted":8254,"viral":8255,"ĠMay":8256,"Ġremodeling":8257,"Ġpathophysiology":8258,"helial":8259,"Ġseek":8260,"ĠDiagn":8261,"ert":8262,"Î³":8263,"Ġisoforms":8264,"Ġimmunoreactivity":8265,"enari":8266,"Ġcran":8267,"Ġrepresenting":8268,"Ġpreference":8269,"Ġanalogues":8270,"abetic":8271,"Ġpriv":8272,"oplasmic":8273,"Ġcomorbid":8274,"Bi":8275,"tem":8276,"There":8277,"erating":8278,"non":8279,"(-)":8280,"ĠEarly":8281,"acerb":8282,"Ġelectric":8283,"Ġcyan":8284,"Ġdendritic":8285,"ĠPatient":8286,"Ġjunction":8287,"Ġprogramme":8288,"Na":8289,"Ġcomplementary":8290,"kelet":8291,"Ġpersonality":8292,"ĠFT":8293,"Ġvirul":8294,"Ġmanufact":8295,"partic":8296,"Ġemphasis":8297,"Ġsummary":8298,"Ġdepressed":8299,"fficacy":8300,"Ġpresum":8301,"ythem":8302,"ĠAIDS":8303,"Ġelastic":8304,"Ġpsychosocial":8305,"Ġcomb":8306,"Ġsecretory":8307,"rex":8308,"iation":8309,"Ġengineering":8310,"Ġexcitation":8311,"Ġ[(":8312,"uents":8313,"Ġlup":8314,"ultural":8315,"Ġautologous":8316,"Ġscrew":8317,"ocor":8318,"lings":8319,"Ġvacu":8320,"ah":8321,"Ġneutrophil":8322,"ilization":8323,"PK":8324,"icardi":8325,"ref":8326,"enta":8327,"ĠNeuro":8328,"003":8329,"ysiological":8330,"tidine":8331,"Ġwavel":8332,"Ġcritically":8333,"lin":8334,"Ġconstants":8335,"Ġ2016":8336,"odds":8337,"Ġinside":8338,"ĠUK":8339,"Ġrice":8340,"Ġpapill":8341,"Ġperceptions":8342,"Ġstronger":8343,"LDL":8344,"Ġresponsiveness":8345,"Ġproliferative":8346,"Ġventil":8347,"Ġfruit":8348,"dentification":8349,"Ġconsidering":8350,"Ġreflux":8351,"ulture":8352,"ĠSalmonella":8353,"otub":8354,"Ġsuperficial":8355,"Ġchamber":8356,"Ġrhin":8357,"Ġpharmacokinetic":8358,"Ġdisturbances":8359,"Ġpartners":8360,"ket":8361,"Ġoccl":8362,"eded":8363,"Ġprotect":8364,"eres":8365,"Ġmeaning":8366,"otin":8367,"vari":8368,"rist":8369,"Ġborder":8370,"Ġperioperative":8371,"accharides":8372,"Ġsubgroups":8373,"Ġcomprom":8374,"trin":8375,"Ġmixtures":8376,"ĠHuman":8377,"Ġinfiltr":8378,"Ġarchitect":8379,"Ġthreat":8380,"posure":8381,"pop":8382,"Evaluation":8383,"Ġleuc":8384,"Ġultim":8385,"Ġviable":8386,"roscopy":8387,"amines":8388,"antic":8389,"Ġmillion":8390,"Ġâī¤":8391,"ĠWhe":8392,"ĠAu":8393,"Ġaccepted":8394,"centr":8395,"Ġcyclo":8396,"Ġchemistry":8397,"abled":8398,"ĠROS":8399,"ĠStatis":8400,"Ġparticipate":8401,"class":8402,"aman":8403,"Ġplane":8404,"Ġregulates":8405,"Ġturnover":8406,"Ġpredis":8407,"Ġdestr":8408,"Ġfistula":8409,"Ġincomplete":8410,"Ġantidepress":8411,"Ġspor":8412,"UT":8413,"Ġbinds":8414,"ubicin":8415,"Ġcytoplasm":8416,"Ġabolished":8417,"olate":8418,"Â®":8419,"Ġindustrial":8420,"Ġdeficit":8421,"ĠPO":8422,"Ġdecade":8423,"Ġmalaria":8424,"Ġoptimization":8425,"Ġindication":8426,"Ġhematopoietic":8427,"osen":8428,"Ġperoxidase":8429,"Ġwalking":8430,"het":8431,"Ġventral":8432,"from":8433,"Ġpurification":8434,"Ġroots":8435,"ĠPL":8436,"Ġsubtype":8437,"Ġnutrient":8438,"operation":8439,"lycemia":8440,"ĠCox":8441,"kt":8442,"yel":8443,"ĠPo":8444,"Ġupd":8445,"Ġconformational":8446,"inyl":8447,"stable":8448,"ofib":8449,"Ġalteration":8450,"Ġphenotypic":8451,"Ġapo":8452,"Ġbipolar":8453,"Ġfilter":8454,"Ġwind":8455,"sk":8456,"ĠNT":8457,"Ġresource":8458,"axel":8459,"Ġexcessive":8460,"Ġhomologous":8461,"ĠNone":8462,"Ġoutbreak":8463,"Ġanatomy":8464,"Ġpancreatitis":8465,"Ġdark":8466,"forming":8467,"acryl":8468,"Ġleptin":8469,"Ġatomic":8470,"Ġcanine":8471,"ĠSH":8472,"Ġlaw":8473,"Ġatmosp":8474,"Ġpreventive":8475,"Ġcarboxyl":8476,"Ġtransporter":8477,"Ġdownstream":8478,"ools":8479,"vered":8480,"ĠCE":8481,"NR":8482,"Ġsecreted":8483,"ĠOct":8484,"Ġblocks":8485,"Ġsham":8486,"atell":8487,"ĠIgA":8488,"Ġacts":8489,"rance":8490,"Ġurea":8491,"olinergic":8492,"Ġeggs":8493,"Ġpowerful":8494,"Ġpractitioners":8495,"Ġdoub":8496,"Ġinher":8497,"Ġneonates":8498,"Ġpromoting":8499,"ĠArab":8500,"Ġseason":8501,"Ġharv":8502,"inescence":8503,"Ġcement":8504,"adrenergic":8505,"iry":8506,"ĠCardi":8507,"Ġmyeloid":8508,"dimethyl":8509,"Ġphenyl":8510,"Ġpatch":8511,"Ġhar":8512,"uits":8513,"Ġclarify":8514,"Ġexacerb":8515,"Ġlinkage":8516,"Ġconduction":8517,"ĠAssessment":8518,"Ġproportional":8519,"idi":8520,"Ġvital":8521,"iazep":8522,"Ġcysts":8523,"nine":8524,"Ġmononuclear":8525,"Ġreturned":8526,"Ġamel":8527,"Ġkerat":8528,"Ġabscess":8529,"Ġoffspring":8530,"Ġdisruption":8531,"ologist":8532,"Ġapparently":8533,"Ġtree":8534,"atonin":8535,"PM":8536,"polar":8537,"Ġcaud":8538,"ĠQuestion":8539,"Ġenable":8540,"Ġpsori":8541,"istrib":8542,"Ġtrained":8543,"Ġcontributed":8544,"Ġcentr":8545,"uls":8546,"Ġheadache":8547,"Ġfoods":8548,"Ġarteri":8549,"gone":8550,"Ġdispersion":8551,"Ġindustry":8552,"Ġfamilial":8553,"Ġdigestion":8554,"Ġmuscular":8555,"enhanced":8556,"Tc":8557,"Ġcandidates":8558,"Ġsplic":8559,"Ġshoulder":8560,"Ġtendency":8561,"omatous":8562,"Ġfif":8563,"SE":8564,"ĠSV":8565,"Ġpromotes":8566,"Ġpropag":8567,"Ġhind":8568,"Ġ$":8569,"Ġevolutionary":8570,"aint":8571,"ĠMal":8572,"Ġ1990":8573,"Ġta":8574,"Ġresearchers":8575,"Ġstained":8576,"Ġevid":8577,"Ġmonocytes":8578,"ifferenti":8579,"Ġunaffected":8580,"ostatic":8581,"Ġdisplacement":8582,"itin":8583,"Cr":8584,"epit":8585,"Ġhoriz":8586,"ention":8587,"Ġwheat":8588,"after":8589,"Ġusefulness":8590,"Ġlamb":8591,"raine":8592,"Ġapical":8593,"Ġneuros":8594,"anium":8595,"oprop":8596,"ufficient":8597,"Ġtesticular":8598,"Ġdissem":8599,"Ġretained":8600,"edded":8601,"being":8602,"Ġmicroc":8603,"Ġscreen":8604,"Ġamph":8605,"])":8606,"Ġcocaine":8607,"Ġdich":8608,"Ġbab":8609,"Ġabor":8610,"ĠCL":8611,"sec":8612,"Ġsarc":8613,"ĠCar":8614,"vation":8615,"bodies":8616,"istar":8617,"Ġelectrodes":8618,"Ġbonds":8619,"uate":8620,"Ġresolved":8621,"Ġestradiol":8622,"aceae":8623,"Ġcatar":8624,"Ġmigr":8625,"Ġresin":8626,"Ġrecruitment":8627,"ocyan":8628,"lege":8629,"tiviral":8630,"Ġpanel":8631,"Ġhypog":8632,"Ġscenari":8633,"Ġsudden":8634,"Ġsignalling":8635,"Ġinadequ":8636,"ximately":8637,"iable":8638,"ocated":8639,"Ġelectrochemical":8640,"diagn":8641,"ĠOrgan":8642,"Ġundergone":8643,"Ġgradually":8644,"aryng":8645,"ĠQuestionnai":8646,"hetized":8647,"Ġstret":8648,"Ġmarket":8649,"ĠAssociation":8650,"Ġautomated":8651,"oblastic":8652,"Ġbiomass":8653,"sal":8654,"ĠPKC":8655,"Trans":8656,"ev":8657,"Ġaneurysms":8658,"recip":8659,"anish":8660,"terase":8661,"bumin":8662,"ĠClass":8663,"ĠACT":8664,"gene":8665,"ica":8666,"SV":8667,"Ġposts":8668,"Ġimmunological":8669,"odal":8670,"resolution":8671,"ĠSevent":8672,"Ġsalivary":8673,"Ġisolate":8674,"Ġshear":8675,"Ġanalogue":8676,"arts":8677,"Ġadduc":8678,"Ġmap":8679,"ĠEle":8680,"rozen":8681,"Ġvisit":8682,"Ġatoms":8683,"orous":8684,"ĠID":8685,"Ġopposite":8686,"HI":8687,"guided":8688,"Ġdifferentiate":8689,"through":8690,"static":8691,"Ġinsufficiency":8692,"Ġstiffness":8693,"emographic":8694,"ĠDepartment":8695,"Ġsurgeon":8696,"ayers":8697,"aminergic":8698,"ĠÂµ":8699,"ger":8700,"ulator":8701,"olding":8702,"performance":8703,"Ġconcepts":8704,"Ġcontinue":8705,"Ġrich":8706,"cluding":8707,"Ġtubular":8708,"Ġnormally":8709,"Ġerythem":8710,"Ġseverely":8711,"oides":8712,"ĠRep":8713,"Ġjo":8714,"icking":8715,"aments":8716,"oplastic":8717,"osarcoma":8718,"Comparison":8719,"Ġballoon":8720,"ico":8721,"ĠTLR":8722,"Ġspontaneously":8723,"Ġobject":8724,"Ġdepr":8725,"frequency":8726,"Ġsi":8727,"Ġenanti":8728,"Ġfocusing":8729,"tead":8730,"Ġdiscovered":8731,"Ġcountry":8732,"Ġchron":8733,"Ġdifficulty":8734,"Ġinstruments":8735,"omestic":8736,"Ġunlike":8737,"Inc":8738,"Ġscal":8739,"BR":8740,"iliary":8741,"ĠCG":8742,"inosa":8743,"glucose":8744,"Ġinfrared":8745,"Ġwidth":8746,"Ap":8747,"onset":8748,"assemb":8749,"Ġkidneys":8750,"Ġenhancing":8751,"Ġhormonal":8752,"glycer":8753,"Ġke":8754,"Ġhistology":8755,"Ġunrelated":8756,"Ġaerobic":8757,"uretic":8758,"Ġstaging":8759,"Ġovercome":8760,"rosophila":8761,"Ġprescribed":8762,"Ġhelpful":8763,"anes":8764,"Ġhemodialysis":8765,"Ġadvance":8766,"Ġhospitalized":8767,"Ġanomalies":8768,"titive":8769,"Ġchondro":8770,"obut":8771,"Ġorally":8772,"Ġantitumor":8773,"Ġorganism":8774,"ostatin":8775,"ognition":8776,"ĠMarch":8777,"Ġfollicular":8778,"Ġbelief":8779,"hold":8780,"Ġguidance":8781,"Ġasked":8782,"Ġtranscript":8783,"Ġlupus":8784,"ochrom":8785,"ober":8786,"engths":8787,"Ġuncommon":8788,"retin":8789,"Î¼":8790,"ostomy":8791,"iative":8792,"Ġneigh":8793,"Ġtetra":8794,"Ġradiological":8795,"tri":8796,"ora":8797,"lipid":8798,"ĠSimilar":8799,"Ġisch":8800,"Ġkinases":8801,"weighted":8802,"Ġnodules":8803,"Ġcatechol":8804,"ĠLA":8805,"osts":8806,"Ġshared":8807,"Un":8808,"ries":8809,"Ġ1999":8810,"Ġaspiration":8811,"selec":8812,"Ġcomputational":8813,"aters":8814,"itrate":8815,"astric":8816,"ensitivity":8817,"Ġprostaglandin":8818,"osystem":8819,"Ġgenetically":8820,"olization":8821,"Ġperiodontal":8822,"Ġsilica":8823,"ĠAustralia":8824,"Ġhemisp":8825,"Ġvertebral":8826,"etection":8827,"Ġwarr":8828,"ĠIgM":8829,"Ġcasc":8830,"ĠWomen":8831,"Ġmobile":8832,"erge":8833,"cap":8834,"Ġchosen":8835,"Ġcholec":8836,"Tr":8837,"Ġpolypeptide":8838,"ĠNever":8839,"elves":8840,"ĠICU":8841,"ropathy":8842,"opsy":8843,"Ġbearing":8844,"Ġreconstruc":8845,"Ġze":8846,"Ġpharmacokinetics":8847,"Ġideal":8848,"Ġvideo":8849,"romy":8850,"Ġexamples":8851,"GR":8852,"Ġtoo":8853,"Anti":8854,"Ġnano":8855,"Ġcontributing":8856,"Ġoffered":8857,"Ġpolymers":8858,"Ġtight":8859,"Ġretina":8860,"Ġoverweight":8861,"oblastoma":8862,"Ġaxial":8863,"arean":8864,"ĠWistar":8865,"high":8866,"Ġdia":8867,"Ġanion":8868,"Ġpromoted":8869,"Ġmood":8870,"Ġblast":8871,"Ġppm":8872,"Ġchicken":8873,"Ġconfound":8874,"Ġforming":8875,"omb":8876,"Ġcros":8877,"Ġmicroorgan":8878,"Ġweights":8879,"Ġreflected":8880,"ATPase":8881,"ĠECG":8882,"Ġleukocyte":8883,"Ġpreservation":8884,"Ġinstead":8885,"Ġcigaret":8886,"Ġdeclined":8887,"ĠRF":8888,"glob":8889,"Ġtraff":8890,"Ġcombining":8891,"target":8892,"Ġgrafting":8893,"Ġtes":8894,"Ġintense":8895,"Ġconfiguration":8896,"Ġsaturation":8897,"Ġelectrom":8898,"Ġbrach":8899,"Mul":8900,"Des":8901,")).":8902,"ĠOx":8903,"Ġsoy":8904,"Ġglaucoma":8905,"Ġflexible":8906,"Ġsteroids":8907,"Ġmandibular":8908,"usting":8909,"entan":8910,"ĠNevertheless":8911,"tored":8912,"Ġmarine":8913,"ĠIns":8914,"Ġsugar":8915,"imid":8916,"Ġultrasonography":8917,"ejun":8918,"Ġcontroversial":8919,"Ġbreathing":8920,"imus":8921,"seven":8922,"ergies":8923,"Ġbelieved":8924,"Ġars":8925,"Ġexon":8926,"oming":8927,"ĠJuly":8928,"Ġquick":8929,"Ġautomatic":8930,"jug":8931,"Ġsee":8932,"Ġlatency":8933,"Ġdysplasia":8934,"Ġfibroblast":8935,"Ġcarrying":8936,"âĢĳ":8937,"Ġexclusively":8938,"Anal":8939,"Ġperin":8940,"Ġmediate":8941,"Ġreinfor":8942,"Ġfacilities":8943,"Ġerythrocytes":8944,"esarean":8945,")),":8946,"Ġcreate":8947,"Ġstatic":8948,"mium":8949,"onit":8950,"Ġbronchial":8951,"Ġregistered":8952,"Ġdifferentially":8953,"liferative":8954,"ĠTaken":8955,"ĠSeven":8956,"Ġnoninvasive":8957,"Ġenables":8958,"Ġequally":8959,"ĠGP":8960,"ĠMultiple":8961,"Ġimmunization":8962,"Ġnumerical":8963,"Ġansw":8964,"Ġvasodil":8965,"Ġging":8966,"Ġchromatin":8967,"Ġtibial":8968,"Ġscheme":8969,"Ġmicroscope":8970,"ĠKore":8971,"Ġplatform":8972,"hematic":8973,"Ġsick":8974,"Ġelong":8975,"Ġfell":8976,"ercury":8977,"Ġanticancer":8978,"oL":8979,"Ġperturb":8980,"Ġankle":8981,"Ġanalgesia":8982,"aning":8983,"ĠHis":8984,"Ġbioavail":8985,"âī":8986,"Ġneuropathy":8987,"Ġsac":8988,"ĠÏ":8989,"Ġactivate":8990,"ĠExpression":8991,"odg":8992,"Ġcad":8993,"Ġstrict":8994,"ĠPP":8995,"Ġquite":8996,"Ġscience":8997,"esophageal":8998,"Ġprocessed":8999,"Ġrect":9000,"Ġneuron":9001,"BF":9002,"Ġanaerobic":9003,"parative":9004,"OA":9005,"Ġelectroly":9006,"Ġinnov":9007,"ano":9008,"ĠCenter":9009,"ĠSyn":9010,"Ġclaim":9011,"ĠWithin":9012,"tigra":9013,"esides":9014,"enin":9015,"End":9016,"Ġdistinc":9017,"Ġplacental":9018,"Ġselen":9019,"Ġumb":9020,"Ġdiscusses":9021,"Ġgovern":9022,"yrin":9023,"Ġcategory":9024,"ĠTT":9025,"Ġosteoporosis":9026,"Ġrelap":9027,"ĠDrosophila":9028,"opsis":9029,"Ġtransfected":9030,"Ġfluctu":9031,"Ġweekly":9032,"Ġpartly":9033,"Ġswelling":9034,"Character":9035,"emporal":9036,"ÎºB":9037,"vol":9038,"rogenic":9039,"ocic":9040,"nRH":9041,"ĠGram":9042,"Ġbirds":9043,"pic":9044,"mann":9045,"Ġfasc":9046,"Ġperoxidation":9047,"aven":9048,"Ġsilver":9049,"tism":9050,"Ġcerebellar":9051,"ĠMedian":9052,"ĠBAL":9053,"ĠDrug":9054,"Ġbor":9055,"Ġneoplasms":9056,"Ġuniversity":9057,"ĠCOX":9058,"Ġtrop":9059,"Ġwastewater":9060,"Ġ1998":9061,"plan":9062,"Ġreferral":9063,"Ġmodality":9064,"ulos":9065,"ĠCOPD":9066,"300":9067,"Ġrenin":9068,"Ġrequirement":9069,"Ġthyro":9070,"Ġincontin":9071,"ĠSixty":9072,"Ġarthroplasty":9073,"bec":9074,"eart":9075,"Ġcultiv":9076,"Ġharm":9077,"oblasts":9078,"ather":9079,"Ġjuven":9080,"Ġexposures":9081,"keleton":9082,"Ġrelief":9083,"ĠPseudomonas":9084,"valent":9085,"Ġgives":9086,"Ġintermit":9087,"ogeneic":9088,"Ġophthal":9089,"Ġapplying":9090,"Ġovary":9091,"cc":9092,"Ġrandomised":9093,"Ġcoex":9094,"elles":9095,"site":9096,"acyl":9097,"Ġsystematically":9098,"Ġhearts":9099,"Ġbp":9100,"Ġserved":9101,"Ġbecomes":9102,"lamp":9103,"Ġoptimum":9104,"enzyme":9105,"SR":9106,"Ġmeal":9107,"Ġthor":9108,"uccess":9109,"Ġlocally":9110,"ionine":9111,"Ġcure":9112,"Ġattempts":9113,"points":9114,"ĠAN":9115,"Ġempirical":9116,"mselves":9117,"aid":9118,"ĠAfrica":9119,"Ġshifts":9120,"Ġvectors":9121,"ocking":9122,"Ġthemselves":9123,"otyping":9124,"leb":9125,"feeding":9126,"Ġfu":9127,"Ġhomogeneous":9128,"Ġpenet":9129,"Ġincident":9130,"sibility":9131,"Ġpollution":9132,"Ġmask":9133,"Ġscin":9134,"ĠNE":9135,"rospinal":9136,"Ġpestic":9137,"Ġtrace":9138,"enteric":9139,"Ġtransferred":9140,"olet":9141,"Ġradicals":9142,"Ġnight":9143,"ilical":9144,"uginosa":9145,"Ġacetylcholine":9146,"Ġaspect":9147,"mus":9148,"ĠDC":9149,"Ġlac":9150,"Ġneurotrans":9151,"Ġgraphene":9152,"Ġrestored":9153,"Ġtur":9154,"Ġconven":9155,"ynam":9156,"ĠMor":9157,"Ġstored":9158,"HL":9159,"Ġconscious":9160,"otropin":9161,"Ġwestern":9162,"+/":9163,"letes":9164,"Ġcolitis":9165,"Br":9166,"ensitive":9167,"Ġbranch":9168,"omics":9169,"Ġdomestic":9170,"Ġinfluencing":9171,"Ġaccelerated":9172,"Ġlifest":9173,"Fs":9174,"cys":9175,"Ġopportunities":9176,"Ġneurologic":9177,"Ġhypothalamic":9178,"Ġprecursors":9179,"unk":9180,"Ġtext":9181,"ĠSimilarly":9182,"nt":9183,"Ġcolonic":9184,"Ġsurfactant":9185,"een":9186,"Ġtric":9187,"Ġhighlights":9188,"ĠPsych":9189,"Ġpara":9190,"Ġaeruginosa":9191,"ĠQuestionnaire":9192,"ĠAppro":9193,"Ġdistant":9194,"ĠSubjects":9195,"Ġdosing":9196,"uric":9197,"Ġfetuses":9198,"Ġserine":9199,"apped":9200,"Ġsulph":9201,"Ġcontributions":9202,"Ġanatomic":9203,"Ġconstruction":9204,"pinephrine":9205,"Ġproperty":9206,"Ġautophag":9207,"Ġrace":9208,"oxif":9209,"Ġformulations":9210,"Ġdiarr":9211,"Ġdriving":9212,"Ġpharmaceutical":9213,"Ġinteresting":9214,"Ġpeaks":9215,"Ġtook":9216,"DC":9217,"Ġfourth":9218,"Ġsuppressor":9219,"ytes":9220,"Ġcysteine":9221,"Ġnicotine":9222,"electro":9223,"Ġspecimen":9224,"ĠPB":9225,"functional":9226,"Ġanthrop":9227,"Ġcrystals":9228,"Ġstabilization":9229,"Ġcalculation":9230,"Ġtransformed":9231,"ceptors":9232,"Ġonline":9233,"Ġregulator":9234,"Ġlin":9235,"Ġreticulum":9236,"Ġgoals":9237,"Ġyouth":9238,"ĠGM":9239,"Ġdexamethasone":9240,"Qu":9241,"omerase":9242,"ĠCX":9243,"ophore":9244,"Ġdefinitive":9245,"FI":9246,"NI":9247,"enstr":9248,"iciencies":9249,"Ġinterfac":9250,"Ġacting":9251,"ĠRisk":9252,"Ġcircular":9253,"ĠBcl":9254,"Ġthrombin":9255,"ĠRV":9256,"ĠTw":9257,"opathological":9258,"illi":9259,"Ġcrani":9260,"Ġdenti":9261,"imetric":9262,"omyel":9263,"ivation":9264,"ift":9265,"004":9266,"Ġcovered":9267,"Ġopening":9268,"arum":9269,"eptember":9270,"asonal":9271,"ierarch":9272,"erebral":9273,"dL":9274,"urnal":9275,"ĠNaCl":9276,"stituted":9277,"Ġmyocardium":9278,"Ġentit":9279,"Ġbiomarker":9280,"ato":9281,"shaped":9282,"ĠRaman":9283,"producing":9284,"sur":9285,"Ġblocking":9286,"Ġutilizing":9287,"HIV":9288,"Ġelective":9289,"Ġros":9290,"erent":9291,"elic":9292,"ĠIntra":9293,"ĠHa":9294,"ĠPrimary":9295,"ĠSurvey":9296,"Ġimpacts":9297,"Ġexpand":9298,"Ġassumed":9299,"ĠBR":9300,"ĠSwed":9301,"Ġneg":9302,"Ġmesenchymal":9303,"Ġpreserved":9304,"fen":9305,"Ġepig":9306,"Ġwrit":9307,"aternal":9308,"Ġmanual":9309,"ozoa":9310,"versal":9311,"Ġneuropsych":9312,"dered":9313,"Ġhot":9314,"ogenicity":9315,"Ġrank":9316,"allow":9317,"ukary":9318,"ĠComparison":9319,"Ġrecover":9320,"partate":9321,"Ġganglion":9322,"500":9323,"ĠCro":9324,"Ġsarcoma":9325,"Ġexception":9326,"Cu":9327,"Ġdriven":9328,"Ġround":9329,"Ġmicrotub":9330,"Ġ1997":9331,"Ġmicroar":9332,"iators":9333,"ĠNur":9334,"Ġsometimes":9335,"Ġacoustic":9336,"ĠApril":9337,"ographical":9338,"opolysaccharide":9339,"Ġdramatically":9340,"Ġserial":9341,"MW":9342,"borne":9343,"oric":9344,"essation":9345,"Ġsearched":9346,"Ġbif":9347,"selective":9348,"Ġaspirin":9349,"Ġhomology":9350,"Ġranges":9351,"Ġsurveys":9352,"erectomy":9353,"odgkin":9354,"Ġsun":9355,"ashion":9356,"urrents":9357,"Ġinsufficient":9358,"yses":9359,"Ġwaves":9360,"ĠCandid":9361,"GH":9362,"ogether":9363,"Ġacces":9364,"oarthritis":9365,"istribution":9366,"Ġgait":9367,"Ġparadigm":9368,"Ġjus":9369,"ishes":9370,"uent":9371,"ĠPH":9372,"Ġchemicals":9373,"orubicin":9374,"Ġthresholds":9375,"relation":9376,"Ġanaesthesia":9377,"onyl":9378,"ĠPGE":9379,"atellite":9380,"band":9381,"Ġusual":9382,"ĠPSA":9383,"Ġpneumoniae":9384,"Ġmer":9385,"Ġgeometry":9386,"Ġexamining":9387,"Ġgraph":9388,"adrenal":9389,"Ġzero":9390,"Human":9391,"rever":9392,"bearing":9393,"Ġhomolog":9394,"kinase":9395,"ĠEGFR":9396,"Ġolfactory":9397,"Ġfertility":9398,"omegal":9399,"ynec":9400,"Ġconstitutive":9401,"Ġsuture":9402,"ĠPath":9403,"Ġalgorithms":9404,"Immun":9405,"Ġrev":9406,"formed":9407,"Ġopportunity":9408,"Ġfashion":9409,"Ġyr":9410,"Ġpredictions":9411,"Ġapplicable":9412,"Ġcardiomyopathy":9413,"Ġhorses":9414,"Ġrestoration":9415,"Ġhen":9416,"Ġattached":9417,"ĠMyc":9418,"Ġlibrary":9419,"Ġdense":9420,"uge":9421,"eg":9422,"ĠMV":9423,"Ġlam":9424,"Ġremarkable":9425,"ĠAug":9426,"Ġenough":9427,"Ġmagnesium":9428,"hepatic":9429,"Ġincontinence":9430,"Ġinjured":9431,"Ġepidemiology":9432,"TI":9433,"Ġpostmenopausal":9434,"Ġequations":9435,"ĠIndia":9436,"TC":9437,"Ġpleural":9438,"Ġresemb":9439,"Ġschools":9440,"Ġlymphoid":9441,"BG":9442,"Ġhydroxy":9443,"col":9444,"lot":9445,"orepinephrine":9446,"ocatal":9447,"Ġplasmin":9448,"defined":9449,"ĠInstitute":9450,"Ġepiderm":9451,"acil":9452,"Ġorbital":9453,"Ġcorrected":9454,"Ġgrain":9455,"ĠIniti":9456,"ĠTI":9457,"Rel":9458,"Ġmediators":9459,"vian":9460,"Ġlev":9461,"ĠProtein":9462,"Ġrevascular":9463,"ĠCAD":9464,"ĠHO":9465,"ĠMHC":9466,"Ġenrich":9467,"atation":9468,"Ġsimilarly":9469,"Ġrevision":9470,"opress":9471,"Ġcoch":9472,"Ġminimally":9473,"Ġpurposes":9474,"molecular":9475,"cons":9476,"Ġprolactin":9477,"Ġcontaminated":9478,"Ġhistopathological":9479,"rought":9480,"Ġviolence":9481,"Ġnaturally":9482,"Ġmeat":9483,"Ġ:":9484,"Ġejection":9485,"IFN":9486,"ĠSM":9487,"Ġbacteri":9488,"kDa":9489,"perg":9490,"Ġextensively":9491,"Ġrecombination":9492,"hythmias":9493,"Ġanis":9494,"Ġphysiology":9495,"insulin":9496,"ipine":9497,"ectable":9498,"rontal":9499,"Ġpore":9500,"ĠNin":9501,"Ġshare":9502,"Ġdro":9503,"Ġpigment":9504,"Ġcontinuously":9505,"Ġeligible":9506,"Ġherpes":9507,"ĠCyt":9508,"responsive":9509,"Ġvesti":9510,"anger":9511,"Ġrecordings":9512,"Ġsoils":9513,"Ġpaired":9514,"pectives":9515,"Ġcessation":9516,"Ġprescription":9517,"Ġmelatonin":9518,"formations":9519,"Ġmodulated":9520,"Ġcompartment":9521,"ĠState":9522,"Ġinvestigating":9523,"Ġfungi":9524,"Ġsensing":9525,"opos":9526,"Ġmonkeys":9527,"SF":9528,"Ġfitness":9529,"Ġmoderately":9530,"Ġchromatographic":9531,"Ġnitrate":9532,"dase":9533,"Ġcurrents":9534,"Ġpolarization":9535,"Ġtroph":9536,"ixed":9537,"redic":9538,"Ġtip":9539,"Ī¼":9540,"Ġvertebr":9541,"Ġincision":9542,"idents":9543,"tracted":9544,"Ġcranial":9545,"ogenes":9546,"ĠOA":9547,"ĠReview":9548,"traumatic":9549,"Ġpseudo":9550,"Ġionization":9551,"Ġconnected":9552,"ĠTH":9553,"GFR":9554,"Ġfear":9555,"Ġdeficient":9556,"Ġseparately":9557,"nes":9558,"elt":9559,"Ġfarm":9560,"Ġvictim":9561,"ulsive":9562,"ĠEl":9563,"Ġexplo":9564,"ĠShe":9565,"ostr":9566,"NE":9567,"ĠLevel":9568,"\".":9569,"Ġexamines":9570,"using":9571,"Ġambulatory":9572,"Ġantibacterial":9573,"Ġpalliative":9574,"ĠrRNA":9575,"ĠPres":9576,"Ġepidemic":9577,"Ġverified":9578,"Ġprosthesis":9579,"ĠERK":9580,"Ġcoping":9581,"Ġimmunofluorescence":9582,"lam":9583,"Ġ1995":9584,"ĠChanges":9585,"ĠTP":9586,",\"":9587,"acid":9588,"Ġsuffered":9589,"oea":9590,"blast":9591,"Ġinactive":9592,"Ġeukary":9593,"Ġinadequate":9594,"Ġleukocytes":9595,"Ġelucidated":9596,"DE":9597,"ĠAL":9598,"Ġperoxide":9599,"Ġoligonucle":9600,"ires":9601,"Ġsib":9602,"Ġstructured":9603,"Ġspectroscopic":9604,"ern":9605,"ĠTra":9606,"Ġarising":9607,"Ġcytosolic":9608,"ĠEnglish":9609,"Ġald":9610,"Ġmasses":9611,"udge":9612,"ĠThen":9613,"Ġcapability":9614,"Ġirradiated":9615,"Ġ,":9616,"ĠSeptember":9617,"Ġhydrocarb":9618,"Ġdecay":9619,"Ġimmature":9620,"abin":9621,"Ġmigraine":9622,"Ġstatistics":9623,"yph":9624,"hn":9625,"Ġstimulating":9626,"ĠFSH":9627,"Ġcultural":9628,"Ġamelior":9629,"bis":9630,"Ġfrozen":9631,"Ġphenomena":9632,"vestig":9633,"atics":9634,"ĠMC":9635,"Ġmathematic":9636,"Ġanastomosis":9637,"Ġcharged":9638,"Ġfocuses":9639,"ensory":9640,"asi":9641,"Ġlethal":9642,"Ġantiviral":9643,"cape":9644,"Ġprotected":9645,"Ġintermittent":9646,"Ġexpanded":9647,"Ġneurotox":9648,"ĠSurgical":9649,"Ġforward":9650,"ĠDue":9651,"Ġfavour":9652,"Ġamplified":9653,"Ġmu":9654,"atosis":9655,"Ġulcers":9656,"ĠÎ¼m":9657,"Ġflat":9658,"Ġinterpreted":9659,"Ġtandem":9660,"Ġabnormality":9661,"Ġtestis":9662,"Ġcompletion":9663,"Ġlimiting":9664,"esting":9665,"mo":9666,"lyl":9667,"ĠOctober":9668,"Ġdimer":9669,"romycin":9670,"Ġbund":9671,"itivity":9672,"eclamp":9673,"Ġvibr":9674,"Ġmulticenter":9675,"Ġjoints":9676,"deoxy":9677,"Ġbioavailability":9678,"Ġimped":9679,"UR":9680,"Ġadjusting":9681,"Ġherb":9682,"Ġ1996":9683,"ĠCase":9684,"Ġerythrocyte":9685,"Ġresusc":9686,"ĠCombin":9687,"Ġgranules":9688,"Ġautoanti":9689,"Ġpicture":9690,"urable":9691,"Ġport":9692,"Ġscoring":9693,"Ġappend":9694,"Ġwords":9695,"oice":9696,"iller":9697,"diabetic":9698,"New":9699,"Ġdescriptive":9700,"Ġsucrose":9701,"Ġwk":9702,"Ġips":9703,"Ġmassive":9704,"Ġglycer":9705,"idation":9706,"wan":9707,"Ġveter":9708,"Ġcoh":9709,"Ġsupplemented":9710,"ĠVal":9711,"Ġautonomic":9712,"urane":9713,"ĠBMD":9714,"ĠProgram":9715,"yptoph":9716,"rogens":9717,"Ġsap":9718,"ĠSi":9719,"Ġjob":9720,"Ġlifestyle":9721,"Ġelast":9722,"ĠEvidence":9723,"Ġthrombocyt":9724,"Ġprostatic":9725,"Mic":9726,"Ġdeterioration":9727,"Ġecological":9728,"ĠMeasure":9729,"Ġphosphorylated":9730,"Ġradiographs":9731,"atories":9732,"inn":9733,"ĠAM":9734,"ĠHL":9735,"Ġgram":9736,"Ġfluids":9737,"Ġadapted":9738,"pact":9739,"galact":9740,"ipro":9741,"Ġbar":9742,"Ġcompetition":9743,"Ġ180":9744,"tium":9745,"plies":9746,"Ġlifetime":9747,"modified":9748,"Ġ2017":9749,"Sc":9750,"Ġsustain":9751,"Ġinserted":9752,"Ġcalibration":9753,"Ġlectin":9754,"VT":9755,"+]":9756,"Ġperox":9757,"Ġrough":9758,"infection":9759,"ĠTe":9760,"Ġadditive":9761,"ĠACE":9762,"oprost":9763,"Ġprofound":9764,"Ġallograft":9765,"ocardial":9766,"ĠHB":9767,"ĠNMDA":9768,"Ġaccompl":9769,"Ġactivating":9770,"small":9771,"ltras":9772,"Ġtransmembrane":9773,"Ġsense":9774,"Ġdisturbance":9775,"Ġcoinc":9776,"aris":9777,"120":9778,"Ġtachycardia":9779,"Ġdairy":9780,"AK":9781,"Ġframe":9782,"Ġhistone":9783,"ĠAK":9784,"Ġlithium":9785,"Recent":9786,"Ġmammals":9787,"Ġmicroorganisms":9788,"itated":9789,"itosan":9790,"Ġconsiderations":9791,"Ġencaps":9792,"Ġnas":9793,"Ġadopted":9794,"Ġpostpartum":9795,"erences":9796,"Ġ%)":9797,"cells":9798,"Ġtransplanted":9799,"On":9800,"Ġimmobilized":9801,"Ġmaxillary":9802,"making":9803,"Ġkappa":9804,"opia":9805,"Ġflexion":9806,"Ġparathyroid":9807,"Ġdiarrhea":9808,"arboxyl":9809,"ĠGI":9810,"(+)-":9811,"Ġson":9812,"fluence":9813,"Ġeffusion":9814,"Ġachieving":9815,"Ġneuropath":9816,"Man":9817,"Ġquantitatively":9818,"ĠCM":9819,"Ġcomprising":9820,"Mod":9821,"tt":9822,"Ġdiaph":9823,"antom":9824,"agg":9825,"Ġglial":9826,"aker":9827,"Ġosm":9828,"Ġcerebrospinal":9829,"ĠSO":9830,"ĠAge":9831,"Exper":9832,"Ġvaric":9833,"energy":9834,"EB":9835,"Ġcool":9836,"Ġhorizontal":9837,"olving":9838,"Ġoct":9839,"ĠSam":9840,"Ġformula":9841,"environ":9842,"Ġfold":9843,"Ġalumin":9844,"riend":9845,"Ġperinatal":9846,"Ġumbilical":9847,"ysts":9848,"Ġveins":9849,"Molecular":9850,"imb":9851,"oracic":9852,"Zn":9853,"abine":9854,"Ġbuilding":9855,"ĠAdministration":9856,"Ġunstable":9857,"ĠSL":9858,"asia":9859,"dal":9860,"nec":9861,"epithelial":9862,"Ġdisapp":9863,"Ġblotting":9864,"Ġingestion":9865,"Ġcardiopulmonary":9866,"Ġlesser":9867,"Ġaccumulated":9868,"Ġpenetration":9869,"ĠPt":9870,"Ġcircadian":9871,"Ġenriched":9872,"avirus":9873,"hetamine":9874,"iration":9875,"ĠTF":9876,"Ġevaluations":9877,"ĠHyper":9878,"Ġasymmetric":9879,"Ġbonding":9880,"unctiv":9881,"ellow":9882,"azep":9883,"Ġassayed":9884,"Ġwounds":9885,"Ġsupernat":9886,"Ġfluoride":9887,"Ġswe":9888,"utable":9889,"Ġcaregivers":9890,"Ġathletes":9891,"Ġcatalyst":9892,"educed":9893,"urations":9894,"bow":9895,"ĠSW":9896,"syn":9897,"Ġopin":9898,"ĠFI":9899,"Ġattenuation":9900,"Ġinpatient":9901,"ĠSDS":9902,"Ġwhy":9903,"FU":9904,"gence":9905,"Ġcataract":9906,"iatum":9907,"GD":9908,"CK":9909,"Ġallergy":9910,"try":9911,"Ġprivate":9912,"bean":9913,"olipid":9914,"rolog":9915,"Ġpromotion":9916,"Ġalkyl":9917,"ĠQuality":9918,"Ġhypoxic":9919,"Ġshunt":9920,"Ġneoplastic":9921,"Ġintermedi":9922,"Ġtransverse":9923,"ĠCells":9924,"Ġharb":9925,"Ġligation":9926,"Ġdioxide":9927,"Ġarchitecture":9928,"regular":9929,"Ġsurgically":9930,"Ġintraocular":9931,"ariable":9932,"Ġchel":9933,"Ġencoded":9934,"ĠTE":9935,"Ġendometri":9936,"Ġdiscrep":9937,"ĠAsian":9938,"ĠSLE":9939,"dop":9940,"Ġcrude":9941,"pation":9942,"Ġefflux":9943,"Ġequipment":9944,"Ġsimpl":9945,"Ġclone":9946,"Ġscaven":9947,"years":9948,"directed":9949,"Ġtrait":9950,"Ġeffector":9951,"ĠTur":9952,"ifug":9953,"Ġcourses":9954,"istance":9955,"oconstr":9956,"Ġq":9957,"Ġdivision":9958,"Ġobjectives":9959,"Ġdestruction":9960,"ĠCandida":9961,"Ġcriterion":9962,"Ġclimate":9963,"Ġduplic":9964,"Ġadapt":9965,"Ġdeprivation":9966,"atid":9967,"rew":9968,"uccessful":9969,"\",":9970,"Cor":9971,"Ġaxons":9972,"Ġexpon":9973,"Ġcentre":9974,"ider":9975,"Ġusage":9976,"Ġreproducibility":9977,"BMI":9978,"ĠTM":9979,"ĠWorld":9980,"Ġfragmentation":9981,"head":9982,"Ġillustrate":9983,"Ġporous":9984,"ĠGiven":9985,"Ġmanipulation":9986,"Ġjuvenile":9987,"ronectin":9988,"hom":9989,"ĠSo":9990,"Ġvirulence":9991,"Ġcontractions":9992,"Ġphosphorus":9993,"Ġrecons":9994,"ĠGSH":9995,"Ġnig":9996,"Ġclinics":9997,"Ġsludge":9998,"osidase":9999,"Ġforeign":10000,"amyl":10001,"Ġmoment":10002,"Ġalignment":10003,"Ġcaries":10004,"Ġmarginal":10005,"Ġethnic":10006,"Ġnephropathy":10007,"ografts":10008,"cer":10009,"ploid":10010,"Ġafford":10011,"Ġdest":10012,"Ġrule":10013,"ĠCoch":10014,"alanine":10015,"Ġtrajec":10016,"Ġenergies":10017,"Ġcef":10018,"Long":10019,"ĠBA":10020,"Ġdefense":10021,"Ġobserve":10022,"ĠPe":10023,"ĠPAH":10024,"xia":10025,"Ġadministr":10026,"Ġgiant":10027,"ĠMedicine":10028,"amel":10029,"ĠNI":10030,"Ġrub":10031,"Ġmum":10032,"Ġantiser":10033,"Ġplasticity":10034,"Ġattractive":10035,"Ġtone":10036,"Ġcondens":10037,"Ġstation":10038,"Ġreporter":10039,"Ġsocioeconomic":10040,"izumab":10041,"Ġdevelopments":10042,"olation":10043,"Ġthermod":10044,"Ġleakage":10045,"tified":10046,"ophilia":10047,"Ġdesc":10048,"Ġpoison":10049,"Ġcrop":10050,"Ġdisl":10051,"ĠÎ¼M":10052,"ject":10053,"Ġepidural":10054,"onduc":10055,"Ġchiral":10056,"Ġaggregates":10057,"Ġdetails":10058,"ĠCRP":10059,"Ġprinciple":10060,"ymph":10061,"ca":10062,"GP":10063,"ophosphate":10064,"Ġdiscrete":10065,"ĠMex":10066,"ptococcus":10067,"Ġbud":10068,"ĠAustralian":10069,"ĠGermany":10070,"ĠNorthern":10071,"ĠHeart":10072,"Ġreplaced":10073,"Ġrelations":10074,"Ġrecipient":10075,"Elec":10076,"Ġgross":10077,"ĠBacillus":10078,"Ġwors":10079,"Ġbehavioural":10080,"Ġperspectives":10081,"Ġdepolar":10082,"Ġcapsule":10083,"Ġcyclase":10084,"tetra":10085,"oxorubicin":10086,"Ġemergence":10087,"Ġmouth":10088,"Ġmultiv":10089,"Ġpulses":10090,"ancial":10091,"ungal":10092,"Ġcontractile":10093,"Ġmalformations":10094,"ĠImpro":10095,"Ġcompart":10096,"acetic":10097,"ailed":10098,"Ġtransitions":10099,"ĠBay":10100,"ĠAcute":10101,"Ġlosses":10102,"oler":10103,"yroidism":10104,"key":10105,"Ġcalculate":10106,"ĠACTH":10107,"Ġhypothalamus":10108,"ĠIncreased":10109,"Ġprovision":10110,"Ob":10111,"rench":10112,"ĠTSH":10113,"Ġtriple":10114,"ĠSurgery":10115,"Ġattempted":10116,"Ass":10117,"odontic":10118,"Ġhydrochlor":10119,"ellum":10120,"ĠGTP":10121,"Ġdirections":10122,"Ġsynergistic":10123,"Ġconverted":10124,"path":10125,"Ġratings":10126,"ĠAng":10127,"endocrine":10128,"ĠStand":10129,"Ġanalgesic":10130,"Ġsor":10131,"arginine":10132,"monic":10133,"Ġdistor":10134,"Ġparasites":10135,"comes":10136,"Ġseptic":10137,"ographically":10138,"Ġdatas":10139,"Ġphospholipid":10140,"Ġcommit":10141,"opter":10142,"Ġbiofilm":10143,"Ġfollicles":10144,"coated":10145,"Ġastrocytes":10146,"Ġepisode":10147,"prising":10148,"Sp":10149,"ĠNA":10150,"Ġexclusion":10151,"Ġpersistence":10152,"Ġimmunosuppressive":10153,"Ġglycogen":10154,"Ġreserv":10155,"yptophan":10156,"Ġfunctionally":10157,"Ġmodify":10158,"Ġelectrocardi":10159,"Ġhydr":10160,"Ġgiving":10161,"ishman":10162,"Ġemploying":10163,"Ã¶":10164,"Ġcholinergic":10165,"reasing":10166,"posing":10167,"ented":10168,"Ġnorepinephrine":10169,"ĠEr":10170,"ĠHence":10171,"otherapeutic":10172,"Ġplex":10173,"Ġpapillary":10174,"Ġpsoriasis":10175,"Ġreaching":10176,"herical":10177,"Ġagric":10178,"Ġdensities":10179,"Ġselect":10180,"Ġambient":10181,"fed":10182,"Ġpollut":10183,"light":10184,"Ġnovo":10185,"orer":10186,"Ġallogeneic":10187,"ĠMicro":10188,"Ġsea":10189,".\"":10190,"Ġmoiety":10191,"ocompatibility":10192,"ĠKi":10193,"Ġdrawn":10194,"Differen":10195,"Ġmicron":10196,"Ġbelieve":10197,"Ġanch":10198,"Ġecosystem":10199,"Ġcarcinogenesis":10200,"otential":10201,"Ġangina":10202,"paratus":10203,"Ġfibrinogen":10204,"ĠEvaluation":10205,"apine":10206,"ĠGS":10207,"Ġnanotub":10208,"Ġoxidized":10209,"avir":10210,"Ġstudent":10211,"Ġhistologically":10212,"Ġabsorb":10213,"Ġwarm":10214,"Ġproce":10215,"Ġmacular":10216,"Ġextremity":10217,"Ġcada":10218,"Ġanalyzing":10219,"Ġhaemat":10220,"ĠmRNAs":10221,"otrophic":10222,"including":10223,"Ġthromboemb":10224,"Ġstream":10225,"Ġfermentation":10226,"Ġmetalloprotein":10227,"oneph":10228,"ĠBut":10229,"phone":10230,"Ġmos":10231,"opressin":10232,"ucleotide":10233,"Ġrecognize":10234,"obacteria":10235,"ĠUse":10236,"ĠAut":10237,"Ġwavelength":10238,"Ġsubmitted":10239,"Ġpopular":10240,"Ġprevents":10241,"Ġkinds":10242,"electron":10243,"Ġhyst":10244,"Ġexert":10245,"Ġcues":10246,"ĠCs":10247,"Ġinoculated":10248,"ulty":10249,"Ġantif":10250,"Ġcholecyst":10251,"Ġpooled":10252,"Ġinnate":10253,"Ġprogenitor":10254,"TT":10255,"Ġautosomal":10256,"ĠPEG":10257,"arium":10258,"Ġentity":10259,"thi":10260,"endit":10261,"odec":10262,"Ġmethanol":10263,"ĠTG":10264,"Ġdismut":10265,"Ġliposomes":10266,"Ġseptal":10267,"verte":10268,"abetes":10269,"hypertensive":10270,"Ġquantity":10271,"Ġsand":10272,"ĠCanada":10273,"Ġresc":10274,"Ġconjunction":10275,"tran":10276,"Ġhistorical":10277,"Ġipsilateral":10278,"inance":10279,"Ġglioma":10280,"Ġconsistency":10281,"ower":10282,"La":10283,"Ġinorganic":10284,"Ġhierarch":10285,"Ġemissions":10286,"protective":10287,"stem":10288,"Ġrational":10289,"ĠAdditional":10290,"ĠACh":10291,"ubin":10292,"ĠRetrospective":10293,"ĠGnRH":10294,"my":10295,"tery":10296,"Ġdermatitis":10297,"ĠHER":10298,"rague":10299,"Ġperm":10300,"Ġprove":10301,"Ġcorrectly":10302,"Ġdial":10303,"Ġprophylactic":10304,"aved":10305,"Ġpolicies":10306,"Ġtrunc":10307,"Ġapparatus":10308,"ineal":10309,"iliac":10310,"uterine":10311,"eces":10312,"vac":10313,"osides":10314,"Ġmargin":10315,"Ġmaps":10316,"silon":10317,"ĠRR":10318,"Ġupregulated":10319,"Ġfibres":10320,"Ġlaryngeal":10321,"ĠPoly":10322,"Ġslices":10323,"Ġshed":10324,"Ġpowder":10325,"ectomized":10326,"Ġobjects":10327,"Ġedge":10328,"Ġcyclin":10329,"Ġsurvived":10330,"itch":10331,"MAP":10332,"Ġduodenal":10333,"Ġgenital":10334,"Ġotherwise":10335,"ĠFuture":10336,"Pl":10337,"Acute":10338,"ystall":10339,"Ġinstitutions":10340,"Ġsplen":10341,"pal":10342,"mass":10343,"Ġhall":10344,"Ġuncertainty":10345,"length":10346,"Ġdopaminergic":10347,"Ġatherosclerotic":10348,"Le":10349,"Ġbecoming":10350,"asts":10351,"ĠNeither":10352,"Ġadjunc":10353,"ĠMAPK":10354,"ĠAC":10355,"dig":10356,"gulation":10357,"vival":10358,"Ġjejun":10359,"Ġhernia":10360,"Ġmercury":10361,"ĠRed":10362,"abling":10363,"Ġanticoagul":10364,"block":10365,"Ġhyal":10366,")=":10367,"Ġhomogen":10368,"Ġinsurance":10369,"Ġtwenty":10370,"Ġarach":10371,"ĠADHD":10372,"Ġethical":10373,"ĠUSA":10374,"acrylamide":10375,"Ġcommunic":10376,"ĠNine":10377,"ĠMG":10378,"struct":10379,"Ġtac":10380,"Ġvan":10381,"Ġincome":10382,"alsy":10383,"Ġanticip":10384,"Ġcoating":10385,"Ġinversely":10386,"Ġmyeloma":10387,"son":10388,"ĠIP":10389,"Analysis":10390,"ĠAugust":10391,"Ġirrever":10392,"Ġendoscopy":10393,"Ġplacenta":10394,"Ġcohorts":10395,"ĠTai":10396,"Ġapproved":10397,"fat":10398,"ĠUp":10399,"Ġdispar":10400,"Ġattributable":10401,"Ġacyl":10402,"Ġseasonal":10403,"Development":10404,"Ġvisceral":10405,"Ġunable":10406,"ĠQT":10407,"Ġapply":10408,"Ġganglia":10409,"Ġgained":10410,"Ġcaffe":10411,"Ġbreeding":10412,"Ġphantom":10413,"Ġtransmitted":10414,"obarb":10415,"Ġconclusions":10416,"olab":10417,"Ġrelatives":10418,"Ġaller":10419,"Ġtransfection":10420,"acetate":10421,"tigraphy":10422,"gment":10423,"Ġpay":10424,"Ġtrypsin":10425,"Ġcataly":10426,"Ġmatching":10427,"hab":10428,"igher":10429,"ois":10430,"base":10431,"Ġimmunosorbent":10432,"rants":10433,"Ġavoidance":10434,"Ġrevascularization":10435,"ĠEnter":10436,"perature":10437,"Ġdrople":10438,"Ġlaboratories":10439,"Ġ110":10440,"Ġlipopolysaccharide":10441,"ĠHerein":10442,"Ġinformed":10443,"Ġspermatozoa":10444,"Ġrated":10445,"ocycl":10446,"Ġpartner":10447,"ola":10448,"Ġtakes":10449,"Ġconditioning":10450,"ĠMultivariate":10451,"Ġnormalized":10452,"Ġlineage":10453,"Ġlumen":10454,"driven":10455,"Ġabilities":10456,"Ġcus":10457,"obenz":10458,"uled":10459,"unting":10460,"omiting":10461,"ĠPhys":10462,"Ġhence":10463,"Ġcorp":10464,"Ġcommercially":10465,"=.":10466,"rus":10467,"enger":10468,"zes":10469,"ker":10470,"Ġreproducible":10471,"Ġdisulf":10472,"ĠVO":10473,"squ":10474,"Ġ1994":10475,"ĠHE":10476,"ĠDifferent":10477,"olester":10478,"enstrual":10479,"olated":10480,"Ġroutinely":10481,"tructures":10482,"Ġenrichment":10483,"ipt":10484,"Ġuncon":10485,"Ġconstitute":10486,"Ġbolus":10487,"retro":10488,"bone":10489,"Ġnucleotides":10490,"Ġvisualization":10491,"ĠEven":10492,"iton":10493,"Ġarise":10494,"trial":10495,"Ġdilution":10496,"+),":10497,"Ġhydroxyl":10498,"ĠDS":10499,"Ġcerevis":10500,"Ġantipsych":10501,"ichlor":10502,"ourse":10503,"versely":10504,"Ġtransc":10505,"Ġmodest":10506,"Ġsampled":10507,"Ġdescribing":10508,"Ġenabled":10509,"Ġdiscl":10510,"Ġetc":10511,"Ġanalogs":10512,"obi":10513,"apopt":10514,"Ġattending":10515,"Ġcorticosteroids":10516,"Ġadul":10517,"unit":10518,"Ġirregular":10519,"ĠPTH":10520,"Ġangioplasty":10521,"Ġapprec":10522,"-->":10523,"Ġantis":10524,"CoA":10525,"Ġdismutase":10526,"akers":10527,"ĠGeneral":10528,"Ġsmoke":10529,"otactic":10530,"Ġaudi":10531,"Ġwt":10532,"ĠPers":10533,"Ġallevi":10534,"Ġimmunotherapy":10535,"Ġcerevisiae":10536,"Ġalcoholic":10537,"Ġcadmium":10538,"Identification":10539,"accha":10540,"Ġexpendit":10541,"Ġether":10542,"Ġfinancial":10543,"Ġnation":10544,"irable":10545,"ĠKa":10546,"transl":10547,"urc":10548,"Ġcomplaints":10549,"Ġrepresentation":10550,"Ġregarded":10551,"Ġcyclospor":10552,"awley":10553,"-)":10554,"Ġrunning":10555,"Ġlimbs":10556,"Ġmediast":10557,"aut":10558,"plicit":10559,"phosphor":10560,"Ġpolys":10561,"ĠBM":10562,"Ġdysp":10563,"Ġreproduction":10564,"Ġarginine":10565,"Ġallo":10566,"tivities":10567,"Ġiodine":10568,"Ġreflects":10569,"ĠMut":10570,"Ġcha":10571,"Ġeliminated":10572,"Ġexploration":10573,"Ġestablishment":10574,"ĠNSC":10575,"Ġcorn":10576,"human":10577,"dynamic":10578,"sue":10579,"ilis":10580,"razole":10581,"astro":10582,"Ġpalsy":10583,"ractive":10584,"ĠPostoperative":10585,"affin":10586,"Ġcascade":10587,"Ġconditioned":10588,"eps":10589,"linking":10590,"appe":10591,"Ġconductance":10592,"omyc":10593,"Ġstimulates":10594,"Ġmultim":10595,"Treatment":10596,"Ġinhalation":10597,"Ġbelonging":10598,"Ġmitogen":10599,"Ġstratified":10600,"Ġcausal":10601,"Ġcephal":10602,"asm":10603,"uvate":10604,"thrombin":10605,"Ġosteoarthritis":10606,"aterials":10607,"Gen":10608,"Ġupstream":10609,"Ġfig":10610,"odegrad":10611,"pig":10612,"eclampsia":10613,"Ġfluctuations":10614,"jury":10615,"Ġconceptual":10616,"olymer":10617,"chol":10618,"Ġunexpected":10619,"reening":10620,"ĠFinding":10621,"omod":10622,"Ġmediating":10623,"HV":10624,"oir":10625,"Ġpartition":10626,"phasic":10627,"Ġmicrosp":10628,"Ġpolymerization":10629,"Ġbeh":10630,"Ġbreath":10631,"Ġtravel":10632,"ĠSPE":10633,"presses":10634,"ĠEA":10635,"ĠStatistical":10636,"mber":10637,"Ġpacing":10638,"urrences":10639,"Ġvalidate":10640,"Ġtil":10641,"ĠProspective":10642,"yster":10643,"Ġfecal":10644,"Ġassisted":10645,"Ġcoated":10646,"ymmetry":10647,"Ġstriatum":10648,"Ġshell":10649,"Ġmanif":10650,"Ġconnection":10651,"luent":10652,"Ġheme":10653,"Ġproportions":10654,"Ġexplanation":10655,"Ġmultidisciplinary":10656,"TB":10657,"Ġcoherence":10658,"Ġdeterminant":10659,"ramine":10660,"Ġretrograde":10661,"coup":10662,"Ġslowly":10663,"ĠServ":10664,"Ġvaries":10665,"Ġconservation":10666,"appeared":10667,"olume":10668,"Ġcellulose":10669,"Ġperfused":10670,"vastatin":10671,"ĠThrough":10672,"ĠGR":10673,"PET":10674,"Ġcircuit":10675,"Ġtrigger":10676,"emble":10677,"Ġnick":10678,"ĠSprague":10679,"ĠHyp":10680,"Ġsial":10681,"edical":10682,"Ġwarranted":10683,"sts":10684,"Ġgingival":10685,"ovial":10686,"ovember":10687,"Ġsubpop":10688,"irubin":10689,"oxidase":10690,"ĠFrench":10691,"ylic":10692,"Ġswitch":10693,"Ġxyl":10694,"ĠCochrane":10695,"Ġessentially":10696,"ĠDifferences":10697,"rib":10698,"ococci":10699,"Ġdistinguished":10700,"Ġwaters":10701,"Ġseemed":10702,"Ġresuscitation":10703,"ĠNR":10704,"Ġslope":10705,"Ġfinite":10706,"Ġbeliefs":10707,"Ġfertilization":10708,"Ġaeros":10709,"oal":10710,"Ġammonium":10711,"romyces":10712,"ĠTS":10713,"006":10714,"CTs":10715,"Ġdoctors":10716,"Ġlic":10717,"Ġevidenced":10718,"Ġtransforming":10719,"Ġlowered":10720,"ongue":10721,"Ġgyr":10722,"Ġscaffolds":10723,"Use":10724,"mi":10725,"Ġisoform":10726,"Ġminimize":10727,"No":10728,"ĠCentral":10729,"pen":10730,"thood":10731,"Ġnewborns":10732,"Ġcontacts":10733,"igma":10734,"Ġglycol":10735,"Ġrecall":10736,"GM":10737,"Ġsolubility":10738,"ĠCN":10739,"Ġtrunk":10740,"imal":10741,"Ġintubation":10742,"Ġautophagy":10743,"Ġslower":10744,"ĠMycobacterium":10745,"Ġconstituents":10746,"Ġmicrovascular":10747,"Ġaware":10748,"Ġtriggered":10749,"Ġtam":10750,"Ġfair":10751,"long":10752,"Ġsensitization":10753,"omial":10754,"Ġcurric":10755,"pidemi":10756,"Ġcompatible":10757,"uran":10758,"Ġremote":10759,"ĠHC":10760,"lysis":10761,"threat":10762,"etary":10763,"Ġhered":10764,"ĠDE":10765,"Ġpenetr":10766,"Ġplasminogen":10767,"Ġmathematical":10768,"ĠGe":10769,"Ġsubsets":10770,"Ġsubm":10771,"Ġintraperitoneal":10772,"Ġstarch":10773,"Ġhypother":10774,"ĠCMV":10775,"Ġbrad":10776,"Ġdesignated":10777,"Ġtick":10778,"ĠNPs":10779,"ĠWil":10780,"'.":10781,"aled":10782,"pred":10783,"floxacin":10784,"Ġarrhythmias":10785,"olipoprotein":10786,"Ġthorough":10787,"Ġ)":10788,"Ġcytology":10789,"ĠSingle":10790,"ophosphamide":10791,"ĠADP":10792,"Ġosteoc":10793,"Ġcentury":10794,"Ġpep":10795,"incter":10796,"Ġdeline":10797,"uthor":10798,"Ġjour":10799,"uminal":10800,"Ġremov":10801,"Ġcounseling":10802,"urea":10803,"Ġole":10804,"Ġverbal":10805,"idopsis":10806,"portant":10807,"Ġlatent":10808,"Ġfilling":10809,"Ġcorrespond":10810,"Ġmanifestation":10811,"ausea":10812,"Ġscaffold":10813,"wing":10814,"cholesterol":10815,"Ġperiodic":10816,"ofol":10817,"Ġpoli":10818,"ĠDel":10819,"Ġammonia":10820,"Ġpredicts":10821,"ĠSeventy":10822,"adreno":10823,"Ġmanage":10824,"ophyll":10825,"Group":10826,"Three":10827,"<.":10828,"Ġseeds":10829,"ĠTwelve":10830,"iar":10831,"Ġinherent":10832,"Ġfront":10833,"litaxel":10834,"icardial":10835,"Ġrespiration":10836,"nutrition":10837,"Ġresorption":10838,"ĠConsequently":10839,"Ġendovascular":10840,"ulse":10841,"Ġsquare":10842,"Ġerythemat":10843,"Ġdissolved":10844,"delta":10845,"ĠmV":10846,"Ġphysiologic":10847,"transplant":10848,"ĠGA":10849,"angle":10850,"obser":10851,"Ġpoorer":10852,"Ġincons":10853,"gic":10854,"ried":10855,"ĠMac":10856,"Ġvestibular":10857,"ĠSEM":10858,"arynx":10859,"Ġpersonnel":10860,"inating":10861,"hythmic":10862,"Ġglucocorticoid":10863,"Synthesis":10864,"Ġprecipitation":10865,"ĠLD":10866,"Ġmesenteric":10867,"Ġprescrib":10868,"ĠAmerica":10869,"Ġtracheal":10870,"Ġexpert":10871,"Ġhamster":10872,"mitter":10873,"Ġdermal":10874,"Ġmicrogl":10875,"Ġtriglyceride":10876,"Ġcoil":10877,"Ġbac":10878,"ida":10879,"Ġtitanium":10880,"herin":10881,"ishing":10882,"Influence":10883,"Ġtherapeu":10884,"ifferentiated":10885,"Ġvolunt":10886,"accharomyces":10887,"ĠBas":10888,"Ġsimilarities":10889,"ĠInformation":10890,"racycl":10891,"ereb":10892,"Ġultimately":10893,"Ġviews":10894,"inositol":10895,"bruary":10896,"ĠTiO":10897,"othelial":10898,"Glu":10899,"Ġinsect":10900,"Ġfacilitated":10901,"Ġdefinite":10902,"ĠFl":10903,"Ġcloning":10904,"..":10905,"ĠIS":10906,"Ġmethodological":10907,"Ġcentres":10908,"Ġdistances":10909,"peptide":10910,"olve":10911,"Ġration":10912,"Ġcircumst":10913,"size":10914,"Ġtracking":10915,"Ġnal":10916,"Ġweakness":10917,"Ġsaliva":10918,"pH":10919,"Ġlid":10920,"Ġresected":10921,"anos":10922,"Ġinducible":10923,"isual":10924,"ĠFindings":10925,"bp":10926,"Ġpari":10927,"At":10928,"Ġadding":10929,"aryl":10930,"astern":10931,"endence":10932,"Ġesters":10933,"Non":10934,"Ġhosts":10935,"oprecip":10936,"quinone":10937,"hr":10938,"estradiol":10939,"imeric":10940,"threatening":10941,"Ġconjugated":10942,"micro":10943,"Ġcigarette":10944,"releasing":10945,"Ġrep":10946,"affinity":10947,"oselective":10948,"roid":10949,"Ġanten":10950,"Ġlimitation":10951,"Ġmoving":10952,"ĠFunctional":10953,"Ġembolization":10954,"Ġspecialized":10955,"Ġplans":10956,"Ġvomiting":10957,"Ġplaques":10958,"stimulating":10959,"itig":10960,"Ġconsumed":10961,"Ġexcited":10962,"Ġautopsy":10963,"Ġnatri":10964,"upuncture":10965,"otopic":10966,"ĠCent":10967,"Ġscored":10968,"agit":10969,"Ġembolism":10970,"oder":10971,"respective":10972,"Ġconfined":10973,"Ġsequenced":10974,"Ġresponsive":10975,"Ġhomozygous":10976,"Ġupregulation":10977,"ĠAUC":10978,"Ġforced":10979,"Ġuniversal":10980,"Ġvirt":10981,"Ġloaded":10982,"Ġmand":10983,"Ġcycling":10984,"Ġsacr":10985,"ĠRespon":10986,"Ġ1992":10987,"ortem":10988,"Ġhygi":10989,"Ġinterrup":10990,"Ġsuperv":10991,"termin":10992,"Ġplates":10993,"Ġheating":10994,"Ġfabricated":10995,"arial":10996,"Ġflavon":10997,"Ġretardation":10998,"GO":10999,"Ġcot":11000,"Ġ1993":11001,"effectiveness":11002,"advant":11003,"din":11004,"Ġfinally":11005,"idic":11006,"Ġdescending":11007,"immuno":11008,"Ġoptimize":11009,"Bl":11010,"ochemically":11011,"Ġregurg":11012,"Ġcurative":11013,"ĠPart":11014,"Ġectopic":11015,"Ġpermit":11016,"Ġobtaining":11017,"XA":11018,"ĠRP":11019,"Ġcleft":11020,"idental":11021,"cit":11022,"ĠGene":11023,"effects":11024,"Ġlabel":11025,"Ġconstructs":11026,"Ġendemic":11027,"glycerol":11028,"arse":11029,"Ġconnective":11030,"acing":11031,"Ġadenoma":11032,"Ġdoxorubicin":11033,"Ġswim":11034,"Ġencodes":11035,"Ġ(+/-":11036,"ĠTaiwan":11037,"ĠMM":11038,"onazole":11039,"Ġcomorbidities":11040,"ĠDay":11041,"ĠTime":11042,"ĠCauc":11043,"Ġcalves":11044,"lectomy":11045,"ĠHer":11046,"irm":11047,"Ġfulf":11048,"NM":11049,"oretic":11050,"Ġhyperg":11051,"opathology":11052,"rovascular":11053,"ulas":11054,"Ġlif":11055,"Ġstents":11056,"Ġoverlap":11057,"Ġprednis":11058,"etermination":11059,"Ġcationic":11060,"Ġinfarct":11061,"ielding":11062,"Ġaugmented":11063,"layer":11064,"butyl":11065,"Using":11066,"Ġpreclinical":11067,"Ġleaders":11068,"Ġintravenously":11069,"Ġcode":11070,"Ġmicroarray":11071,"Ġhypotension":11072,"Ġdust":11073,"Ġprofiling":11074,"ĠForm":11075,"zymes":11076,"Ġtemplate":11077,"Ġdisappeared":11078,"inhibit":11079,"ĠMDA":11080,"Ġpreferentially":11081,"Neuro":11082,"Ġnonc":11083,"Ġenvelop":11084,"Ġsuperc":11085,"Ġstain":11086,"Ġpreferences":11087,"ĠNovember":11088,"ceptual":11089,"Ġwear":11090,"Ġsupra":11091,"Ġresponding":11092,"Ġbiologic":11093,"ĠArabidopsis":11094,"Ġcontinues":11095,"ĠMCF":11096,"Ġadenomas":11097,"Ġbull":11098,"ĠHSP":11099,"ĠPPAR":11100,"Ġhypersensitivity":11101,"metic":11102,"ĠGL":11103,"bladder":11104,"catalyzed":11105,"Ġzones":11106,"Ġphenolic":11107,"Ġunderl":11108,"Ġheld":11109,"Ġreconstit":11110,"ĠFourier":11111,"Ġforest":11112,"Ġamni":11113,"Ġintegral":11114,"Ġtris":11115,"ygdal":11116,"ĠCross":11117,"polymer":11118,"annel":11119,"atinum":11120,"iii":11121,"Ġevolved":11122,"Ġ1980":11123,"isis":11124,"well":11125,"oreal":11126,"Ġpsychiat":11127,"globulin":11128,"Ġinflux":11129,"catenin":11130,"tee":11131,"ĠSelf":11132,"rices":11133,"ĠFas":11134,"Ġempty":11135,"ĠCrohn":11136,"Ġadmissions":11137,"Ġdemands":11138,"substituted":11139,"Ġangles":11140,"exp":11141,"Ġkept":11142,"Ġsplenic":11143,"Ġcolonization":11144,"TG":11145,"Ġlengths":11146,"Ġinterpret":11147,"ĠImmunohist":11148,"Ġprimers":11149,"Ġmodulating":11150,"Ġultravi":11151,"appropriate":11152,"iding":11153,"del":11154,"FP":11155,"rexate":11156,"Ġmicromol":11157,"ĠChronic":11158,"Ġdetector":11159,"retroviral":11160,"Ġsummarize":11161,"Ġultraviolet":11162,"Ġethn":11163,"Ġinfl":11164,"aight":11165,"cyclic":11166,"Ġpromise":11167,"ĠFc":11168,"Ġburst":11169,"ucl":11170,"Ġhaemorrh":11171,"Ġspot":11172,"Role":11173,"Ġhypotheses":11174,"Ġtrabec":11175,"Ġmeningitis":11176,"Ġhighlighted":11177,"exposed":11178,"trum":11179,"ĠPU":11180,"Ġacceptance":11181,"ĠHem":11182,"Ġascorb":11183,"Inf":11184,"Ġpropagation":11185,"secre":11186,"icl":11187,"role":11188,"Ġraw":11189,"Ġinsec":11190,"izer":11191,"Ġinfertility":11192,"inous":11193,"vated":11194,"Ġguan":11195,"growth":11196,"omethyl":11197,"Ġinoculation":11198,"Ġsemic":11199,"Characterization":11200,"ĠExperiment":11201,"Ġconsent":11202,"Ġcerebellum":11203,"Ġaveraged":11204,"rangements":11205,"anking":11206,"aginal":11207,"Ġplanned":11208,"Ġbring":11209,"Ġvocal":11210,"ĠMolecular":11211,"Ġmyosin":11212,"Ġneurodegenerative":11213,"Ġreflecting":11214,"Ġapnea":11215,"Ġprobable":11216,"Ġabortion":11217,"Ġaffective":11218,"Ġstrep":11219,"Ġcatheters":11220,"cein":11221,"Ġconv":11222,"berg":11223,"Ġrose":11224,"Ġultrastructural":11225,"Ġprogressively":11226,"ux":11227,"Hep":11228,"Ġhous":11229,"Ġcovari":11230,"Ġspherical":11231,"Ġstone":11232,"Ġdiaphrag":11233,"Ġstructurally":11234,"Ġphospholipase":11235,"Ġmimic":11236,"Ġsolar":11237,"ender":11238,"Ġintegrin":11239,"haps":11240,"Ġestablishing":11241,"Ġfibronectin":11242,"Ġpmol":11243,"Ġadhesive":11244,"Ġchitosan":11245,"ĠBo":11246,"Ġmissing":11247,"Ġtriglycerides":11248,"Ġclamp":11249,"Expression":11250,"Ġestimating":11251,"Ġpaediatric":11252,"tronic":11253,"Ġdesired":11254,"ĠStreptococcus":11255,"ropo":11256,"Ġrings":11257,"arach":11258,"Ġminute":11259,"phot":11260,"Ġviscosity":11261,"Ġcodon":11262,"Ġmultil":11263,"Ġchi":11264,"Ġcatalase":11265,"Ġreversal":11266,"Ġdisadvant":11267,"Ġmonolayer":11268,"Ġflexibility":11269,"Ġhereditary":11270,"Ġsept":11271,"Ġfacility":11272,"150":11273,"abdominal":11274,"ĠIndividual":11275,"loaded":11276,"Ġdilatation":11277,"ureth":11278,"ĠThose":11279,"ĠEF":11280,"Ġlag":11281,"RE":11282,"Ġesophagus":11283,"lamy":11284,"Ġbiologically":11285,"Ġconductivity":11286,"ĠFebruary":11287,"Ġwinter":11288,"Ġpollen":11289,"Ġmonocyte":11290,"Ġtwin":11291,"Ġallergen":11292,"agers":11293,"Ġanesthetic":11294,"Ġplayed":11295,"Ġembedded":11296,"DO":11297,"Ġguided":11298,"Ġexplicit":11299,"juvant":11300,"sover":11301,"inesterase":11302,"apid":11303,"irth":11304,"Ġstraight":11305,"emale":11306,"ealand":11307,"Ġinherited":11308,"Ġmesh":11309,"ĠModel":11310,"thromb":11311,"Ġcity":11312,"Ġrepetitive":11313,"Ġhemorrhagic":11314,"Ġadulthood":11315,"Ġelectrostatic":11316,"Ġpersisted":11317,"Ġflaps":11318,"Ġmodif":11319,"CRP":11320,"Ġbranches":11321,"Ġspite":11322,"Ġnull":11323,"Ġprecon":11324,"Dawley":11325,"otrexate":11326,"Ġnausea":11327,"Ġintroduce":11328,"Ġ600":11329,"Ġtiters":11330,"MM":11331,"GMP":11332,"Ls":11333,"ĠNSCLC":11334,"Ġreasonable":11335,"%);":11336,"ĠSequ":11337,"ĠSU":11338,"enicillin":11339,"Ġgenerating":11340,"Ġsedation":11341,"Ġlar":11342,"Ġschedule":11343,"HB":11344,"prom":11345,"Ġneighb":11346,"Previous":11347,"ror":11348,"Ġskull":11349,"Ġlegal":11350,"ĠEP":11351,"odiazep":11352,"AN":11353,"Ġthymus":11354,"ony":11355,"Ġfoci":11356,"Ġremove":11357,"regation":11358,"oblot":11359,"ĠZealand":11360,"Ġdrink":11361,"ercise":11362,"apoptotic":11363,"Ġaugmentation":11364,"mac":11365,"ponent":11366,"ino":11367,"Ġdischarged":11368,"Ġdemonstration":11369,"itron":11370,"Ġamput":11371,"ushing":11372,"Ġundere":11373,"ĠSTAT":11374,"Ġmitotic":11375,"artile":11376,"ecan":11377,"Ġnonspecific":11378,"Ġcarefully":11379,"emporary":11380,"agglut":11381,"INE":11382,"orr":11383,"itudes":11384,"illa":11385,"Ġsilicon":11386,"Ġoutl":11387,"idol":11388,"ĠOH":11389,"Ġenamel":11390,"ĠDepression":11391,"afil":11392,"Ġemotion":11393,"Ġsubstituted":11394,"Ġsolvents":11395,"Si":11396,"ĠdB":11397,"gly":11398,"Ġparticipating":11399,"ĠWHO":11400,"etine":11401,"Ġfollicle":11402,"ĠLip":11403,"Ġattend":11404,"Ġneuromuscular":11405,"Ġbinary":11406,"Ġarsenic":11407,"Ġepileptic":11408,"Ġantigenic":11409,"Ġmotiv":11410,"ĠLact":11411,"Ġstriking":11412,"environment":11413,"ĠInd":11414,"Ġfolding":11415,"Ġepitopes":11416,"otom":11417,"ĠSB":11418,"Ġkeep":11419,"ĠWT":11420,"Ġpreoperatively":11421,"ĠSpecific":11422,"Ġconnec":11423,"Ġgels":11424,"Ġendotoxin":11425,"agittal":11426,"007":11427,"Ġbones":11428,"ĠInvent":11429,"Ġarrays":11430,"oxia":11431,"ĠPain":11432,"atite":11433,"toc":11434,"Ġunivariate":11435,"ĠPol":11436,"Ġtrimester":11437,"Ġboundary":11438,"Ġvenom":11439,"Ġantidepressant":11440,"Ġlib":11441,"Ġisotope":11442,"Ġdin":11443,"ranolol":11444,"ido":11445,"rat":11446,"Ġsouthern":11447,"Ġinstitutional":11448,"Ġbioactive":11449,"Ġlowering":11450,"Ġattacks":11451,"ĠAML":11452,"cis":11453,"Ġsplit":11454,"Ġfilled":11455,"ovir":11456,"Ġfibrous":11457,"Ġalanine":11458,"Ġlymphomas":11459,"Ġglucagon":11460,"NB":11461,"Ġbuc":11462,"Ġspind":11463,"MSCs":11464,"Ġ1991":11465,"artan":11466,"Ġfate":11467,"Ġintermediates":11468,"Ġprogrammes":11469,"Ġwalls":11470,"ofacial":11471,"Ġimmunoreactive":11472,"report":11473,"Ġsalv":11474,"Ġdihydro":11475,"Ġeros":11476,"Ġuterus":11477,"ogl":11478,"iforn":11479,"Ġplexus":11480,"Ġagar":11481,"saturated":11482,"Ġcaffeine":11483,"ĠArg":11484,"parts":11485,"Ġkb":11486,"Ġwindow":11487,"Ġillumin":11488,"Ġtrem":11489,"Ġureter":11490,"Ġanalyse":11491,"siveness":11492,"Val":11493,"Ġaeti":11494,"Ġfoss":11495,"oste":11496,"Ġglycine":11497,"Ġsuccessive":11498,"yne":11499,"Ġconstraints":11500,"ullary":11501,"Ġspent":11502,"Ġsen":11503,"orbol":11504,"Ġdeformity":11505,"Ġproductivity":11506,"urons":11507,"vidually":11508,"ĠInventory":11509,"Ġnail":11510,"Ġnorthern":11511,"Ġshap":11512,"Ġaberrant":11513,"ĠExperimental":11514,"Ġbases":11515,"ĠNADPH":11516,"Ġdecomposition":11517,"Ox":11518,"Ġepitope":11519,"opyran":11520,"Sm":11521,"acute":11522,"Ġlymphatic":11523,"Ġhandling":11524,"IM":11525,"Ġperforation":11526,"paring":11527,"Ġintim":11528,"ĠImportant":11529,"Ġgenetics":11530,"Ġchemically":11531,"Ġacr":11532,"Ġislet":11533,"Ġamp":11534,"ĠHbA":11535,"Ġintended":11536,"Ġcomputerized":11537,"ĠPTSD":11538,"Ġmism":11539,"Ġglycerol":11540,"Ġdistric":11541,"Ġsynovial":11542,"Ġdimethyl":11543,"Ġreservoir":11544,"Ġphotore":11545,"ĠBesides":11546,"Ġdiffers":11547,"Ġcalcification":11548,"Ġcations":11549,"Ġdissolution":11550,"Ġget":11551,"Ġretinopathy":11552,"Ġbacterium":11553,"Ġtau":11554,"Ġgalact":11555,"Ġheterozygous":11556,"icans":11557,"Ġclassic":11558,"Chronic":11559,"Ġparietal":11560,"ĠDSM":11561,"Ġmumol":11562,"Ġcircumference":11563,"Ġhabits":11564,"Ġvar":11565,"Ġclean":11566,"ĠLa":11567,"Ġvirtual":11568,"Ġuser":11569,"oactive":11570,"oflurane":11571,"Ġlipase":11572,"ĠConversely":11573,"Ġbegan":11574,"ĠCommun":11575,"Ġkary":11576,"Ġtongue":11577,"orient":11578,"Ġnucleic":11579,"uma":11580,"Ġarticular":11581,"Comp":11582,"icidal":11583,"ivac":11584,"Ġoxygenation":11585,"ĠMethods":11586,"Ġmediates":11587,"Ġamygdal":11588,"Ġsequel":11589,"ĠEighty":11590,"Ġaquatic":11591,"urin":11592,"ĠPubMed":11593,"Arg":11594,"KA":11595,"Ġpeer":11596,"Ġanesthetized":11597,"Ġrigid":11598,"Ġendoplasmic":11599,"Ġmang":11600,"Ġthermodynamic":11601,"Op":11602,"ĠATPase":11603,"osum":11604,"ees":11605,"orth":11606,"Ġpulsed":11607,"hyp":11608,"ĠBC":11609,"ĠIr":11610,"ĠFGF":11611,"Ġradius":11612,"Ġgynec":11613,"ĠItaly":11614,"ICU":11615,"itance":11616,"Ġ140":11617,"Ġsar":11618,"ignant":11619,"Ġyellow":11620,"Ġdisulfide":11621,"Ġpin":11622,"titude":11623,"trast":11624,"illar":11625,"Ġbiodegrad":11626,"Ġantihypertensive":11627,"elan":11628,"Ġsymmetry":11629,"kinin":11630,"Ġcrystalline":11631,"PAP":11632,"Ġpositivity":11633,"Ġphospholipids":11634,"SOD":11635,"Ġexpectations":11636,"rotomy":11637,"Ġmenop":11638,"Ġsensors":11639,"Ġirreversible":11640,"ĠGST":11641,"Ġaxonal":11642,"Ġneuroendocrine":11643,"Ġowing":11644,"Ġcough":11645,"Ġneoplasia":11646,"Ġdefective":11647,"Ġmention":11648,"ĠÎ³":11649,"Ġorganizations":11650,"Ġsphincter":11651,"Ġcompetence":11652,"Ġdamaged":11653,"ĠRNAs":11654,"Ġsulfur":11655,"uloskeletal":11656,"ĠDH":11657,"FR":11658,"008":11659,"Ġbox":11660,"Ġpapers":11661,"ucifer":11662,"bul":11663,"ĠmA":11664,"arinic":11665,"adrenaline":11666,"Ġsemen":11667,"Ġvasoconstr":11668,"zone":11669,"Ġexhibiting":11670,"oxane":11671,"Ġprompt":11672,"Ġemulsion":11673,"cad":11674,"Ġdesigns":11675,"Ġmicrov":11676,"ona":11677,"Ġcircumstances":11678,"Ġsummer":11679,"Ġretrieval":11680,"ellig":11681,"tification":11682,"ĠâĪ¼":11683,"ĠPhase":11684,"car":11685,"Ġrelating":11686,"ading":11687,"Ġdegenerative":11688,"Ġresident":11689,"Ġvolatile":11690,"optic":11691,"bred":11692,"Ġasthmatic":11693,"Ġsporadic":11694,"ĠSOD":11695,"coplas":11696,"Ġnamed":11697,"pare":11698,"ulators":11699,"ĠIndian":11700,"FGF":11701,"issue":11702,"Ġsacrific":11703,"Sub":11704,"Ġimpedance":11705,"ĠStud":11706,"Hb":11707,"icac":11708,"urate":11709,"Ġcochlear":11710,"inge":11711,"amer":11712,"Ġherni":11713,"portive":11714,"Ġextrap":11715,"Ġstationary":11716,"Ġshortening":11717,"Ġasymmetry":11718,"Post":11719,"ocyst":11720,"Ġmeeting":11721,"ĠBehavi":11722,"Ġpatency":11723,"wards":11724,"ĠHigher":11725,"ophils":11726,"lection":11727,"Gs":11728,"Or":11729,"ĠRandom":11730,"Ġcentrifug":11731,"Ġultrasonic":11732,"Ġcopy":11733,"Ġsalts":11734,"rons":11735,"Ġvoluntary":11736,"noid":11737,"Ġeventually":11738,"chrom":11739,"quality":11740,"Ġinteracting":11741,"Ġperc":11742,"Ġenlarg":11743,"rank":11744,"Ġvulnerable":11745,"Ġfalls":11746,"Ġswitching":11747,"ĠRem":11748,"ritin":11749,"Ġsexes":11750,"ĠCHD":11751,"Ġexcitatory":11752,"Ġarachid":11753,"Ġrating":11754,"nsic":11755,"atology":11756,"Ġmicrogram":11757,"400":11758,"rolimus":11759,"Pa":11760,"reed":11761,"Ġregulators":11762,"Ġquantities":11763,"aminase":11764,"Ġmodelling":11765,"ĠEBV":11766,"Ġna":11767,"Ġtransporters":11768,"ara":11769,"essive":11770,"Ġelectrophysiological":11771,"Ġinterviewed":11772,"Ġmir":11773,"ĠDa":11774,"Ġtransduc":11775,"soluble":11776,"Ġcyl":11777,"unic":11778,"Ġappropri":11779,"Ġzebra":11780,"Ġcolonies":11781,"sus":11782,"Ġseconds":11783,"brom":11784,"Ġbiomedical":11785,"Ġprojection":11786,"ĠDO":11787,"odic":11788,"pregn":11789,"trophot":11790,"Ġnatriuretic":11791,"opyr":11792,"inetic":11793,"ining":11794,"Ġjunctions":11795,"Ġconjugate":11796,"Ġmachine":11797,"ĠAkt":11798,"Ġsubs":11799,"Ġdiffering":11800,"ĠSCI":11801,"Ġimmunocyt":11802,"ĠTi":11803,"Ġantifungal":11804,"Ġcorpus":11805,"Ġpresumably":11806,"Ġteac":11807,"Ġchickens":11808,"lactam":11809,"olateral":11810,"Ġnutrients":11811,"opropyl":11812,"Ġsegmental":11813,"onym":11814,"ĠPur":11815,".).":11816,"Ġthrombocytopenia":11817,"Ġprefrontal":11818,"Ġprosthetic":11819,"ĠMK":11820,"Ġregurgitation":11821,"Ġhydrochloride":11822,"Ġirrespective":11823,"Ġcategorized":11824,"Ġerythematosus":11825,"Ġoxal":11826,"Ġexceeded":11827,"Ġgeographic":11828,"Ġstabilized":11829,"Ġvapor":11830,"Ġmixing":11831,"Ġsenes":11832,"atins":11833,"Ġbriefly":11834,"Ġmatrices":11835,"DF":11836,"ba":11837,"Ġclustering":11838,"Ġtermination":11839,"Ġconcentrated":11840,"tending":11841,"Ġdrive":11842,"omo":11843,"Ġactivates":11844,"Ġendpoint":11845,"idone":11846,"Ġfilament":11847,"Ġmonotherapy":11848,"Ġophthalm":11849,"Ġtrees":11850,"Ġpuber":11851,"Ġatmospheric":11852,"eed":11853,"SAID":11854,"called":11855,"Ġindividually":11856,"ocket":11857,"Ġgenomes":11858,"eption":11859,"Ġvasopressin":11860,"VP":11861,"while":11862,"Ġfemur":11863,"ĠDelta":11864,"Ġsediments":11865,"Ġ000":11866,"Ġremarkably":11867,"Ġdisplac":11868,"Ġantiretroviral":11869,"Ġlactation":11870,"Ġimpairments":11871,"Ġapolipoprotein":11872,"Ġfeeling":11873,"olecules":11874,"ifluor":11875,"/-)":11876,"WI":11877,"One":11878,"ĠLabor":11879,"omethacin":11880,"ordered":11881,"onitrile":11882,"MMP":11883,"Ġdeposits":11884,"Ġselenium":11885,"Ġstrengthen":11886,"ĠTa":11887,"ĠBMP":11888,"ĠSymptom":11889,"enem":11890,"Ġmessenger":11891,"Ġspring":11892,"pli":11893,"Ġ105":11894,"Ġaccomplished":11895,"asome":11896,"Ġcyclophosphamide":11897,"Ġendometriosis":11898,"Ġoocyte":11899,"Ġrestr":11900,"Ġpoisoning":11901,"itors":11902,"Ġconsultation":11903,"Ġmanaging":11904,"Ġincorporating":11905,"yclic":11906,"ĠReport":11907,"ball":11908,"resolved":11909,"prisingly":11910,"Ġimmobilization":11911,"reperfusion":11912,"Ġbup":11913,"Ġpolymorphic":11914,"QR":11915,"integr":11916,"Ġeukaryotic":11917,"timulation":11918,"Ġmacrom":11919,"ously":11920,"Ġatopic":11921,"ritical":11922,"Ġlavage":11923,"Ġpapilloma":11924,"Ġfacilitates":11925,"Ġkilled":11926,"Ġbrainstem":11927,"iger":11928,"LF":11929,"Ġreact":11930,"ye":11931,"Ġproxim":11932,"Ġillustrated":11933,"Ġsuggestive":11934,"Ġcompartments":11935,"Ġtubes":11936,"ney":11937,"Ġribosomal":11938,"chemic":11939,"Ġproteolytic":11940,"Ġconnectivity":11941,"Gal":11942,"IGF":11943,"Ġstones":11944,"ĠsiRNA":11945,"ĠItalian":11946,"Ġapplicability":11947,"omed":11948,"Ġstrip":11949,"Ġidea":11950,"Ġmobilization":11951,"ĠFood":11952,"Ġaccounts":11953,"Ġpossibilities":11954,"Ġnom":11955,"Ġphon":11956,"Ġdynam":11957,"Ġhydrophilic":11958,"DD":11959,"rd":11960,"irteen":11961,"Ġdiagnose":11962,"Ġtemporary":11963,"mega":11964,"Ġtag":11965,"clonal":11966,"Ġnormot":11967,"Ġmosquit":11968,"Ġthemes":11969,"ĠGlu":11970,"rost":11971,"Ġimmunoassay":11972,"Ġdisappear":11973,"ramidal":11974,"Ġgrass":11975,"author":11976,"ĠCRC":11977,"Ġ/":11978,"Ġmutagenesis":11979,"ĠWork":11980,"Ġunderestim":11981,"Ġabsorbed":11982,"atric":11983,"Ġhazards":11984,"Ġphe":11985,"Ġregistry":11986,"Ġirrig":11987,"Ġcoast":11988,"Ġneglec":11989,"Ġcrossover":11990,"Ġauton":11991,"liter":11992,"ĠCVD":11993,"Ġlymphaden":11994,"rant":11995,"Ġsufficiently":11996,"Ġconfocal":11997,"Ġtheories":11998,"Ġlarval":11999,"Ġexperts":12000,"ĠTumor":12001,"ĠSouthern":12002,"Ġ([":12003,"itamin":12004,"Ġmyelin":12005,"ĠCKD":12006,"Ġreagents":12007,"Ġlysine":12008,"GI":12009,"Ġthrombus":12010,"ĠTCR":12011,"Ġinhaled":12012,"Ġresponders":12013,"ĠVA":12014,"tizing":12015,"Ġoccasion":12016,"avig":12017,"ĠFrance":12018,"agia":12019,"stranded":12020,"ĠLife":12021,"Ġefficac":12022,"irradi":12023,"Changes":12024,"Ġbin":12025,"ĠOutcomes":12026,"Ġcognition":12027,"Ġplayers":12028,"Ġpublications":12029,"blastoma":12030,"attern":12031,"Ġimmunost":12032,"tia":12033,"osper":12034,"Ġclot":12035,"what":12036,"Ġcausative":12037,"dividual":12038,"Ġ130":12039,"toxic":12040,"Ġaryl":12041,"Ġcatheterization":12042,"Ġsummarizes":12043,"Ġconjunctiv":12044,"VEGF":12045,"ĠTherapy":12046,"ĠLys":12047,"Ġelectrolyte":12048,"Ġepigenetic":12049,"ĠDef":12050,"Ġscintigraphy":12051,"ĠBa":12052,"Ã¼":12053,"inephrine":12054,"Ġindomethacin":12055,"personal":12056,"afety":12057,"Ġphage":12058,"fr":12059,"iate":12060,"Ġcopies":12061,"oney":12062,"Ġtin":12063,"Ġpropofol":12064,"ĠOF":12065,"ext":12066,"pergillus":12067,"aval":12068,"Ġproinflammatory":12069,"oglycan":12070,"Ġ(âī":12071,"erving":12072,"ĠSK":12073,"Ġpet":12074,"Ġgraded":12075,"Ġautoantibodies":12076,"Ġstresses":12077,"hythmia":12078,"Ġaccounting":12079,"nitro":12080,"Ġarb":12081,"uing":12082,"NOVA":12083,"ivacaine":12084,"Ġelongation":12085,"Ġgradients":12086,"ĠCys":12087,"onium":12088,"ĠPrac":12089,"Ġcesarean":12090,"Ġintrauterine":12091,"Ġpulp":12092,"opharyngeal":12093,"Ġnodal":12094,"Ġlign":12095,"Ġaldosterone":12096,"atheter":12097,"ction":12098,"ĠSr":12099,"ĠVi":12100,"Ġconcerned":12101,"Ġpainful":12102,"ĠOP":12103,"Ġcounterparts":12104,"Ġchloro":12105,"Ġscenarios":12106,"Ġmind":12107,"Ġsociety":12108,"Ġobstetric":12109,"HPLC":12110,"ĠVer":12111,"Ġpretreated":12112,"ĠPhot":12113,"enth":12114,"Ġmargins":12115,"ĠWhereas":12116,"terone":12117,"Ġpassage":12118,"ĠSpecifically":12119,"Ġneutrop":12120,"Ġphoton":12121,"]).":12122,"atively":12123,"Ġwood":12124,"Cyt":12125,"Ġproc":12126,"Ġadequately":12127,"Ġtryptophan":12128,"eptidase":12129,"dec":12130,"Ġperhaps":12131,"expression":12132,"Ġmicrosomes":12133,"tively":12134,"Ġmenstrual":12135,"oxifen":12136,"Ġemployment":12137,"ĠSaccharomyces":12138,"Ġcustom":12139,"dihydro":12140,"ocalization":12141,"Ġsexually":12142,"Ġparenteral":12143,"anus":12144,"Ġcuff":12145,"Ġerg":12146,"ĠPRL":12147,"Ġpiv":12148,"imaging":12149,"ĠDI":12150,"Ġaph":12151,"omyelitis":12152,"chool":12153,"WT":12154,"Ġfibre":12155,"ĠSpanish":12156,"Ġislets":12157,"ĠRats":12158,"ĠVarious":12159,"iosis":12160,"thym":12161,"trig":12162,"ĠSHR":12163,"mu":12164,"Ġsynthe":12165,"ĠBALB":12166,"oprotective":12167,"Ġoxyt":12168,"Ġsomatostatin":12169,"Ġgallbladder":12170,"Studies":12171,"rot":12172,"Ġpaclitaxel":12173,"Ġintensities":12174,"nitros":12175,"ĠHIF":12176,"olgi":12177,"Ġsafely":12178,"Ġcontinuing":12179,"Ġmitig":12180,"ĠSPECT":12181,"HCV":12182,"ee":12183,"Ġrecessive":12184,"ĠLS":12185,"Ġtermed":12186,"Ġcooling":12187,"Ġreagent":12188,"nary":12189,"Ġcadaver":12190,"itability":12191,"Ġsurveyed":12192,"idazole":12193,"Ġreconstructed":12194,"Ġhyperther":12195,"Ġfamiliar":12196,"ĠMB":12197,"Cardi":12198,"Gly":12199,"process":12200,"cause":12201,"TOR":12202,"Ġfractional":12203,"Ġdiameters":12204,"Ġrecurrences":12205,"Ġoncology":12206,"Ġiliac":12207,"Ġmediator":12208,"Ġpercentages":12209,"Ġstrongest":12210,"Ġentered":12211,"Ġaberrations":12212,"ĠCAP":12213,"ouracil":12214,"Ġradioactivity":12215,"Ġgray":12216,"Ġregistration":12217,"Ġwritten":12218,"Ġmechanistic":12219,"Aut":12220,"Ġnanom":12221,"Ġadsorbed":12222,"ĠVP":12223,"Ġdisabilities":12224,"ĠLeu":12225,"Ġorders":12226,"ociceptive":12227,"Ġimbal":12228,"acrylate":12229,"Ġago":12230,"ĠSNP":12231,"Ġnanoparticle":12232,"elicobacter":12233,"Ġthereafter":12234,"jected":12235,"immunoassay":12236,"Ġnegl":12237,"Ġfused":12238,"Ġimper":12239,"Ġunlikely":12240,"atectomy":12241,"Ġterminals":12242,"Ġplatinum":12243,"Ġlet":12244,"Ġretrieved":12245,"articular":12246,"Ġalbicans":12247,"ventricular":12248,"intensity":12249,"Ġconfirms":12250,"Ġpollutants":12251,"ĠPharmac":12252,"Ġstanding":12253,"Ġdepartments":12254,"Ġgelatin":12255,"oflav":12256,"urium":12257,"Ġadenovirus":12258,"acking":12259,"Ġreceiver":12260,"azone":12261,"room":12262,"Ġfloor":12263,"Ġcutoff":12264,"obacillus":12265,"Ġnoct":12266,"Ġineffective":12267,"Ġboy":12268,"dia":12269,"Ġverify":12270,"ĠGal":12271,"Ġstrand":12272,"Ġsports":12273,"Ġlean":12274,"Ġrelate":12275,"Ġkeratinocytes":12276,"posal":12277,"gp":12278,"Ġconflict":12279,"ocysteine":12280,"Ġintention":12281,"ietin":12282,"icochemical":12283,"Ġinterfere":12284,"emoral":12285,"ĠLew":12286,"edge":12287,"Ġfaecal":12288,"cale":12289,"Ġglyco":12290,"Ġfolate":12291,"oderm":12292,"Ġcontrary":12293,"Ġneuropsychological":12294,"Ġvast":12295,"oxal":12296,"Ġcitrate":12297,"Ġmethotrexate":12298,"ustion":12299,"ĠDT":12300,"Ġmeaningful":12301,"Ġagricultural":12302,"ĠÎĶ":12303,"eties":12304,"Ġcharacterised":12305,"Mo":12306,"Ġkiller":12307,"ĠLog":12308,"Ġhol":12309,"ĠEMG":12310,"Ġaccordance":12311,"Ġcurv":12312,"Ġfruct":12313,"farin":12314,"Ġ(\"":12315,"Ġintramuscular":12316,"âģ":12317,"Ġbilirubin":12318,"ĠNan":12319,"Ġprefer":12320,"ĠHSV":12321,"Ġdecompression":12322,"ele":12323,"Ġerythropo":12324,"Ġmodulates":12325,"Ġweakly":12326,"ofen":12327,"redi":12328,"ponectin":12329,"child":12330,"Ġdeal":12331,"Ġimmunosuppression":12332,"asian":12333,"Ġavoided":12334,"Ġsubcellular":12335,"Ġprojections":12336,"Ġpreceding":12337,"ĠWnt":12338,"Ġavian":12339,"NAc":12340,"achlor":12341,"rate":12342,"ĠOSA":12343,"existing":12344,"Ġautism":12345,"mill":12346,"Ġheavi":12347,"Ġacceler":12348,"ĠOrganization":12349,"Ġsalvage":12350,"asting":12351,"ĠFactors":12352,"ĠDP":12353,"lioma":12354,"Ġpesticides":12355,"ĠWest":12356,"Ġforearm":12357,"Ġlattice":12358,"Ġgranular":12359,"pan":12360,"isher":12361,"Ġgonadotropin":12362,"Ġguideline":12363,"Ġaccessible":12364,"Ġbehind":12365,"Ġwalk":12366,"ĠBone":12367,"Ġconjugates":12368,"Ġbus":12369,"Ġbrains":12370,"Ġmini":12371,"ystal":12372,"Ġsoybean":12373,"ĠSte":12374,"cement":12375,"usal":12376,"Ġinnovative":12377,"ĠShort":12378,"LB":12379,"ĠSpain":12380,"ophe":12381,"assembly":12382,"Mn":12383,"Ġla":12384,"Ġlipoproteins":12385,"cont":12386,"ĠFR":12387,"Ġcerebrovascular":12388,"tracellular":12389,"Ġtumorigen":12390,"odend":12391,"Ġmicrospheres":12392,"vern":12393,"pot":12394,"fa":12395,"ifornia":12396,"Ġinfused":12397,"Ġendothelin":12398,"ylene":12399,"Ġlabelled":12400,"DLINE":12401,"Ġdisplays":12402,"Ġdysph":12403,"Ġpacem":12404,"lipidemia":12405,"Ġmorphologic":12406,"Ġbeg":12407,"ĠDN":12408,"iesis":12409,"ĠCompound":12410,"volume":12411,"Ġlivers":12412,"opre":12413,"Sim":12414,"Ġquickly":12415,"Ġarms":12416,"Ġvitre":12417,"Ġbromide":12418,"Ġvesicle":12419,"ĠScore":12420,"atization":12421,"Ġregime":12422,"ocr":12423,"Ġcalf":12424,"Ġ160":12425,"ĠEG":12426,"Ġperiodon":12427,"la":12428,"Ġhemisphere":12429,"Ġradios":12430,"orporeal":12431,"ĠCFU":12432,"Ġseeking":12433,"modulin":12434,"Ġdigestive":12435,"yrene":12436,"Ġindicative":12437,"Ġexha":12438,"Ġmorning":12439,"Ġnemat":12440,"Ġspray":12441,"ette":12442,"Ġrepeats":12443,"))(":12444,"plements":12445,"ophysical":12446,"Ġrules":12447,"Ġconnections":12448,"ĠDevelopment":12449,"ĠQuantitative":12450,"nexin":12451,"aco":12452,"Ġstrept":12453,"Ġscaling":12454,"atial":12455,"Ġafferent":12456,"ĠHydro":12457,"Ġreacted":12458,"uan":12459,"expressing":12460,"Ġsequelae":12461,"Ġdodec":12462,"Ġhands":12463,"Ġbreakdown":12464,"Ġmonkey":12465,"Ġinterc":12466,"abolism":12467,"irds":12468,"Ġmanufacture":12469,"ĠEffects":12470,"Ġreflection":12471,"Ġrefractive":12472,"observer":12473,"Ġarc":12474,"LH":12475,"ĠmiRNAs":12476,"Ġechocardiographic":12477,"Ġaddressing":12478,"Ġdiagnosing":12479,"];":12480,"Ġdentin":12481,"ĠSN":12482,"Ġknockout":12483,"Ġsupportive":12484,"Ġvin":12485,"ĠBefore":12486,"Ġlocomotor":12487,"Ġkcal":12488,"Ġsplicing":12489,"edema":12490,"Ġarrangement":12491,"Ġepinephrine":12492,"Ġmicrosomal":12493,"Ġexerted":12494,"CMV":12495,"ensing":12496,"Ġarterio":12497,"essel":12498,"Ġtopic":12499,"1000":12500,"Ġblockers":12501,"Ġmultidrug":12502,"Ġvill":12503,"wann":12504,"Ġchronically":12505,"Ġbehaviours":12506,"Ġassumption":12507,"ĠExamination":12508,"oxyp":12509,"anese":12510,"proliferative":12511,"ĠTran":12512,"Ġdead":12513,"Ġascites":12514,"AM":12515,"Ġclinician":12516,"ĠCanadian":12517,"Ġnickel":12518,"hydroxyp":12519,"Ġantioxidants":12520,"admin":12521,"echnology":12522,"play":12523,"ĠAnd":12524,"LM":12525,"Ġorganized":12526,"biotic":12527,"Ġchart":12528,"Ġcorticosteroid":12529,"ĠEmerg":12530,"Ġpolyethylene":12531,"henol":12532,"Ġbrown":12533,"Ġtracer":12534,"cadherin":12535,"ĠInhibition":12536,"Ġmot":12537,"ĠMale":12538,"list":12539,"Ġoverlapping":12540,"platelet":12541,"Based":12542,"ĠPCI":12543,"Ġactively":12544,"Ġ1988":12545,"etics":12546,"ĠHI":12547,"eless":12548,"Leu":12549,"Ġinappropriate":12550,"Ġchallenged":12551,"Ġtelephone":12552,"Ġswine":12553,"101":12554,"present":12555,"Ġzebrafish":12556,"Ġblocker":12557,"Ġloads":12558,"Ġinstruc":12559,"amen":12560,"Ġdilated":12561,"Ġallocated":12562,"roma":12563,"Ġparticulate":12564,"Ġspondyl":12565,"oidosis":12566,"domain":12567,"etwork":12568,"ĠPd":12569,"Ġcomorbidity":12570,"Ġbig":12571,"PEG":12572,"ĠEV":12573,"Ġdefining":12574,"Ġimmunocomp":12575,"Ġparam":12576,"+.":12577,"ilst":12578,"Ġgaps":12579,"AST":12580,"Ġlook":12581,"Ġtraffic":12582,"ĠECM":12583,"velopmental":12584,"Ins":12585,"Ġoscillations":12586,"Ġproteinuria":12587,"ĠTBI":12588,"Ġhysterectomy":12589,"Ġaccommod":12590,"Ġfaculty":12591,"Ġherein":12592,"total":12593,"Ġfungus":12594,"Ġduplex":12595,"Ġoligos":12596,"olerance":12597,"vitamin":12598,"Ġmotifs":12599,"restric":12600,"Ġhousehold":12601,"NG":12602,"Ġdeviations":12603,"Ġcalor":12604,"Ġluminal":12605,"ĠSNPs":12606,"epid":12607,"Ġclonal":12608,"prin":12609,"Ġgyrus":12610,"ĠNinety":12611,"right":12612,"drome":12613,"ĠCp":12614,"Ġaccident":12615,"Ġkilling":12616,"ĠTC":12617,"BE":12618,"Ġmandi":12619,"Ġ(+":12620,"formin":12621,"Ġwrist":12622,"Ġneoplasm":12623,"ĠTogether":12624,"odex":12625,"Ġbiomechanical":12626,"ĠFV":12627,"Ġeliminate":12628,"Ġenvelope":12629,"Ġlenses":12630,"Ġconsequently":12631,"lobal":12632,"ACh":12633,"ĠMonte":12634,"Ġdebate":12635,"Ġturb":12636,"obarbital":12637,"activating":12638,"Ġurolog":12639,"Ġoutflow":12640,"Ġbuild":12641,"Ġdiscontinuation":12642,"bond":12643,"rey":12644,"Ġretain":12645,"house":12646,"Ġencephalopathy":12647,"Ġcatalysts":12648,"Ġconfirming":12649,"Ġsynap":12650,"ipital":12651,"Ġ1989":12652,"ĠMark":12653,"Ġlands":12654,"WS":12655,"ĠConsid":12656,"Ġpercenti":12657,"Ġmusculoskeletal":12658,"Ġtablets":12659,"Ġcytosol":12660,"jective":12661,"Ġharvested":12662,"Ġhaplotype":12663,"adium":12664,"Ġexpenditure":12665,"Ġmicrowave":12666,"aldehyde":12667,"mer":12668,"Ġtons":12669,"Ġspectrophot":12670,"atab":12671,"Ġvirtually":12672,"avor":12673,"oce":12674,"ittle":12675,"oil":12676,"Ġwash":12677,"ĠNC":12678,"ĠSa":12679,"111":12680,"hazard":12681,"ĠKaplan":12682,"anthine":12683,"Ġcovering":12684,"ĠRiver":12685,"Ġmetric":12686,"Ġaccompany":12687,"ĠCalifornia":12688,"Ġtropical":12689,"Ġimmunized":12690,"Ġaerosol":12691,"ELISA":12692,"injection":12693,"Ġgp":12694,"ĠRI":12695,"Ġtot":12696,"LPS":12697,"My":12698,"osamine":12699,"Ġbiore":12700,"opathologic":12701,"ĠMF":12702,"opres":12703,"ĠOral":12704,"ĠEleven":12705,"orax":12706,"Ġlysis":12707,"tDNA":12708,"Ġminority":12709,"Ġsaturated":12710,"arterial":12711,"sided":12712,"Ġserves":12713,"Ġpsychosis":12714,"Ġinputs":12715,"Ġhumoral":12716,"Ġgovernment":12717,"Primary":12718,"Ġlymphocytic":12719,"Ġurethral":12720,"Ġtoday":12721,"Ġphotocatal":12722,"ĠTRA":12723,"Ġsummarized":12724,"real":12725,"Ġopinion":12726,"Ġpolymeric":12727,"Ġinteracts":12728,"NTs":12729,"estr":12730,"Ġfabrication":12731,"ximab":12732,"Ġdeformation":12733,"ĠAspergillus":12734,"Ġgrading":12735,"Ġadducts":12736,"Ġfum":12737,"abol":12738,"Ġdifferently":12739,"phic":12740,"Ġgeometric":12741,"Ġdegraded":12742,"Ġcaudal":12743,"Ġprone":12744,"Ġsagittal":12745,"enol":12746,"ĠExposure":12747,"Ġbenzodiazep":12748,"Ġlearned":12749,"Ġimmig":12750,"Ġelectrosp":12751,"lass":12752,"Ġsilencing":12753,"yrate":12754,"Ġisomer":12755,"idym":12756,"ilized":12757,"xual":12758,"ĠSocial":12759,"Ġhematoma":12760,"Ġrotational":12761,"att":12762,"Ġrearrangement":12763,"Ġfilaments":12764,"quine":12765,"ĠLiver":12766,"imes":12767,"Ġenabling":12768,"fluoro":12769,"Ġheterozyg":12770,"ĠIT":12771,"Ġperp":12772,"Ġcollaboration":12773,"Ġglyce":12774,"Ġdiscriminate":12775,"Ġengagement":12776,"During":12777,"Ġimmunomod":12778,"Ġmentioned":12779,"ĠYork":12780,"Ġtyping":12781,"lycemic":12782,"Ġsheath":12783,"itating":12784,"aterally":12785,"Ġhygiene":12786,"reliminary":12787,"Ġmedicinal":12788,"ipal":12789,"uciferase":12790,"Ġangiographic":12791,"Patients":12792,"ĠCharacter":12793,"Ġfire":12794,"Ġgrades":12795,"ĠConclusion":12796,"ĠPlasm":12797,"inear":12798,"onuclease":12799,"ĠBio":12800,"ĠRE":12801,"ĠCollege":12802,"Ġosmotic":12803,"rod":12804,"icine":12805,"Ġmilitary":12806,"Ġpolyps":12807,"Ġengineered":12808,"ĠHal":12809,"110":12810,"Ġhydrogel":12811,"his":12812,"Ġspindle":12813,"Ġpathophysiological":12814,"Ġspik":12815,"esti":12816,"Ġtear":12817,"opathies":12818,"Ġnormotensive":12819,"Ġbeads":12820,"Ġsuccin":12821,"axial":12822,"Ġascending":12823,"AIDS":12824,"vix":12825,"600":12826,"Ġsoon":12827,"approximately":12828,"hysi":12829,"ophilus":12830,"Ġaxon":12831,"exual":12832,"hydration":12833,"Ġdeletions":12834,"Ġneuroblastoma":12835,"ĠIOP":12836,"Ġenlargement":12837,"ĠSecondary":12838,"ĠMid":12839,"ulae":12840,"Ġaminotransferase":12841,"ĠMat":12842,"ĠCalc":12843,"Sh":12844,"oup":12845,"ĠSn":12846,"Ġpromoters":12847,"Ġaxillary":12848,"Ġconve":12849,"Ġoverload":12850,"top":12851,"Ġgermin":12852,"alkyl":12853,"eminal":12854,"ĠIBD":12855,"Ġnoradrenaline":12856,"odi":12857,"ĠmAb":12858,"ĠRho":12859,"okers":12860,"Ġmonomer":12861,"ĠClinic":12862,"throughput":12863,"ĠAnother":12864,"Ġreliably":12865,"Ġsput":12866,"Ġroutes":12867,"Ġactually":12868,"Ġagreed":12869,"domen":12870,"tract":12871,"Ġimmunoblot":12872,"Ġpropranolol":12873,"Ġamine":12874,"Ġbath":12875,"Meier":12876,"Ġplanar":12877,"Ġmalformation":12878,"Ġdemographics":12879,"Ġgirl":12880,"VHD":12881,"racycline":12882,"Ġallerg":12883,"Ġconfirmation":12884,"Par":12885,"Ġassistance":12886,"Ġreadmission":12887,"Ġpropensity":12888,"FV":12889,"inted":12890,"ellec":12891,"utch":12892,"Ġshifted":12893,"Ġosteotomy":12894,"Ġsurrog":12895,"ximum":12896,"Ġfriend":12897,"Ġanter":12898,"Ġerec":12899,"Radi":12900,"Ġpriming":12901,"ĠmiRNA":12902,"reater":12903,"Ġnanotubes":12904,"ster":12905,"operated":12906,"Ġsharp":12907,"Ġreactor":12908,"Ġhelix":12909,"Ġment":12910,"ighteen":12911,"bly":12912,"Ġdystrophy":12913,"Ġperceptual":12914,"Ġinversion":12915,"Ġcone":12916,"009":12917,"Em":12918,"Ġgranule":12919,"ammon":12920,"Ġporph":12921,"oted":12922,"Ġmicelles":12923,"Ġpenicillin":12924,"ĠBel":12925,"ĠCarlo":12926,"coupled":12927,"Ġbreastfeeding":12928,"surface":12929,"Ġsomewhat":12930,"Ġbridge":12931,"Ġforensic":12932,"AUC":12933,"Ġchance":12934,"eries":12935,"Ġthiol":12936,"Ġaccessory":12937,"Ġpuls":12938,"ĠManagement":12939,"Ġpolyclonal":12940,"Ġfailures":12941,"ĠMEDLINE":12942,"ĠBrazilian":12943,"Ġbuilt":12944,"Sur":12945,"pur":12946,"assess":12947,"QoL":12948,"prof":12949,"Ġtaste":12950,"Ġpositioning":12951,"graduate":12952,"ocarditis":12953,"Early":12954,"Ġingredi":12955,"health":12956,"item":12957,"Ġnitrite":12958,"ĠICD":12959,"ĠPhysical":12960,"eliac":12961,"Ġsegmentation":12962,"ĠHeLa":12963,"Ġsynthetase":12964,"oxidation":12965,"Ġexerts":12966,"Ġclaims":12967,"Ġalive":12968,"ĠBW":12969,"Ġtransplants":12970,"ĠEduc":12971,"Ġcholangi":12972,"Ġpathologies":12973,"Ġbeds":12974,"Ġcobal":12975,"Ġdetachment":12976,"Ġinvestigators":12977,"Ġfalc":12978,"Ġjudged":12979,"ositis":12980,"ocysts":12981,"Ġtubules":12982,"vinyl":12983,"Ġmultivariable":12984,"imide":12985,"apamil":12986,"ĠCEA":12987,"ouble":12988,"ĠDown":12989,"Ġordered":12990,"Ġanticoagulation":12991,"Ġ--":12992,"onucl":12993,"identif":12994,"Ġinfusions":12995,"Ġhomes":12996,"Ġstrengths":12997,"Ġweighted":12998,"Ġnegligible":12999,"eremia":13000,"ĠFifteen":13001,"Ġknockdown":13002,"enching":13003,"Ġmeg":13004,"Ġultra":13005,"Ġbirths":13006,"oxone":13007,"DAC":13008,"Ġgent":13009,"Ġperoxis":13010,"XR":13011,"Ġspots":13012,"Ġaway":13013,"oter":13014,"Ġanticoagulant":13015,"Ġtolerability":13016,"Pr":13017,"Ġstimulatory":13018,"ĠSubsequently":13019,"Ġemphasize":13020,"Ġ102":13021,"Ġneuroprotective":13022,"Acc":13023,"Genetic":13024,"dihydroxy":13025,"osensory":13026,"Ġfifth":13027,"Ġferritin":13028,"Ġtransit":13029,"Ġgrouped":13030,"Ġcatalyzed":13031,"reedom":13032,"ĠColl":13033,"ĠRecom":13034,"Ġprescribing":13035,"Ġnanow":13036,"nm":13037,"Ġacceleration":13038,"oxo":13039,"lep":13040,"ensitization":13041,"Ġacupuncture":13042,"tissue":13043,"Ġoriginating":13044,"Ġmutated":13045,"Ġhepatocyte":13046,"ocortical":13047,"ancomycin":13048,"Sup":13049,"nd":13050,"Ġcreatine":13051,"Ġspecialist":13052,"diagnosed":13053,"Ġproteases":13054,"ĠSCC":13055,"Ġmotivation":13056,"Ġkinem":13057,"Ġelicit":13058,"Ġlidocaine":13059,"label":13060,"Ġvoice":13061,"Ġsuffer":13062,"Ġulcerative":13063,"Os":13064,"Ġlysosomal":13065,"Ġprotects":13066,"calc":13067,"ĠFr":13068,"Ġhypothermia":13069,"Ġcurriculum":13070,"Be":13071,"ROS":13072,"ECs":13073,"induc":13074,"iber":13075,"etra":13076,"uber":13077,"Ġdislocation":13078,"apter":13079,"Ġscope":13080,"ĠSci":13081,"Ġundet":13082,"Ġphysicochemical":13083,"ĠDatab":13084,"BsAg":13085,"Ġductal":13086,"dii":13087,"Ġangular":13088,"ĠSurvival":13089,"Ġupdate":13090,"Ġthous":13091,"Ġtea":13092,"Ġinteres":13093,"ichi":13094,"Ġepidermis":13095,"Ġrhinitis":13096,"Ġarachidonic":13097,"Ġvisualized":13098,"QOL":13099,"Ġdifferentiating":13100,"Ġcomfort":13101,"ĠFactor":13102,"Ġcreating":13103,"Ġvulnerability":13104,"Ġmapped":13105,"Ġswallow":13106,"Ġderive":13107,"Comparative":13108,"Ġgradual":13109,"Ġfra":13110,"ĠMar":13111,"Ġlaparotomy":13112,"Ġcytogenetic":13113,"Ġcorticosterone":13114,"Ġplot":13115,"Ġvig":13116,"olesterole":13117,"ĠIF":13118,"Ġfilters":13119,"ĠCCR":13120,"both":13121,"Ġclients":13122,"Ġsector":13123,"Ġprovider":13124,"Ġterat":13125,"Ġborderline":13126,"Ġlyso":13127,"Ġglutamine":13128,"](":13129,"Ġtotally":13130,"Ġcub":13131,"Ġcalcit":13132,"Ġgranulocyte":13133,"Ġcompensation":13134,"Ġserological":13135,"Ġmultiplex":13136,"rectional":13137,"ypsin":13138,"ĠASD":13139,"Ġbrought":13140,"Ġcontemporary":13141,"onephritis":13142,"istos":13143,"Ġsyr":13144,"Ġdeposited":13145,"Ġsupplements":13146,"Ġmaize":13147,"esian":13148,"ĠCoun":13149,"oderma":13150,"Ġpyruvate":13151,"Ġintellig":13152,"Ġ2018":13153,"olym":13154,"Ġhierarchical":13155,"troke":13156,"Ġrodent":13157,"randial":13158,"Ġmyocytes":13159,"gestive":13160,"Ġpalm":13161,"ĠPositive":13162,"Ġcome":13163,"Ġpublication":13164,"efficacy":13165,"Ġcholine":13166,"Ġconvenient":13167,"Ġagglut":13168,"Ġabdomen":13169,"Ġdisseminated":13170,"Diagn":13171,"Ġremed":13172,"Ġisomers":13173,"Ġnude":13174,"nowledge":13175,"Ġovari":13176,"Ġprepare":13177,"VO":13178,"Ġpostp":13179,"Ġstepwise":13180,"Ġcolour":13181,"Ġomega":13182,"Ġbench":13183,"Ġvibrational":13184,"Ġpit":13185,"orphous":13186,"lys":13187,"Ġelbow":13188,"unted":13189,"Ġexploratory":13190,"Despite":13191,"Ġtap":13192,"Ġstratification":13193,"asted":13194,"âĤĤ":13195,"istically":13196,"Ġstriatal":13197,"rio":13198,"okinase":13199,"SEM":13200,"Ġarteriovenous":13201,"Health":13202,"umber":13203,"oker":13204,"ĠGenetic":13205,"Ġcow":13206,"Impact":13207,"oadjuvant":13208,"Ġmanifested":13209,"Ġcup":13210,"Ġairways":13211,"ompass":13212,"Ġmuscarinic":13213,"Ġmetallic":13214,"omegalovirus":13215,"Ġorbit":13216,"Ġplasmids":13217,"oreactive":13218,"osaic":13219,"ĠIran":13220,"Ġtranscriptase":13221,"ulins":13222,"Ġpalate":13223,"ĠBT":13224,"Ġextremities":13225,"Ġgeographical":13226,"Ġriver":13227,"random":13228,"Ġwr":13229,"days":13230,"minute":13231,"Ġfiring":13232,"ĠUr":13233,"Ġintravascular":13234,"ĠActivity":13235,"Ġhorn":13236,"Ġmicroenvironment":13237,"amn":13238,"adication":13239,"ĠVI":13240,"Ġkit":13241,"ĠPreoperative":13242,"Ġantisense":13243,"Ġecho":13244,"Ġoutpatients":13245,"Ġamygdala":13246,"Ġurgent":13247,"Ġlinearly":13248,"limb":13249,"ails":13250,"ceptive":13251,"Ġgh":13252,"worm":13253,"Ġpresentations":13254,"ames":13255,"adap":13256,"enopus":13257,"Ġrodents":13258,"ĠKorean":13259,"ĠDiagnostic":13260,"Ġmoist":13261,"Ġpolysaccharide":13262,"ece":13263,"diff":13264,"exper":13265,"Ġreper":13266,"Ġinterventional":13267,"Ġjaw":13268,"Ġrestore":13269,"Ġdiscom":13270,"essary":13271,"Ġconfer":13272,"Ġendpoints":13273,"FDG":13274,"ĠPediatric":13275,"Ġpivotal":13276,"cephalus":13277,"Au":13278,"Ġcompact":13279,"Ġmatch":13280,"Ġgem":13281,"ocus":13282,"odys":13283,"ofrequency":13284,"Ġradioactive":13285,"yric":13286,"Ġelectrophoretic":13287,"focal":13288,"ĠMDR":13289,"ulic":13290,"ophylline":13291,"Ġrelig":13292,"seous":13293,"Ġrecycl":13294,"ancre":13295,"razol":13296,"Ġfitted":13297,"Ġ104":13298,"hetics":13299,"Association":13300,"Ġances":13301,"ublic":13302,"ĠRS":13303,"Phe":13304,"Ġinsectic":13305,"welling":13306,"esthetic":13307,"Ġalters":13308,"anz":13309,"Ġ101":13310,"where":13311,"centration":13312,"Ġubiquitin":13313,"Ġbatch":13314,"ophys":13315,"omatosis":13316,"Ġexchang":13317,"Several":13318,"Ġadolescence":13319,"Ġinitiate":13320,"Ġfractionation":13321,"Ġhelical":13322,"Ġtunnel":13323,"ĠStage":13324,"Ġefficacious":13325,"Ġcapabilities":13326,"Current":13327,"oscope":13328,"(-/-)":13329,"Ġvictims":13330,"istence":13331,"Ġlineages":13332,"ditioning":13333,"cancer":13334,"Ġencompass":13335,"ĠNeu":13336,"temperature":13337,"osm":13338,"Ġcervix":13339,"Ġattitude":13340,"Ġmicrobiota":13341,"250":13342,"Ġnephrectomy":13343,"elle":13344,"nitine":13345,"Ġdesorption":13346,"ranged":13347,"ĠBRCA":13348,"Ġextending":13349,"Ġcrypt":13350,"onine":13351,"Ġnocturnal":13352,"ĠBrain":13353,"Ġmonolayers":13354,"Ġhydrocarbons":13355,"Ġham":13356,"Ġeradication":13357,"Ġfaces":13358,"Ġcouples":13359,"Ġindirectly":13360,"ĠLim":13361,"For":13362,"Ġtoxins":13363,"Ġinterfering":13364,"Ġseptum":13365,"ĠIntr":13366,"Ġ1987":13367,"Ġhypertrophic":13368,"HDL":13369,"ĠTc":13370,"Ġaggression":13371,"Ġice":13372,"olor":13373,"Ġintercellular":13374,"Ġperiodontitis":13375,"Ġceramic":13376,"Ġgeomet":13377,"Ġcollege":13378,"ucose":13379,"Ġacidosis":13380,"olig":13381,"relin":13382,"GL":13383,"ĠEp":13384,"Ġexperiencing":13385,"Ġapart":13386,"PB":13387,"onor":13388,"arachnoid":13389,"otyped":13390,"ĠCRF":13391,"case":13392,"Ġdendr":13393,"Ġmating":13394,"Ġparaffin":13395,"Ġdilation":13396,"Ġpuncture":13397,"Ġunexpl":13398,"Ġepididym":13399,"early":13400,"amicin":13401,"Ġsubf":13402,"Ġsides":13403,"thanol":13404,"ĠTher":13405,"icide":13406,"Ġsonography":13407,"ĠMass":13408,"Ġcirculatory":13409,"Ġshoot":13410,"Ġraise":13411,"ĠAsia":13412,"Ġtranslational":13413,"Ġvalves":13414,"ulo":13415,"ĠImaging":13416,"tilis":13417,"ERK":13418,"Ġplateau":13419,"Ġradioimmunoassay":13420,"Ġpositron":13421,"Ġhemodynamics":13422,"ASE":13423,"Ġdiagnostics":13424,"Ġwarfarin":13425,"Ġrationale":13426,"Li":13427,"Ġfelt":13428,"ymmetrical":13429,"Americ":13430,"GG":13431,"aced":13432,"ĠMedicare":13433,"spe":13434,"ww":13435,"atom":13436,"iers":13437,"establ":13438,"Ġcontraceptive":13439,"Ġconfounding":13440,"ĠMc":13441,"Ġexec":13442,"ampl":13443,"Ġanx":13444,"eck":13445,"chi":13446,"zo":13447,"Ala":13448,"Ġcosmetic":13449,"ispanic":13450,"ĠCy":13451,"Ġischaemic":13452,"ĠPN":13453,"ipheral":13454,"effect":13455,"Ġworm":13456,"lem":13457,"Ġirrit":13458,"Ġmonthly":13459,"Ġstroma":13460,"Ġhyperglycemia":13461,"Ġuve":13462,"Ġdetrim":13463,"square":13464,"ĠFEV":13465,"ĠGolgi":13466,"Ġvibration":13467,"Ġpermits":13468,"ellectual":13469,"Ġmagnet":13470,"Ġviewed":13471,"ĠGD":13472,"ĠMus":13473,"vular":13474,"Ġdiscomfort":13475,"ĠNether":13476,"Ġnitro":13477,"only":13478,"ĠImportantly":13479,"Ġprostheses":13480,"Ġvelocities":13481,"Ġhistopathologic":13482,"Ġ106":13483,"onv":13484,"brile":13485,"eper":13486,"ussis":13487,"Ġera":13488,"ĠCurrently":13489,"ĠHelicobacter":13490,"rically":13491,"paramet":13492,"Ġanalytes":13493,"Ġbattery":13494,"Ġcolumns":13495,"Ġintakes":13496,"ĠYoung":13497,"Ġcorresponded":13498,"ĠWhite":13499,"ĠCCK":13500,"roten":13501,"nar":13502,"ĠUC":13503,"ĠRegistry":13504,"Ġcoordinated":13505,"Ġoperational":13506,"ativity":13507,"Ġexcised":13508,"Ġsacc":13509,"ĠRenal":13510,"Ġattributes":13511,"Ġsimplex":13512,"Ġstretch":13513,"Ġexecutive":13514,"average":13515,"otri":13516,"Ġoriginally":13517,"Ġends":13518,"Ġsolitary":13519,"ĠAddition":13520,"Ġprimer":13521,"Ġglomerul":13522,"Form":13523,"Ġimag":13524,"inel":13525,"Ġincremental":13526,"administered":13527,"enoic":13528,"Many":13529,"ilum":13530,"Ġcomposites":13531,"Ġincis":13532,"Ġspan":13533,"Ġsatisfied":13534,"Ġcreation":13535,"hol":13536,"ĠEast":13537,"Ġlamina":13538,"Ġbundle":13539,"ians":13540,"Ġsati":13541,"Ġvena":13542,"acture":13543,"Ġchemotherapeutic":13544,"trolled":13545,"tenosis":13546,"Ġdrivers":13547,"Ġnavig":13548,"otropy":13549,"chloro":13550,"Ġentrop":13551,"Ġsolely":13552,"Ġrecur":13553,"Ġadiponectin":13554,"Ġidentifies":13555,"atinib":13556,"Ġinstances":13557,"PSS":13558,"Ġdownregulation":13559,"onc":13560,"Ġnanocom":13561,"Ġoffice":13562,"arbonate":13563,"Ġorthodontic":13564,"Ġspreading":13565,"Ġdoctor":13566,"Ġadipocytes":13567,"Ġpriority":13568,"Ġsuicidal":13569,"Ġ103":13570,"Ġlambda":13571,"AV":13572,"Ġmalnutrition":13573,"ĠEB":13574,"Ġcholecystectomy":13575,"Ġtyph":13576,"Ġsut":13577,"ĠNetherlands":13578,"Ġendoc":13579,"Ġpostural":13580,"Ġthickening":13581,"Ġ1985":13582,"Ġdesirable":13583,"Ġaccidents":13584,"iparum":13585,"Ġoxytocin":13586,"Cd":13587,"Ġamniotic":13588,"Ġglycoproteins":13589,"Ġmedullary":13590,"Ġstenting":13591,"Study":13592,"iomy":13593,"ĠtRNA":13594,"ĠMajor":13595,"Ġepsilon":13596,"Ġnos":13597,"Ġdib":13598,"Ġorigins":13599,"optimal":13600,"nex":13601,"ĠNOS":13602,"plicated":13603,"ief":13604,"Hyper":13605,"ĠUltras":13606,"ranean":13607,"Ni":13608,"Ġinactivated":13609,"Ġprostatectomy":13610,"ymethyl":13611,"Ġhydration":13612,"Ġfruits":13613,"LO":13614,"CAP":13615,"best":13616,"oxication":13617,"Ġduoden":13618,"ĠIM":13619,"Ġrescue":13620,"oxetine":13621,"umen":13622,"ĠRB":13623,"Ġconstric":13624,"Ġchemokine":13625,"ĠBal":13626,"ocks":13627,"limiting":13628,"Ġdyes":13629,"Ġbalanced":13630,"Ġreserve":13631,"ĠXenopus":13632,"ĠLaboratory":13633,"Ġling":13634,"Ġwider":13635,"Ġparenchym":13636,"gest":13637,"itter":13638,"TGF":13639,"Ġneovascular":13640,"mode":13641,"Ġradiolab":13642,"ĠCardiac":13643,"ĠUpon":13644,"Ġsin":13645,"Ġsuppresses":13646,"Ġfreezing":13647,"Ġbulb":13648,"Ġdepolarization":13649,"Ġnif":13650,"inement":13651,"Ġmetalloproteinase":13652,"Ġpostulated":13653,"Ġvaccinated":13654,"cycle":13655,"entanyl":13656,"Ġmetaph":13657,"025":13658,"opositive":13659,"Ġdominated":13660,"ĠMO":13661,"olk":13662,"Ġshr":13663,"ĠAccordingly":13664,"Ġpossesses":13665,"species":13666,"odeoxy":13667,"night":13668,"Ġdegra":13669,"Ġcatalysis":13670,"alis":13671,"pressure":13672,"ĠTrich":13673,"Ġenerge":13674,"verted":13675,"Ġsubclinical":13676,"Ġcontaminants":13677,"Ġtwins":13678,"Ġbiphasic":13679,"Ġamplitudes":13680,"Ġmeningi":13681,"Ġsilicone":13682,"TOF":13683,"quantitative":13684,"peritone":13685,"Ġanions":13686,"olecule":13687,"Ġchondrocytes":13688,"transplantation":13689,"Ġstig":13690,"Micro":13691,"absorption":13692,"ĠUnlike":13693,"Ġbilayer":13694,"ĠIGFBP":13695,"cortical":13696,"ĠAdult":13697,"ĠBody":13698,"ECT":13699,"Ġbiotin":13700,"Ġvertebrate":13701,"liquid":13702,"Ġoils":13703,"Ġharmful":13704,"Ġextin":13705,"Ġoligonucleotide":13706,"Ġcovalent":13707,"Ġexpiratory":13708,"Ġentirely":13709,"Ġace":13710,"oco":13711,"Ġpaid":13712,"channel":13713,"Ġregularly":13714,"Low":13715,"Ġdefinitions":13716,"umptions":13717,"Ġsorption":13718,"Ġovulation":13719,"inates":13720,"Ġsimply":13721,"Ġsemiconduc":13722,"Ġunnec":13723,"Ġequival":13724,"ĠFF":13725,"Ġcyclooxygenase":13726,"Ġcytoskeleton":13727,"Ġadvice":13728,
[...]
